[PAD]
[UNK]
[CLS]
[SEP]
[MASK]
!
#
$
%
&
'
(
)
*
+
,
-
.
/
0
1
2
3
4
5
6
7
8
9
:
;
=
?
@
[
\
]
^
_
`
a
b
c
d
e
f
g
h
i
j
k
l
m
n
o
p
q
r
s
t
u
v
w
x
y
z
¢
£
²
¿
à
á
â
ã
ä
æ
ç
è
é
ê
ë
ì
í
ï
ñ
ó
ô
ö
ø
ú
û
ü
ā
ă
ć
č
ē
ō
ť
˚
τ
ย
ร
อ
่
–
—
’
”
∇
♪
♫
##c
##o
##m
##p
##l
##i
##s
##h
##a
##b
##e
##r
##n
##g
##d
##t
##y
##u
##f
##3
##2
##w
##v
##1
##k
##x
##z
##♫
##q
##0
##7
##6
##8
##j
##9
##5
##ç
##ï
##4
##ó
##ö
##ō
##á
##í
##é
##˚
##ä
##ñ
##è
##ë
##ü
##τ
##â
##ā
##ã
##ú
##à
##ă
##ť
##²
##ì
##ć
##ร
##่
##อ
##ย
##ê
##û
##ø
##ē
##æ
##¢
##ô
th
the
##er
##in
##at
##nd
##ou
##re
##ing
and
to
##en
##es
##on
##an
of
in
##or
##al
##ed
##is
##it
##ar
that
##om
we
##as
you
it
wh
##ic
##le
##ll
be
is
##ow
##ly
##se
##ut
##ve
##ion
re
##ot
##st
##et
##ent
on
ha
##ct
this
##ld
so
##ay
##gh
st
##ur
##id
do
##ch
##ver
for
##ce
li
##ke
was
##op
they
##ter
an
##ir
##ere
##im
are
##am
##ith
##au
##ro
go
##ally
have
se
with
##th
ab
but
what
mo
he
as
##ol
##ad
##ation
can
##out
ne
sh
com
wor
##ght
at
##ra
not
me
ch
##ould
there
about
##ill
all
fr
##pp
##ant
##ge
##il
ex
##ust
##ers
my
##est
##ul
##oo
de
som
or
##ear
pro
##ause
pe
one
con
##ig
##um
##art
like
##ck
ma
peop
people
##ure
bec
##ight
##ate
##ies
##ity
our
if
from
al
##ess
##ive
##ist
##if
us
kn
##ble
now
tr
te
just
these
##ect
##ind
##all
out
##ink
sp
##ery
##un
##rou
know
when
##ook
see
##od
thing
##us
en
them
##os
because
##ie
up
very
##and
pl
think
##her
who
by
##ort
how
get
##ain
act
some
ever
##ci
year
im
more
going
##iv
##og
int
##ich
tim
had
##one
##el
your
were
would
##em
##ap
look
##ine
su
comp
sa
their
ve
##ame
here
##ment
un
##our
which
than
##ually
##ast
ta
really
le
work
##ous
##iz
##act
want
every
world
##are
##ack
then
##ard
##ose
##reat
way
time
man
##ence
##hing
has
per
ev
exp
##ans
no
qu
pr
##ab
##ore
##ther
##ag
##ide
lau
actually
will
##ace
fe
could
##ions
ag
##ghter
app
##nt
into
##fer
where
pre
##ong
co
did
##ild
am
##itt
things
years
af
other
laughter
##nder
somet
##age
tw
cl
say
##00
new
inter
right
##king
well
##ud
ar
any
##ach
##ss
been
##ical
make
she
need
dif
happ
fir
res
mu
##fe
over
po
##ip
start
##so
part
dis
first
##ia
##ree
bu
two
imp
those
##qu
something
##ice
##ry
##own
lo
##olog
##ory
much
back
call
##round
chan
##orm
##pt
##ite
##ire
##ount
##ign
##ac
also
differ
##ens
##ber
ph
##ound
ro
most
kind
said
spe
got
##ittle
little
##sel
##ass
lot
##ater
ac
even
cont
ad
tal
id
bl
des
##cent
life
##ue
##way
##ple
##ib
##ome
under
##ves
##ult
hum
##ving
bet
day
only
his
sy
take
##ff
##ated
appl
##ru
##ations
##vel
her
many
ind
let
##able
##ep
##du
sc
##ody
br
comm
##ial
different
##co
##other
real
good
does
gr
##ade
##ict
##rough
around
##ell
##ood
##rain
##ick
applause
##ase
down
through
ide
##int
may
why
##cess
##ish
put
##ms
##ph
em
##day
being
##pl
show
##form
##ents
tell
gen
inc
tech
##ars
fl
sm
##ning
##ible
use
same
too
##ject
##ether
##ors
happen
come
##ary
ll
techn
##igh
##ob
##lect
thou
great
##ark
##wn
three
##iver
##ance
count
fact
big
proble
try
thank
human
##ting
##ual
##stem
dr
##ric
##ower
##ak
off
##xt
ca
##ful
##ved
sur
pers
##urn
doing
##ces
talk
##ile
again
##ath
col
##ys
child
after
today
percent
find
dec
##ology
##ord
sim
called
##illion
system
##ied
rem
wr
##ren
inst
##red
##nds
##ang
##fore
ear
wom
##ically
made
exper
inv
build
quest
gu
##ons
car
##thing
##self
fo
##cial
lear
bel
##ities
ob
own
long
##ition
bas
##ress
##te
##ious
stud
op
##ize
##ating
gl
underst
import
##ub
design
##body
##oss
##ics
should
##ty
rel
change
hel
sch
high
##ft
##we
its
end
last
##ian
creat
ins
bo
ask
another
feel
brain
old
##av
##gan
##les
##ates
idea
cour
trans
imag
cr
important
person
##ope
sci
started
##con
exam
fu
interest
##ution
thought
##als
cons
before
understand
mon
ke
mean
##ail
him
turn
plan
##atter
power
bit
play
##ert
never
##ough
help
might
##ise
pol
produ
000
ter
##ily
tog
better
together
story
art
went
able
##ility
##ool
sol
fam
##ists
give
point
##be
still
problem
commun
few
belie
##pe
##ction
found
sl
course
##ular
each
mus
next
##kes
num
mod
cent
school
##erg
##mo
came
ago
str
##ix
##ather
tra
##oth
technology
med
kid
cell
20
eng
hu
learn
sort
fin
ext
rec
19
dat
used
place
comple
##ited
water
##iss
ser
##velop
##ense
met
##atch
##alth
nat
question
min
develop
##lic
##read
four
##ward
seco
small
##ness
##az
##ween
grow
##ork
comput
ok
##ience
cre
women
##ures
##ized
between
10
##ways
far
##eric
mom
data
example
##ines
att
wo
##ific
expl
love
inform
eff
gra
bi
looking
##ave
maybe
americ
move
##ced
rep
chang
lar
##cy
read
children
el
cap
##cept
done
##ets
##ute
wanted
##ale
##conom
##gr
partic
care
live
gener
econom
beh
##ings
afric
sk
light
always
away
organ
project
hard
##ism
whole
##ably
##ds
less
##ands
stu
##aw
ho
war
##ational
poss
second
million
prot
##iness
##selves
##ative
##ross
bus
cor
health
information
space
everything
vis
trying
working
giv
using
believe
reas
##ments
hand
##per
##oney
##ruct
##ah
univer
supp
doll
elect
pict
##ks
compan
##ger
##nect
five
country
wal
frie
open
lead
home
resp
form
number
ent
process
means
sub
##ural
sing
##ries
inf
book
##ital
thinking
##air
##ten
##hip
anim
spec
##ead
earth
##ts
fut
intern
times
cle
took
##led
create
run
cou
##gin
pres
##cr
money
acc
##cer
##aces
food
reg
mind
become
##its
##ock
future
prob
gover
pub
making
kids
vide
##aut
music
govern
##roup
group
social
hal
energ
month
##ues
##ract
cur
set
pat
glob
air
red
left
quite
connect
val
##gg
enough
##wh
interesting
200
without
fun
##ories
sense
teach
energy
add
best
getting
happened
city
sw
youn
gre
pass
##ention
sound
##ull
##ven
##ember
hist
head
##sw
##ouse
cam
sign
comes
##iew
##ety
##ne
beaut
pret
##ices
pie
half
mark
contro
jo
body
##cover
##vir
##iting
soci
pretty
begin
probably
##der
##ately
lives
##irl
pop
answ
stop
amaz
matter
stuff
phys
video
##ron
room
mar
char
imagine
##ote
coming
keep
##ier
wee
model
##ient
countries
dollars
talking
##ew
building
##viron
##uring
dist
##io
environ
##ner
mach
job
##most
det
moment
opp
##ying
men
face
told
young
hope
##ogra
family
ey
such
##ever
wonder
wa
remember
##lf
eas
simple
girl
africa
hour
allow
across
par
##cus
##duc
share
saw
##olution
##cle
phot
fore
side
conf
stand
living
reason
ty
science
business
global
aut
having
##ird
rob
##ince
anything
educ
almost
##earch
research
scient
yet
else
##gs
while
cult
planet
##idd
case
##fect
##no
days
bring
che
experience
billion
later
asked
list
top
##pr
ways
##work
##ided
computer
##ality
okay
yes
makes
##ertain
thous
dise
##allen
picture
sure
prof
##ior
##ization
cost
stre
bad
fig
seen
polit
##imes
six
##res
##ortun
##arent
nothing
cells
pain
particular
effect
complete
inside
once
##me
prop
environment
def
##med
##aps
bre
##ograph
##ences
level
ge
##llow
age
both
sec
amazing
##ots
##gram
single
happens
mil
##orn
public
challen
sit
watch
##ken
goes
self
answer
##ont
often
mem
mag
lab
##iter
unt
dev
net
vir
##man
loc
##ilt
##ulation
##where
hear
certain
history
suc
community
##oice
##ready
states
##ott
##ash
already
test
contin
adv
instead
##ants
exc
program
whether
within
##ivid
product
##ape
discover
mor
order
heart
says
beautif
equ
dire
myself
problems
possible
news
##oc
##vers
law
sou
##pect
ideas
rest
##ina
state
months
exact
##osed
##ury
someone
basically
everybody
looked
large
sometimes
##na
##ases
incred
##aterial
##imate
since
looks
di
15
##ins
wrong
oh
##ndred
hundred
control
100
##ling
##ield
##side
##ange
incre
saying
tre
nature
##ank
fund
ref
object
government
woman
pay
class
land
##itive
beautiful
night
##aster
const
treat
ye
##ps
deep
individ
ted
aud
terr
internet
until
30
material
line
heard
50
##bers
result
built
fil
ris
piece
##less
works
guy
entire
##ages
black
engine
##br
##ene
cond
full
walk
friends
figure
kill
nor
oce
ass
past
lang
true
##ond
##ri
##ream
iss
dra
united
everyone
free
individual
must
words
##ivity
##iddle
cra
##atic
abs
##acter
places
##ware
close
yeah
##ives
though
##ired
house
langu
middle
##get
##ustr
against
experim
arch
happening
cal
##oy
##ider
ret
completely
av
tool
collect
view
inno
society
##row
quick
species
taking
follow
team
education
invest
learned
##ental
##ime
har
##lish
##vious
front
huge
couple
##0s
cancer
##ones
##omes
became
##utes
decided
exactly
parent
##etic
mother
clear
meas
struct
god
##ats
stories
##gest
disease
mill
##ined
green
success
questions
hold
##ane
es
itself
train
step
diff
rad
##ared
company
dig
fly
ones
protect
##land
name
##vation
study
universe
neur
mic
mot
knew
bab
##uck
mass
miss
vi
##ogn
animals
themselves
##ters
##ential
rather
spend
ourselves
america
eur
mess
along
kinds
india
ra
##tern
relations
##ision
##ns
##icult
wind
meet
##aper
hours
dru
created
##cc
##ush
complex
network
##haps
perhaps
##ibly
##ability
bro
##ator
coll
opportun
cau
bra
deal
thousands
##ming
gets
##itting
##cing
##line
recent
century
##ians
prov
word
dep
colle
behav
listen
del
market
hy
exist
dem
somebody
##bs
cir
##face
univers
machine
difficult
least
third
grand
ed
appro
finally
var
pos
rev
##ional
ant
##iqu
##rib
ste
turns
field
jour
norm
systems
worked
##ake
expect
pred
oper
based
ele
pot
##ted
##thers
##ules
demo
##ially
##ented
outside
lots
extra
cut
others
death
language
math
sun
direct
##ode
##wards
ocean
##ination
learning
##ames
##lud
liter
sens
early
amount
cities
##ients
sex
##dd
reality
super
##ium
bott
focus
communic
fre
##ples
scale
bar
york
companies
europe
takes
ple
##utions
speak
technolog
natural
##gress
##urs
seven
blue
record
during
##istic
relationship
seeing
leg
##rop
##aring
##lt
maj
instit
students
gave
patter
interact
explain
reach
needed
happy
changed
minutes
##ides
lim
moving
taken
difference
fear
##olved
beginning
leave
common
american
pick
##cra
fail
support
sil
short
chr
##ident
behind
##ither
access
humans
culture
parents
wall
opt
major
ess
hands
##att
economic
dream
##ern
media
##verage
image
##astic
terms
##ully
##ump
sym
viol
occ
began
area
press
population
##inary
low
##cious
size
china
turned
stay
trad
phone
eyes
eight
##itions
sent
guys
easy
squ
##ency
chem
ident
obvious
white
famil
typ
ap
##ret
serv
friend
ice
absol
behavior
needs
game
enc
extre
bir
sum
local
##ipp
##osp
absolute
emb
40
ill
powerful
perform
week
audience
parts
fish
##itect
given
wonderful
##elt
architect
cy
realized
##mer
mult
oil
##hood
12
fall
doct
longer
##ney
event
feed
surv
father
whatever
mov
impro
##unch
poor
center
ground
##ges
special
measure
robot
##ply
south
mal
##arch
transform
travel
break
##lec
##iving
simply
##ature
##itch
tem
consum
growth
quickly
tot
perfect
surface
repres
dark
##aking
##rought
##ising
##idence
yourself
priv
lost
surpr
foot
leaders
micro
approach
fight
born
national
sever
near
insp
political
strong
dna
##fully
known
personal
recogn
challenge
felt
##ades
arg
includ
sea
key
gone
non
sour
##ains
##sy
camer
tried
##ibility
##ivers
win
post
value
##up
evolution
buy
box
bill
##ering
##ively
resour
##ological
##ised
##iny
blood
interested
civ
##bo
##bor
climate
consider
economy
##ledge
fast
##ton
requ
##avor
neigh
opportunity
caus
##ma
ability
orig
eat
feet
present
18
color
relig
slow
respons
sitting
##inal
##ison
conv
##ilar
changes
circ
voice
##els
##acy
scre
send
obs
arm
growing
pract
##gen
##izing
dest
die
ball
either
##end
##ouch
weeks
vers
descr
cool
shows
fundam
##app
##ero
prin
emot
##anger
hundreds
risk
areas
physical
incredible
##ged
anal
##ived
##ards
indust
photograph
profess
cop
##cially
predict
##zy
medic
repl
##entially
road
##ellig
##dden
sudden
impact
experiment
technologies
average
brought
extreme
vac
##ustain
alone
millions
ce
pur
images
patients
##ler
##he
##uth
spent
north
vol
street
draw
ast
molec
##ule
scientists
bur
cars
paper
starting
structure
25
fac
convers
numbers
rich
##ony
girls
hosp
##ateg
##rent
stage
forward
bene
dou
fire
##ny
feeling
development
forest
ur
##bon
##sych
understanding
giving
books
nice
psych
rock
similar
situ
tradition
spread
aff
digital
movement
bottom
mars
##rodu
imm
intellig
##ored
sustain
##ified
developed
electric
film
pen
unf
pull
##li
trust
knowledge
changing
tools
##room
ach
sho
attention
est
##arr
##omet
##ife
plant
drop
term
morning
generation
comb
seems
inde
miles
fem
touch
##ral
##xy
worth
flo
recently
sat
##old
##ped
soon
conc
anyone
visual
animal
civil
enter
serious
##ows
soft
##ument
poll
telling
write
literally
dim
truth
realize
absolutely
##par
##ators
redu
creating
hun
##to
rele
dead
depe
camp
ah
##hor
map
prom
experi
eye
choo
emerg
transp
current
favor
ult
##gn
##chan
compet
block
increas
##ilities
modern
##ove
##lu
##erm
##ique
mathem
11
sn
vill
main
text
solution
tur
stra
##aged
arr
gal
mount
##ption
type
ir
##urity
##ids
goog
carbon
##por
lay
force
emp
baby
aw
attack
skill
revolution
industry
hor
tiny
gives
among
##ploy
smart
crit
fur
##ging
computers
patient
theory
mob
ep
putting
park
guess
achie
bacter
hon
choice
affect
sounds
code
ec
##ites
##ival
describ
web
mechan
save
polic
innovation
path
concept
##ensive
##ances
lived
progress
avail
hot
groups
solve
##pecially
medical
especially
##cin
except
safe
several
##iod
bey
produce
running
##oices
##ify
speed
track
democra
sold
seem
benef
period
beyond
led
##amed
shape
drive
rules
##ift
conscious
developing
##bit
asking
phil
device
discovered
dom
rate
son
##ister
action
express
wrote
201
normal
bal
da
nine
##ried
sugg
suggest
##oun
subject
song
star
security
google
log
designed
capital
boy
clean
defin
fair
sle
##iant
sell
neighbor
stat
dam
##ned
issue
##let
showed
tele
available
activ
pictures
bed
cause
sal
nobody
chance
flu
solar
virt
likely
university
died
##vent
##iction
##ished
plants
basic
vision
incredibly
screen
port
online
##ously
anybody
magn
##nch
search
report
extraord
movie
meaning
journey
##ram
##eter
playing
obviously
resources
60
##ug
function
certainly
##cul
##lo
compass
cover
talked
farm
general
source
pan
character
lif
becomes
##phere
##tend
violence
cit
dan
danger
towards
stru
table
evidence
flow
bigger
particularly
issues
er
##oring
virus
perspect
deg
##istan
din
##ban
##erv
##apt
##abor
##ude
effic
##oming
react
clos
showing
reasons
account
message
potential
dimens
west
please
nu
##arily
lea
involved
##medi
situation
prim
walking
trees
fundamental
democracy
rece
##oph
##aughter
examples
lad
##ee
199
rights
african
##verty
##usion
ready
poverty
english
connected
indeed
knows
rain
check
vari
further
tree
##ex
##uly
quality
objects
##lict
##ley
adm
capt
materials
##ief
terror
crazy
drugs
compassion
aware
fa
##iar
##rast
##ners
moved
peace
##ips
breat
zero
necess
complic
citiz
push
print
scientific
apart
##use
##ffer
communities
detail
deliver
represent
princi
fill
##str
tend
interv
##oms
role
projects
faster
##gth
##ama
##umb
carry
drug
college
essentially
fant
tar
tom
skin
suddenly
hospital
tas
wish
##by
threat
starts
grad
machines
camera
notice
##ference
biggest
results
div
##uit
##ishing
schools
exciting
meant
##une
everywhere
ger
##aid
onto
cold
anyway
largest
choose
san
offer
##ster
immedi
wait
fing
eventually
##icle
door
neg
genes
organization
##book
stick
cris
international
##osphere
wants
blind
writing
minute
labor
continue
cross
fix
##more
##amm
software
##ground
diag
##ires
colleag
##ext
##aught
higher
bacteria
perspective
##clear
context
models
conflict
square
families
500
link
lower
accept
office
individuals
##ops
##ims
thousand
secret
collabor
extraordinary
hit
##fort
depend
sleep
rid
##cape
separ
##oles
usually
buildings
totally
eth
passion
village
fle
mis
##antly
infect
chemical
bank
creative
sky
joh
increasing
daughter
##light
##ring
store
thanks
assum
mathemat
cart
lose
##isions
freed
bom
##ein
waste
particip
grew
##cuss
improve
traditional
favorite
##ze
##oud
##sect
strateg
meth
coun
mine
wild
standing
pattern
medicine
luck
##ik
##erve
##isms
##ently
suffer
adult
birth
complicated
east
kil
##oon
##how
gold
##ured
spir
address
proper
wife
##nal
##go
ann
sequ
##itten
graph
robots
patterns
architecture
hop
larger
specific
doctor
16
##itary
older
watching
conversation
ban
gas
sam
##eth
worse
##izations
finding
pieces
detect
intelligence
jud
pack
##cise
##xic
##apan
##ruction
finan
pu
##enom
##odies
syn
##ffic
increase
neurons
japan
rap
taught
##ese
extremely
##uct
##set
imposs
supposed
sand
##ought
brit
student
painting
late
##bol
doc
forms
launch
decision
gala
lands
isl
atm
afgh
brains
##yn
stars
above
shown
truly
introdu
teachers
service
fas
lines
##onse
tells
corre
positive
electricity
fine
page
##fact
manage
unfortun
##iger
activity
##cient
unc
named
vict
##come
##ulate
however
##others
continu
products
including
afford
80
don
##sequ
deb
saving
##ipt
disapp
clearly
goal
central
##ission
purp
ine
somehow
prison
ended
smaller
jobs
games
##ping
thr
##rage
sorts
christ
##put
spect
##uss
response
successful
los
##ining
##atory
happiness
biology
influ
conditions
afghan
14
cat
ten
tun
clin
glass
excited
freedom
impossible
bunch
cases
##ai
##aur
therefore
exh
appear
discuss
roll
distrib
shap
##aging
healthy
signific
allows
memory
return
##estern
unique
achieve
allowed
multip
cry
enorm
bud
##sc
anymore
effort
killed
weight
decades
solutions
innov
policy
strugg
hom
init
ang
upon
##emic
loved
##akes
autom
##mend
depress
recognize
german
17
fit
rand
##thern
apply
teacher
fantastic
card
pal
tit
##iced
##iding
##idge
becoming
alive
clim
remind
laws
##enomen
sus
somewhere
phenomen
198
societ
engineering
hur
enj
remark
americans
region
occur
urban
tiss
##pped
reflect
temper
crisis
13
mir
site
western
##met
##lier
heav
desp
income
series
costs
oxy
swe
##ceed
veh
##ounds
genetic
environmental
dad
mention
##rum
##amp
private
mobile
hiv
king
ran
##egr
price
##phone
points
beauty
diseases
neighborhood
liber
concer
alth
expensive
quant
strange
respect
author
challenges
unfortunately
##oke
##imately
hey
muse
greatest
determ
radio
institutions
although
jump
##ales
forget
worry
throughout
driving
shared
vacc
range
##vert
##igr
##epend
##inese
position
cook
##rep
##ased
##ches
contrib
employ
decisions
studies
dangerous
fra
##cies
##zz
consequ
actual
##ologists
kept
famous
##lished
straight
citizens
interview
fascin
21
throw
insect
trial
trick
##acity
speaking
##ube
reading
training
skills
immediately
ign
none
manu
industr
electron
treatment
provide
pressure
bodies
narr
##for
choices
gene
governments
values
##itation
stem
seconds
waiting
floor
mist
##men
##po
##enced
plastic
earlier
final
##airs
magic
##iversity
transport
museum
manufact
##ises
moon
written
transl
military
colleagues
den
chinese
calcul
industrial
rise
##ightly
cust
##itude
whe
##lebr
resist
##soci
hero
following
familiar
celebr
##ror
##ervation
fort
production
physics
##rest
humanity
himself
police
minds
broad
24
river
sor
##oid
##vision
legs
mostly
surve
engage
respond
flying
journal
optim
financial
societies
lat
wealth
##sem
hair
dog
select
anywhere
board
president
version
base
##ana
shot
trou
offic
planets
politics
ara
tv
ver
##sh
content
scr
fold
organizations
swim
hall
ken
##uted
##ables
match
rule
##cl
##ball
##dom
##atives
##aly
hell
associ
##ained
drink
various
types
gun
##ios
##inct
town
beat
willing
commer
greater
dollar
performance
critical
spirit
sate
webs
##lly
workers
simpl
electr
moral
massive
hyd
female
satell
mamm
##ndon
##ays
sharing
##iling
##itted
beings
decade
##rene
sad
##itor
integr
relative
explore
walked
encou
doub
la
yell
##ancy
##rap
##ement
##attle
services
nuclear
enormous
##eless
scan
invent
levels
harv
##rastruct
mental
trade
surg
hole
infrastruct
religion
consciousness
john
bang
et
laugh
direction
engineer
sustainable
ut
##iber
alg
london
email
devices
programs
listening
summer
destro
wide
##back
##orrow
invented
designers
ahead
afghanistan
random
##pan
genome
artist
relationships
##load
mut
independ
useful
oppos
300
70
catch
dar
uses
plat
instance
helped
histor
streets
experiments
efficient
method
atmosphere
nut
##used
connection
mid
##iet
##50
prep
belief
capacity
controll
physic
demon
ben
nation
##iation
ton
##aries
##oty
##ulf
##iven
197
honest
enjoy
dav
male
master
##unk
smell
understood
effective
directly
communicate
purpose
worst
highly
fuel
cultural
custom
##ec
##ech
##reprene
infrastructure
tens
##ef
##ffe
##atically
##ica
party
entreprene
teaching
terrible
brand
communication
closer
je
nan
forth
ancient
trip
##ores
agric
inspired
agricult
gather
ske
##anced
##ils
tax
displ
corner
standard
motiv
90
sect
whose
contact
meters
babies
chris
doctors
causes
mountain
virtual
aid
paid
wood
##uge
##arian
##key
seas
noticed
below
raise
meeting
networks
experiences
race
tum
##aign
mos
##istics
justice
seemed
##ologist
flight
surround
mission
birds
campaign
hous
pet
##lant
feels
parad
photos
profound
##resh
sorry
hus
rare
##itter
##olve
##rupt
popular
democr
surprising
bord
dance
eating
gent
ira
##rees
comfort
##anda
expand
career
addition
demand
target
task
demonstr
dying
mou
##bel
##aling
##amic
altern
effects
molecules
bag
##bed
##yle
artists
malar
fat
giant
vast
##ike
##wise
196
stopped
loss
russ
tough
##ifying
applic
decide
possibly
airpl
symbol
survive
remarkable
austr
gard
pig
sick
ord
##iforn
slightly
supply
switch
matters
magaz
californ
television
tissue
3d
lack
rough
##wood
evolved
nearly
cru
hang
mr
##icking
heat
##iles
##ung
brother
transm
crow
frame
coast
partners
musl
explor
biological
markets
structures
missing
oxygen
bought
mich
##ls
##aff
##oper
frank
org
##istry
prevent
##aced
indian
creativity
produced
photo
ultimately
arab
gentle
eg
##of
##anc
##erson
twice
##rench
related
imagination
played
hearing
copy
iraq
california
##oting
##cks
percept
agree
cla
visit
forever
members
original
practice
gradu
fash
wire
##arter
seed
##rael
##empt
compon
gotten
differently
slide
correct
yellow
dyn
fab
mix
##house
israel
held
##raid
exer
trib
basis
kilomet
despite
gar
rh
##inate
afraid
importantly
moments
refuge
total
inspir
mort
roo
forg
shock
##osy
tremend
condition
responsibility
analy
cooper
speech
##idden
institution
##rew
weap
stren
washing
aspect
coffe
desert
investment
##like
##tle
differences
landscape
significant
surgery
platform
##iest
##band
##nel
##zil
##arm
##aining
dram
corpor
answers
fully
billions
turning
strength
batter
##gu
##zen
background
adapt
creates
traffic
##othes
brazil
legal
philos
na
tast
##ander
##izes
noise
##ification
accom
funny
join
cheap
double
reduce
finger
rapid
trouble
website
david
mouth
fashion
ble
bone
inj
##leg
forces
letter
invis
published
passed
harm
window
leadership
##board
coffee
teen
host
##ography
spending
emotional
farmers
commercial
##iers
##ued
##vit
wear
amb
phones
scientist
degrees
won
##cest
##here
##bing
tor
##ened
spaces
complexity
temperature
##osystem
wis
##iot
repe
shift
##itely
adop
helping
foundation
distance
entirely
malaria
fro
iron
mer
##fl
prize
bringing
majority
fighting
origin
epid
##ok
##ees
ancest
metap
lights
leading
facebook
easier
collective
broken
european
ecosystem
aids
nations
##ius
##orith
island
hack
##amb
shop
##ume
##unt
appre
blog
easily
gender
definition
algorith
bul
rot
##atures
##aul
##antage
colors
boys
foreign
opportunities
cos
core
cred
##alia
recon
recover
asia
##ibr
engineers
holding
embra
400
bread
diversity
assem
##ada
active
##ruption
brings
pleas
##orge
##icles
##ulated
artific
elements
religious
astron
describe
mosqu
bound
cogn
ju
##omy
knowing
intel
otherwise
calls
childhood
##ressed
organisms
stuck
snow
faith
mas
ug
##af
habit
chim
previous
disc
attempt
possibility
paint
breast
discovery
grandm
failure
iran
consequences
fol
foss
ren
##la
reve
##cell
libr
##ysis
creatures
accord
identity
benefits
diagn
depression
invisible
appreci
ray
tour
##water
##celer
##irt
unlike
particles
accur
figured
insects
burn
french
##vity
##ening
conference
opened
regular
construct
lucky
keny
fed
prou
##ulous
maint
teles
remote
politic
succeed
frequ
dinos
hydro
magazine
telesc
tap
prost
coal
bub
indic
leads
signal
joy
newsp
motor
motion
raised
hyp
increasingly
mathematics
germany
destroy
opposite
bird
bear
shark
##ifically
saf
managed
prev
cloud
acceler
attract
lesson
depart
edge
professor
empower
strategy
phenomenon
etc
kilometers
due
gh
vul
##reg
##ami
chur
chick
compared
sexual
walls
degree
vent
##pre
therap
notion
##pping
extend
defe
##iable
lock
brill
damage
synth
mothers
##eral
reb
stock
compare
creation
focused
limited
slowly
horr
benefit
fairly
mad
##gar
wearing
##orts
closed
studying
conduct
trained
surprise
multiple
fascinating
tremendous
mit
rom
##ams
note
##ulations
scul
bridge
install
dimensional
counter
cosm
fal
pounds
##edd
mexic
spot
everyday
studied
harder
hopefully
##print
150
dreams
cycle
necessarily
adults
exhib
husband
fif
rout
##ypt
##vant
shel
appe
desire
signals
normally
responsible
domin
according
proud
lu
##win
weird
mel
meat
twitter
click
grass
##forest
planning
believed
layer
cand
mart
pages
fellow
scene
##ipped
tomorrow
negative
egypt
band
lin
mouse
##cles
##right
##ky
##encing
##stein
##pper
events
fell
acad
##ibilities
insight
helps
leader
circle
necessary
british
era
##xies
##itness
##entally
soil
implic
calling
##issions
fourth
organic
##ographic
##riage
movies
require
caused
separate
manufacturing
artificial
vulner
hate
sister
##encies
agre
apple
pregn
factory
equival
classroom
caught
symmet
illustr
seriously
puzz
document
quantum
sculpt
fresh
##inist
belong
equal
deeply
eleph
competition
breath
suffering
agriculture
homes
hidden
##care
##gment
##wide
frustr
que
##ager
co2
disord
grown
designing
curious
constantly
avoid
summ
currently
balance
vehicle
mentioned
intellect
bon
diver
il
names
rat
##cil
tons
##enn
##anes
whom
reward
##uries
##verse
goals
##ushing
intu
##aker
talks
advanced
deeper
oceans
steps
existence
##ipping
bomb
fortun
gd
pun
round
##urally
abst
myth
arms
poet
surge
boat
finished
##craft
satellite
categ
dial
##icity
ship
mak
ali
scen
researchers
advantage
picked
replic
replace
daily
wheel
crowd
metaphor
faces
od
wow
##har
##ford
##throp
truck
quote
precise
smo
restaur
interaction
sequence
galaxies
egg
mur
niger
##mark
##lus
dol
franc
myst
##iff
disp
bright
bits
subst
businesses
survival
struggle
brilliant
gap
##lin
tow
weather
rein
ange
##estic
##uments
prior
##bert
commit
expert
experts
capable
army
property
gdp
ax
witness
##esome
ham
soph
station
novel
blow
opin
court
crime
protein
followed
##iques
emotion
leaving
filled
disappear
dry
jan
nav
nerv
##pher
##asion
liqu
worried
pros
flat
driven
##athy
invited
arts
infin
begins
failed
argue
management
equivalent
pil
##hi
##asa
alt
spr
brief
prototy
valu
paying
argument
principles
influence
shapes
exercise
philosoph
safety
battle
vibr
stim
stood
##idents
chain
exists
##uls
##unte
plane
generations
coral
subm
connections
effectively
treated
typical
considered
emotions
professional
volunte
lifet
announ
migr
pac
rural
vote
##oom
##ength
##lex
##oted
##cket
##apers
advert
corruption
sentence
cameras
versus
civilization
leaves
received
claim
cognitive
church
bare
lunch
sight
tall
voices
##cast
##ked
thir
stress
##essed
spl
whenever
##ensity
##elling
technical
techniques
charge
limit
analysis
##force
darwin
wisdom
ends
gay
mat
rates
##nding
##rete
beach
##odes
cave
grab
yester
investig
radical
institute
essential
chemistry
microsc
convin
emerging
launched
airplane
fossil
nervous
purs
row
seat
shr
##ortex
brown
remo
20th
processes
specifically
married
watched
neuros
fields
conversations
shoes
awesome
organs
grandmother
francis
gall
##rict
incent
concent
load
highest
muscle
recy
opening
accident
sites
testing
universal
cutting
evolutionary
drawing
vaccine
garden
yesterday
oct
##ae
##aled
##ston
orch
veget
unless
polar
finish
continent
circum
molecule
described
galaxy
independent
kenya
ath
hi
pill
##enty
moves
##ests
##apse
quiet
contr
contract
letters
empt
transition
crim
conservation
diet
identify
forests
estab
hung
lady
variety
sector
folks
cow
kick
tick
toy
bees
##emy
aging
designer
warm
prote
marriage
wake
profit
member
northern
dinner
principle
democratic
epidemic
hill
kore
##bur
##yth
asp
thinks
compl
saved
##acters
medium
##grad
valley
characters
risks
intelligent
21st
roof
dolph
liquid
35
mile
##pid
##bles
##yl
##sec
refer
lies
congress
trillion
ens
plus
worldwide
disaster
colon
feelings
article
assist
dealing
transformation
resource
facing
tumor
alternative
concentr
##iors
##fish
inner
input
chair
users
spin
perce
##abled
attach
##pected
diam
protection
promise
arrived
printing
details
heavy
library
dots
jew
les
rub
isol
ants
##roc
tail
partner
emissions
##place
importance
explan
##gged
keeping
auth
southern
##roph
soldiers
electrical
ein
gree
wars
##und
##esth
forced
lift
spring
spoke
prefer
##iped
underne
##aked
organized
setting
drag
expected
silk
surprised
convention
mountains
ladies
debate
concerned
ordinary
roughly
washington
mosquit
mexico
underneath
99
holes
##hab
##rie
##tain
##uing
##ka
toile
weak
suit
qual
prime
##agers
scared
carefully
healthcare
processing
swed
heads
waves
advent
##ocol
element
encoun
perfectly
experienced
covered
associated
display
australia
exploration
battery
toward
##esis
##itarian
##olves
exec
crash
##connect
thoughts
extract
minim
construction
broke
feedback
release
losing
entrepreneurs
mortality
weapons
22
ii
##hold
##kn
##zing
##lement
##rove
shif
cha
uns
##acing
##erties
producing
movements
election
singing
properties
equip
sending
reaction
assemb
einstein
aug
##com
##word
##ino
reef
exch
maps
sugar
unex
insur
operating
illness
analog
hurt
department
##lusion
##bors
##do
##uits
lie
trau
pray
whereas
decl
generate
economics
stupid
killing
reached
spectrum
politicians
grain
##dy
##edic
##ctions
shut
##ession
##osis
##osition
unit
pole
grant
messages
steel
##ropri
silence
requires
terrorism
victims
employees
intellectual
lifetime
75
ber
bath
##oes
##bi
height
user
##abilities
interface
##ension
factors
glam
possibilities
bush
wondering
confron
cyber
consumer
sources
definitely
dynamic
abstract
valuable
date
tear
##cers
##oh
##uary
##nded
##aming
sem
perm
contain
consist
naturally
minister
videos
keeps
define
consumption
privile
##heim
blocks
relatively
houses
forgot
illeg
kitch
pure
##aters
inher
##itals
bran
command
collection
winter
flex
initi
season
perception
hydrogen
sophistic
cards
dip
hide
las
lapt
sen
wave
##mas
##mber
##lock
##ax
ing
france
teeth
worlds
manip
desk
puts
factor
remain
instrum
march
location
lawy
languages
existing
occup
neighbors
fundamentally
distribution
survey
swimming
muslim
gentlemen
credit
cure
nasa
pair
und
##ih
##iency
thin
wel
reform
##iev
unkn
pool
impress
##acle
applied
goods
autism
george
antib
molecular
dimensions
capture
transportation
components
mystery
equipment
23
fert
ment
odd
sides
ven
##pet
##father
theater
atlant
prove
peak
outcome
resolution
scar
grid
organism
formed
protected
obser
richard
inevit
encoura
francisco
empty
eld
hol
length
nar
ped
pow
ring
rit
rational
##iat
##ael
##iti
shad
chap
##ulating
actions
##ogen
compar
quarter
poem
explos
gravity
curve
environments
recorded
falling
required
combination
awful
affected
status
activities
awareness
##gl
##gets
##tube
youtube
##aud
##ault
canada
max
##ortion
warming
visible
2000
2008
balloon
logic
primary
mathematical
cartoon
islands
doubt
harvard
rhyth
accompl
rapidly
circumst
600
cast
lens
mc
paul
ru
ves
##car
##bre
##icy
##otic
conver
##ago
interp
surf
invention
repair
auton
behaviors
profession
concrete
increased
selling
introduce
introduced
inequ
budget
official
encourage
ancestors
newspaper
45
zone
##bes
##tered
shall
intr
unus
buying
facts
serve
metal
reprodu
signs
paral
cultures
radiation
roads
volume
estim
mathematic
statistics
telescope
false
vulnerable
ip
jail
raw
##ox
##orous
reci
##ament
##antic
clock
overwh
driver
##akers
sla
computing
electro
confidence
##onym
shoot
depends
islam
clinical
sweet
pacific
kitchen
overwhel
bow
gift
##han
##head
anderson
##etics
haw
##roll
apparent
studio
195
generally
regard
regions
charles
anti
operation
sympt
honor
expression
carrying
japanese
resistance
##iosity
convinced
vessel
cortex
pink
upper
##cap
##ov
##oons
##isters
dogs
##aren
ideal
former
challenging
soul
absor
explained
negot
hoping
comfortable
pleasure
alex
cere
fis
gain
vert
##rument
##wor
thick
##cipl
instrument
transfer
interests
monkey
centers
england
courage
constant
sensors
violent
severe
pengu
2010
viruses
britain
innovative
occurred
narrative
harvest
michael
navig
unknown
cup
gut
poo
van
##nes
##uc
##zed
reven
style
sees
meg
chart
##igm
contem
##angers
194
##cript
hospitals
pulled
pollution
participate
clinic
refugees
cord
lect
nurs
rig
ride
##icing
##icip
storm
staff
diss
acqu
drill
player
solid
suppose
patent
stret
constrain
grandfather
potentially
director
fears
traveling
chemicals
distributed
restaurant
unusual
py
##omas
##icide
##iring
attend
##umps
acting
appropri
adj
desper
smile
gla
storyt
economies
busy
clever
younger
joined
advice
funding
closely
technological
recording
option
circuit
dropped
relevant
mechanical
graduate
embrace
bubble
nigeria
bat
whales
##lying
section
##ula
clothes
resc
##berg
internal
airp
assign
represents
boxes
##box
sustainability
satis
attacks
horiz
sample
frankly
taste
chicken
pregnant
proteins
ingred
ritual
cents
dedic
nur
pak
tape
##can
##pes
##za
##erves
bee
stone
wash
##opes
deploy
phr
solving
curiosity
added
password
sensitive
include
empathy
laboratory
titan
controlled
tonight
chimpan
##heimer
pakistan
boring
dot
pip
rush
##mon
##van
##ouds
##esh
##struct
sept
##oses
perman
clip
contrast
centuries
engaged
bio
biom
lessons
amazon
secure
productive
largely
depth
bottle
privacy
convince
mechanism
vaccines
frag
##point
scratch
borders
russia
fabric
sophisticated
bes
bones
cub
dress
loud
pian
##off
##lation
##inated
youth
button
theme
##ogue
dish
flag
obama
fewer
generated
memories
equation
review
silic
occasion
typically
domestic
portra
breathe
infected
electronic
orchest
jack
james
lic
mim
pushing
wik
ze
zoom
##ey
##greg
##zheimer
##inction
##lym
##stream
##cel
##opy
chose
##ums
alzheimer
##uses
evolve
expon
##abol
implement
grade
schol
solved
explo
physically
equality
rising
teams
greenhouse
limits
feeding
stronger
released
ultimate
##porary
magnetic
efficiency
flew
uncom
discussion
vehicles
trials
appreciate
implications
explanation
unexpected
september
fib
iphone
pin
wine
##iate
##aurs
##ym
atoms
notes
proof
tex
span
tack
##abet
feature
ages
gray
remove
polio
statement
windows
providing
options
destruction
photographs
burning
immune
judge
mirror
wireless
dramatic
illegal
ack
bay
bicy
dut
mere
tan
##lom
##ener
weigh
##keys
club
channel
underwater
instruct
players
runs
globe
2007
signed
constit
##aneously
operate
rocket
pollen
emergency
critic
divide
linked
collaboration
passionate
applications
aspects
puzzle
instruments
aim
hits
nest
pump
##pic
thomas
##alk
##asing
mand
enable
union
features
coord
clust
##acles
evening
technique
remains
creature
allowing
defined
label
tests
##ternal
multi
admit
framework
inspiration
opinion
gps
##oint
inject
##arct
##imp
orbit
sports
##eline
worker
brothers
download
flower
conserv
musical
collapse
antarct
practical
mistake
##llywood
border
dinosaurs
cas
##mal
##now
comment
plate
sahar
arrest
pharm
flood
##athers
bias
##crim
2009
topic
stream
steve
amounts
causing
rocks
conclusion
ridic
accurate
removed
diplom
dh
dense
fiction
pitch
ric
ts
##ca
##bage
##den
##rets
##ita
##etically
dozen
anx
ash
chip
##ille
dece
acts
twe
discipl
gras
flies
drives
exploring
marine
##iox
wondered
defense
memor
virgin
advoc
trend
collected
footprint
faced
entertain
paintings
efforts
fifth
eggs
stretch
glaci
silicon
ms
bell
stan
##cend
liked
##iment
firm
adam
##plant
afterno
percentage
string
19th
repub
functions
rooms
educational
milk
marketing
embarr
measured
consumers
tracking
meaningful
error
savings
shaped
prepared
algorithms
agreed
poetry
insurance
circumstances
interpret
embarrass
27
fi
hig
ox
sne
##ses
##gers
##eness
##omic
item
##uting
reject
##opia
peer
tri
##cience
##elly
##phones
colum
personally
monkeys
engaging
finance
corres
connecting
##gging
millenn
escape
provided
senses
behavioral
transformed
horse
receive
fingers
mistakes
customers
surrounded
adopt
axis
authent
inequality
acknow
cab
fan
tent
##ole
##lines
##lands
##ingu
##alian
##leton
reference
reverse
##iday
neither
nowhere
unp
prem
obst
recom
africans
skull
##hips
figures
breaking
classic
literature
robotic
hotel
dancing
assume
angry
authority
renew
january
recyc
exchange
republic
dust
fishing
nose
pra
sir
sets
voc
##hol
##time
##uous
##20
##ara
outc
spider
placed
evil
clouds
shell
overall
scary
mush
extent
extinct
bike
paris
hyper
records
interactive
architects
combine
songs
flowers
golden
climb
cooking
paradigm
seeds
elephant
alien
microscope
cath
cash
ears
gig
mice
rice
##bits
##vas
##ered
##oned
chic
sacr
wherever
imper
loop
decline
##ographer
surely
collecting
stayed
transparen
concepts
determine
selection
toilet
rhythm
higgs
transparency
65
mary
sed
##rors
##uel
##uff
##child
##very
##ros
shar
knock
##ogram
humor
score
writer
carried
boston
datab
##aws
corn
productivity
deaths
reaching
embedd
recognized
spreading
floating
lifest
ignore
application
frozen
horrible
chaos
outcomes
ai
diction
icon
jes
lying
olym
##ration
##ta
##ket
##rel
##itors
##tery
##aust
sac
cock
clar
needle
roots
farmer
handle
joke
painful
tested
advance
raising
chrom
obsessed
situations
policies
struck
council
##fficient
continued
electronics
heroes
drinking
therapy
queen
fortunately
infinite
barely
split
criminal
paralle
symptoms
afternoon
chicago
60s
hook
##sing
##ba
##rom
##qually
##orter
rely
anonym
abuse
shirt
##illed
##illance
trig
somewh
resil
pocket
##que
##ologically
owners
relate
imagined
metabol
grows
neuron
communications
inspire
250
subjects
capitalism
searching
crying
entrepreneur
ugly
maintain
candid
conventional
mushroom
somewhat
dir
dign
equally
lung
ooh
pad
wings
##cal
##cence
##hen
##ham
##tes
##val
whist
golf
##olving
spo
##aint
scream
##icted
flash
plays
meter
minor
subs
regener
interestingly
breed
crack
anticip
accessible
recognition
combined
hunger
suggests
rainforest
bombs
##lusive
commitment
sweden
pyram
fake
##lies
##ray
##stic
abund
excell
orange
ours
committed
decre
invite
transplant
lovely
elim
presence
##otech
cheaper
films
existed
performing
reported
pushed
christmas
surveillance
latin
spiritual
angeles
hungry
laptop
piano
embedded
70s
drove
diox
ou
pm
##ij
##vin
##ald
whale
##otes
liver
anat
mail
knee
leap
disrupt
blank
lets
boom
careful
economists
passen
audio
silent
falls
traveled
estimate
ultra
apartment
diagram
depending
title
latest
algorithm
astronom
destroyed
exhibition
scenar
welcome
autonom
chromos
hub
pace
rab
##ost
##aa
##da
##ione
##iders
anger
##imeter
##adic
shake
ate
fright
mac
##osh
##agger
pretend
hardware
elections
earthqu
eastern
standards
globalization
educated
hearts
refr
retire
expectations
represented
concert
mainly
layers
offered
fixed
appears
satellites
integrated
nutr
corporate
prosper
korea
maxim
apparently
dioxide
bf
cod
gon
jer
jim
jul
ub
##over
##ias
##ige
##nels
toler
##sets
stack
sphere
intense
suck
suicide
phase
genius
colony
stri
193
parking
devast
household
friendly
aston
experiencing
achieved
citizen
birthday
automatically
fascinated
prosth
hypothes
advertising
privilege
antibiot
fertil
fisher
poorest
gest
lit
lake
rose
rating
rail
sin
vital
##oll
##pal
##pass
##sa
##bl
neut
chest
delic
proced
spinal
seek
plans
intention
uncle
exped
herself
##aks
olds
imaging
personality
fuels
powered
caps
presented
populations
distur
protecting
identical
extrem
illusion
descript
psychology
mechanisms
conflicts
rebu
precisely
incentives
vertical
ought
bg
boss
der
density
furn
pul
papers
wing
##lets
beg
##etch
stro
stands
##raph
##using
enemy
##osing
wanting
poly
implant
organize
accum
globally
opposed
sunlight
##ended
astero
immigr
variation
captured
accepted
palest
celebrate
historical
methods
federal
atlantic
entertainment
32
36
ba
bob
fiber
honey
kiss
pour
tube
##nda
toxic
##uration
shame
chief
dear
output
##ares
##aret
agency
overl
overcome
underground
scott
biod
animation
passing
distant
measuring
brave
operations
interacting
religions
responses
volcan
villages
administ
breathing
properly
simplicity
mammals
muslims
cooperation
symmetry
philosophy
thirds
elder
powers
uncomfort
90s
gam
nets
pione
rw
tro
tip
##gue
ther
##iture
##ctic
##aus
mold
chocol
myster
usual
plot
units
manif
coin
disag
root
2005
adding
focusing
males
tasks
improvement
samples
christian
dramatically
murder
laser
satisf
dedicated
wikiped
antarctica
parallel
uncomfortable
800
cute
dere
june
lun
picking
sisters
##fall
##frie
##vi
##arant
stere
stations
aband
fruit
alph
##iform
tries
unbel
manh
##iac
bull
flor
recru
secondly
subtle
2004
distinct
elsewhere
geomet
filter
investing
universities
football
microbes
psychological
choosing
thrown
neighborhoods
optimistic
guns
component
frequency
surgeon
contrad
forgotten
appropriate
adjust
lifestyle
wikipedia
700
gates
tired
yield
##oe
##my
##hop
##ran
##zer
##anthrop
##alu
##ari
italy
stable
##raction
##iled
##osc
tag
exposed
##acular
designs
capita
regret
aircraft
##while
legacy
practices
conclud
amongst
fluid
virtually
uncertain
debt
narrator
script
utter
beliefs
jeff
crucial
hanging
refugee
synthetic
disorder
pilot
aspir
granted
permission
narrow
phrase
nick
pix
peter
tu
voting
##matic
##top
##yal
thumb
##sters
haiti
neural
##illy
tea
unclear
prices
agencies
backwards
flip
##angle
guard
oldest
traged
behave
hardly
killer
digit
meetings
elev
balls
purch
irr
facial
divided
documents
affordable
liberal
contribute
housing
bags
repeat
disorders
richer
recommend
33
cous
du
lone
##life
##rier
##nday
##icop
##opher
##rous
expans
underlying
syr
mayor
smoke
simult
instant
##onscious
shoulder
strangers
visited
##crib
governance
controvers
district
confident
drawn
directions
interactions
essence
consume
presentation
exception
soldier
banks
initial
hello
controlling
repeated
locked
lux
martin
linear
intuitive
airport
dignity
unbeliev
aer
bind
gand
pand
##och
##ober
##mm
##kind
##ota
seats
nobel
##ague
blah
commission
simulation
fool
obes
basket
helicop
protest
treating
holds
collaps
provides
120
circles
photography
ceiling
mechanics
2011
functional
printed
makers
smooth
attached
permanent
scholars
aqu
bats
hat
jih
laid
naked
pound
rio
##iety
##inating
inch
##itory
doors
aside
trop
clay
arctic
disability
adap
emph
monit
produces
pointed
trail
attrib
hollywood
programming
discoveries
increases
craft
grandp
##attan
sales
dimension
primarily
delivered
sticks
struggling
angle
paradox
rarely
garbage
inspiring
sharks
appeared
academic
dialogue
october
##connected
slavery
ingredients
texas
stanford
sacred
biodiversity
obesity
aesth
ebol
fer
fought
jelly
lou
rivers
tank
##tical
theories
##lete
##vey
stun
anthrop
shout
champ
orient
conven
##osal
coach
##udd
##udes
blame
bron
##ishment
earn
involves
opens
monitor
biologists
regime
missed
grandchild
poster
fastest
observation
telephone
immediate
victim
skeleton
additional
ecosystems
uganda
habitat
ghana
ensure
license
dirty
pyramid
manifest
manhattan
jihad
ebola
bol
bure
bos
cats
fulf
jon
rome
wise
##bra
##night
##arters
##keep
##through
conce
##allow
enth
unh
aggress
prec
scales
brut
brib
guarant
sciences
consult
artistic
slides
served
##azz
probability
robust
painted
secrets
diabet
objective
##lessly
speaker
breakthrough
includes
immense
entered
eradic
terrorists
dependent
strategies
consequence
expanding
dynam
fabulous
tort
##flies
originally
diagnosed
dinosaur
smoking
prototype
dolphins
confront
explosion
lecture
nurses
earthquake
chocolate
diabetes
80s
cott
dw
fract
gulf
horm
hire
jam
ol
pale
till
tied
wra
##iance
##hh
##ding
##wr
##rect
##ett
##opard
neat
external
enabled
quad
willi
armed
sheet
partly
##ptions
adoles
##cond
flows
county
afterwards
guide
organizing
walks
2006
photographer
agenda
continues
controls
classes
##archy
burst
touched
philanthrop
terrorist
colleague
links
infection
returned
innovations
resistant
journalist
skept
pigs
institutional
reveal
extended
sculpture
odds
neuroscience
shadow
penguins
bicycle
ridiculous
database
refriger
begun
95
nin
nic
sulf
wired
##oir
##bar
##eared
##ato
##itous
##lyn
##utical
recept
hem
chron
deaf
plenty
yours
##agn
##aceutical
parties
deserve
smarter
capability
cambr
joint
##inson
landed
improv
shooting
daughters
##zees
reminded
kingdom
engineered
physician
##iveness
##forestation
diverse
mosquito
encounter
assembly
flexible
chimpanzees
autonomous
rebuild
26
bored
cens
dive
gaz
hind
pile
punch
ss
##bal
##bling
##ris
##wich
whis
render
##eters
stages
doz
##think
##ilit
##ulum
orb
enh
intim
lean
leverage
##ardo
twenty
lob
robert
contains
##icks
particle
entrop
accidents
curren
settle
confused
figuring
answered
trends
funded
transparent
textbook
mobility
sleeping
disappoint
spectacular
concern
symbols
copyright
shelf
frustrated
isolated
trauma
lawyer
##capes
grandchildren
28
borrow
dict
drew
hip
nerve
##under
##inals
##organ
##ashing
sel
abilities
##illing
##ckets
alco
spark
actor
##izer
poison
genetically
factories
persu
writ
##anging
ending
muscles
extinction
crew
publish
stops
marry
paraly
geographic
magical
views
delight
identified
printer
predicted
femin
feminist
array
arrive
characteristics
assumptions
methane
fraction
calculate
engagement
skelet
hackers
reconstruct
route
briefly
branch
inevitable
surfaces
vessels
contemporary
exponential
pharmaceutical
anxiety
trigger
##friend
emphas
bureau
alcohol
bother
gi
gang
lg
mi
pige
rb
sar
session
##ek
##ras
##ua
theore
##ini
##ora
wet
beer
##osure
##iel
actors
##apor
sail
letting
##pled
incident
##obi
offs
instinct
carol
highlight
bold
asks
founded
mode
strip
elite
elected
##rients
deliber
eleg
surviv
survived
winning
origami
screw
enterpr
compete
salt
disappeared
transmission
storytelling
enthus
bible
cert
dump
hipp
pairs
rac
sits
tes
##onds
##ha
##rix
##erge
toys
##eda
bears
likes
##rog
##rof
canopy
spots
##emen
arrow
spell
persist
highway
cheese
terrifying
sensory
failing
darkness
industries
reduction
promote
magnitude
crossing
separated
ethn
sandwich
exhaust
cryst
budd
initially
suspect
translate
prepare
physicist
1970s
tumors
airplanes
mixed
teenagers
boundaries
fragile
tragedy
dozens
bin
ell
os
pa
sink
tie
waters
##fin
threw
##arre
##olit
comet
decent
degrad
trash
##oded
##iece
unpre
quit
incom
caves
##athan
obl
owned
crops
traject
##cedented
forming
headed
radically
##mingly
approx
legis
explaining
vacu
2012
suggesting
primitive
1990s
threats
ethical
automob
journalists
baseball
laughing
nutrients
weapon
adopted
trucks
volunteers
dolphin
perceive
bathroom
tears
occasionally
instructions
oxford
sharp
hier
pir
rul
##case
##pond
##lings
##son
##vest
##era
##isons
##ida
ford
##amin
sevent
butt
congo
##osen
##mented
##agos
clients
sheep
chances
acid
smith
finds
bond
transact
imagery
trag
farming
grace
foods
2003
confir
programm
treatments
positions
opera
speakers
limb
##ospher
index
emerged
affects
damn
reports
leaf
detailed
representation
collaborative
cartoons
##going
motivated
surprisingly
arabic
analyze
besides
orchestra
tackle
##otechn
furniture
rwanda
expansion
unprecedented
cable
diving
fest
gate
hen
patch
tang
tub
um
wound
##cut
##iated
##hal
##west
##ville
##onic
##sey
stones
friday
##ilty
mapping
enforce
evalu
reson
##soft
channels
commod
emerge
glad
191
serving
proto
infant
mindset
sett
silver
improving
tempt
observ
ceo
drawings
immun
hunting
competitive
parks
tuna
palm
officer
widely
demonstrate
shopping
elephants
category
categories
maker
announced
shrink
establish
established
august
electrod
rescue
merely
tsun
correspond
cabin
jesus
anonymous
ubiqu
elderly
cambridge
ak
biz
bars
gases
germ
hitting
iv
ow
veter
wid
##iences
##ship
##hib
##bled
##atar
##oran
##eday
##idel
##oped
sew
butter
comed
deforestation
someday
##ateful
##ifice
outs
enables
flour
humanitarian
drones
##ails
native
attitude
curric
excit
measures
structural
##aneous
encry
strongly
argent
arguments
request
predictions
filmm
pulling
nucle
delivery
targets
ethi
participation
tunnel
achievement
climbing
tissues
determined
agricultural
defend
intuition
scenes
blowing
athlet
dragon
reefs
initiative
intrig
glacier
excellent
derek
lungs
binary
dow
dile
gear
lord
ng
rays
uk
##mates
##bru
##equ
##ties
##uity
##inarily
tooth
##oning
##etn
stom
neck
comments
chosen
##ilize
convert
##umin
upset
intro
aggreg
##ache
disabled
brun
drone
owner
schiz
informed
capabilities
corals
openness
subway
connectivity
2001
restrict
invested
investors
vietn
expectancy
supported
robotics
microsoft
eaten
observe
facility
facilities
combat
entering
irre
ecological
periods
domain
panel
lifes
closest
sanitation
wildlife
judgment
continuous
depressed
interviewed
tricks
optimism
motivation
russian
diagnosis
replicate
adventure
comparison
hawai
conservative
spoken
prosperity
astonishing
simultaneously
vacuum
bizarre
dies
eb
file
pit
rod
silly
wand
wedd
##rome
##gi
##ga
##toc
##ups
thread
tony
##itudes
stability
assets
shipping
##igation
outer
upload
comprom
uniform
##agen
##agon
agent
discrim
scores
extension
computation
spacecraft
homework
socially
physi
excuse
edges
sexy
photographed
burden
psychiat
saturn
reduced
arrange
threatened
pupp
islamic
1980s
heaven
oxytoc
ignor
physicists
gathering
gathered
profoundly
demonstration
tribes
romantic
cosmic
glamorous
consistent
florida
unbelievable
excitement
dilem
oxytocin
bot
bust
cig
mall
tatt
vel
via
wires
##erable
##erved
##inations
##rey
##asi
##asy
bend
beating
##utan
##othing
##ctu
soap
cham
align
triv
##unction
intent
compos
unable
perpet
arist
happier
disg
accent
incor
crop
planes
2050
warning
preserve
addict
charl
weeke
parli
config
propag
labs
located
innocent
trains
supermark
yorker
circuits
versions
##apping
impacts
vacation
reducing
activists
graphics
homeless
applying
jumped
throwing
fortune
broadcast
independence
garage
corporations
injury
recovery
constructed
insights
matrix
senior
chapter
estimated
navigate
december
mysterious
grandparent
ubiquitous
schizoph
tattoo
boo
vary
wol
##hm
##hr
##bow
##viet
##eration
##aland
##stone
soviet
gore
chips
chairs
knife
spain
upd
##astics
leather
febru
remaining
wrist
guilty
handed
musicians
headlines
badly
propose
proportion
##otted
##riers
successfully
listened
demands
expecting
barrier
breaks
buried
females
damaged
activist
magnet
reactions
peaceful
intervention
johns
luckily
miracle
honestly
customer
##ecd
transmit
burned
synthes
routine
qualities
glamour
passwords
fibers
dictionary
nutrition
expedition
description
palestin
cotton
##otechnology
february
85
boun
dough
fet
fathers
jar
mate
ram
zones
##oying
##hand
##rical
##uine
##field
##zan
##inery
##ata
##ann
ink
##otion
static
##rol
melt
chile
tends
spons
upside
safer
leon
twist
interior
##ipts
buck
##seless
talib
realizing
grateful
genuine
drivers
decor
involve
reliable
schem
funds
mont
generous
economist
warr
entry
##neys
margin
charity
educate
devil
viral
discovering
beautifully
landing
craw
winds
demographic
architectural
improved
screens
medicines
urg
bedroom
stores
graphic
unconscious
glasses
rolling
translated
wheat
##lson
expertise
analogy
professionals
revenue
portrait
scenario
helicopter
entropy
currency
stomach
taliban
eric
junk
sau
vit
wider
##list
##lades
##ingly
whit
##section
##imag
healing
##ads
shit
meal
chains
##umes
spont
enlight
plain
plastics
interf
bug
bucks
talent
bless
scra
fox
relax
mining
camps
audiences
sensor
replaced
beneath
similarly
affairs
promised
epis
statist
magnific
errors
gradually
assumption
packed
atmospher
homo
banglades
democrat
gentleman
tribe
previously
telescopes
venture
fortunate
volunteer
gallery
greek
shifting
encouraged
cluster
arrested
sacrifice
anatomy
passenger
chromosome
neutral
conclude
monitoring
tsunami
curriculum
grandparents
schizophren
29
award
dressed
fancy
mud
om
sant
##oot
##mat
##aving
##bul
##east
##kward
##ati
##nders
italian
rect
##stand
sole
##ura
##iro
gods
whatso
mood
asian
neander
##emics
unlock
cliff
clothing
buff
synch
indo
realm
offers
colored
instantly
relief
insist
artwork
traits
metric
farther
ski
healthier
distingu
kills
collectively
investments
microph
motors
supporting
traditions
sentences
approaching
nearby
personalized
posted
prediction
spreads
awkward
dawn
suggested
closing
blindness
suffered
purposes
prisoners
influenced
reminds
historic
michel
correctly
succeeded
newspapers
dominant
ratio
tower
contrary
minimum
mathematicians
constraints
rituals
spanish
column
authentic
acknowledge
retirement
asteroid
jellyfish
parliament
whatsoever
neanderth
dys
fusion
gy
jane
loo
lap
lions
nom
rape
sna
##pers
##lers
##bie
##30
##wa
##ker
thus
inhab
##isy
rever
strain
stake
##urable
##aded
shan
prosec
sport
plug
sufficient
workforce
coke
client
dism
loves
scaff
brows
drown
cellular
lighting
hardest
holy
prescript
redwood
paras
parach
chef
profile
selfish
memes
##ashed
calories
harness
radi
hybr
steal
lowest
staying
included
medication
##liest
extraordinarily
##ugal
strategic
reflection
historically
israeli
platforms
teenage
astronaut
empowered
conducted
dominated
wheelch
reinvent
berlin
lawyers
impressive
encouraging
##worth
nurt
nurse
constitution
saharan
obstacles
clarity
stroke
disagree
stereoty
unhapp
trajectory
protocell
wandering
scaffold
bh
cree
duck
drought
eu
hired
jh
mt
pause
tam
##cons
##yard
##fold
tone
inex
##alf
##ghai
stor
anten
##ira
##olic
ships
worms
proven
convey
alb
enzy
intensive
intensity
sav
agents
newton
arth
herit
drum
insane
helpful
trace
smallest
woke
formal
infl
redef
signature
machinery
planetary
defic
advances
equations
brook
delhi
bottles
explains
embry
performed
measurements
predictable
fires
unfold
touching
turkey
safely
flowing
accounts
tendency
infectious
annual
continuing
suspe
translation
selected
1960
1960s
orders
claims
exerc
surgeons
vegetables
ticket
observed
pedest
regardless
exploit
dutch
renewable
resilience
antibiotics
tropical
adapted
synchron
bor
eve
fate
gaps
gorge
july
kar
lion
ner
rats
sons
##power
##lishing
##gence
##yd
##ucin
toes
stab
##roit
seattle
##the
moore
proved
alarm
spat
tab
##arest
manus
manner
contam
blink
brad
##eller
offices
columb
builds
glue
transist
crush
miner
subur
marvel
detroit
remembering
remembered
forecast
nights
tedt
experimental
sensing
squee
estate
drops
mainstream
parkinson
tracks
panels
accountability
receiving
diagno
participants
detection
landscapes
significantly
ignored
nuts
ambig
preval
altitude
execut
branches
desperately
horizont
mimic
zealand
tweet
recycling
pulse
pigeon
downt
wedding
shanghai
storage
batt
bump
bamb
dumb
fallen
fbi
hated
josh
lamp
mama
nit
nam
tin
wore
##las
##hear
##rid
##dam
##down
##fron
##ona
##onge
##ani
inches
##oral
##oma
ongoing
habits
staring
stasi
##che
heal
probe
congest
outbre
##ela
##abul
precious
loan
loving
synd
indig
brid
brian
grat
inclusive
counting
cake
##anged
carpet
##ression
glow
believes
believing
192
completed
mini
farms
protocol
register
passive
sidew
default
geor
geography
terribly
assess
revol
lego
legit
tempor
nonvi
civic
planted
covering
offering
victor
catast
simpler
scanning
tension
alternatives
unlikely
stimul
jewish
mentor
recipe
overwhelming
absorb
negoti
interpretation
decrease
striking
procedure
administration
uncertainty
luxury
enforcement
argentina
ethiopia
ngos
magnificent
heritage
nonviol
aunt
bite
cage
ib
koran
mild
mri
roles
yemen
##rill
##inter
infer
##omics
rehab
forb
##opic
##imb
##ador
orph
prol
proceed
##umines
spill
##orted
sunday
unem
unint
##asty
manager
##ansas
pride
ambit
##ipe
realistic
ideology
insul
transcend
2020
computational
explored
sketch
corrupt
singap
curves
proposed
amazingly
membr
continents
terrified
greenland
difficulty
stepped
barriers
stays
cycles
bacterial
cleaning
portion
variations
captain
hopes
introduction
phenomena
temperatures
despair
concerns
straightfor
hallucin
nanop
revealed
bubbles
shelter
summit
substant
priority
pursuit
manipulate
accomplish
ipod
assignment
olymp
ownership
hypothesis
utterly
henry
cigaret
straightforward
hiding
kh
piz
ties
vag
voy
##hot
##fast
##va
##xual
##reh
##ala
##itzer
##idential
##chem
##outs
nelson
shots
comic
excess
##umble
seeking
seemingly
##active
manual
covers
dispar
##berry
blown
indu
scans
flavor
caring
foster
relatives
kevin
pointing
stranger
minus
gravit
##cycl
behalf
formula
heading
amazed
cultiv
freely
retreat
cuts
communicating
occurs
consumed
approaches
vaccin
urge
hunt
empire
epip
describes
divor
infections
banking
package
suspic
worrying
destroying
tongue
surrounding
prostate
bonob
opinions
spray
limitations
colonies
assistance
perceived
diameter
##audi
tanzan
items
coinc
geometry
basketball
aggressive
hemis
selves
tragic
ignorance
trivial
aristot
disgust
unemploy
ambitious
singapore
bru
dy
ech
hors
homet
jet
lt
rings
sib
sized
saudi
tune
tiger
useless
vot
voted
ward
##lv
##born
##vy
##vable
##atts
##uther
stored
livest
##imed
##ading
##adays
peers
conqu
nowadays
telec
ups
supre
compelling
unle
##aby
amate
sheets
##asses
##otherap
##icked
incar
meanwhile
recall
biol
subt
musician
connects
addiction
distract
researcher
morality
equity
soup
failures
footage
risky
immers
satur
smartphone
logical
compassionate
climbed
remarkably
reflected
fatal
blew
rotate
mask
installation
classrooms
illustrate
belongs
neuroscient
##burgh
accomplished
mathematician
1950s
horizon
labeled
grasp
advocate
subsid
prosthetic
skeletal
theoretical
carolina
bruno
dilemma
leonardo
downtown
##front
syndrome
insulin
hometown
hut
hob
jung
porn
pants
qa
ros
ware
wats
zip
##mony
##rich
thresh
##atoes
tox
##esign
ingen
##alks
##eding
belly
revel
rethink
##irts
moz
##ola
canad
shy
atomic
choir
allies
##ifies
##odied
encycl
##cip
##ema
compreh
unw
tact
lege
##izers
evolving
prince
amy
ampl
resur
pockets
##enses
rover
ads
realities
goodby
earliest
creator
trapped
grave
biologist
readers
format
2002
teaches
girlfriend
sixth
locations
restore
50s
harbor
namely
micr
alongside
raises
depos
sensation
specialized
keyboard
emergence
ecology
2015
kilogram
authorities
integrate
lawn
graduated
harmful
assemble
accuracy
fifty
agreement
desktop
portraits
whistle
delicious
alpha
syria
gandhi
pandemic
collapsed
lobby
paralyzed
enterprise
electrodes
bangladesh
wheelchair
gorgeous
bamboo
qaeda
watson
threshold
goodbye
350
42
47
bm
cube
drain
fence
fits
gif
gained
hans
mig
mesh
rent
sale
##mes
##well
##kins
##inity
##enance
##onia
##itar
##itative
##omed
beij
recess
##rogen
##thood
canvas
shore
##ilized
exceed
deck
debr
sperm
suff
noises
preach
coat
twin
backyard
contest
adul
##pless
remained
bonds
keys
playful
strings
metrop
##licit
generating
supplies
swiss
passes
stopping
distances
cheat
gee
deepest
retina
digest
motions
predators
transforming
origins
destiny
purple
attacked
activated
addressing
calculus
sadly
scanner
preparing
cruel
partnership
shocked
corporation
philosopher
accompan
harmony
teenager
bulb
boundary
installed
academy
jewel
mosquitos
alexander
candidates
minority
abandoned
lonely
bronx
writers
elegant
athletes
hawaii
incorpor
wolf
johnson
parachute
unhappy
pizza
livestock
44
cro
dirt
fg
gross
jose
kin
mun
oz
pap
rib
wrest
wrap
##col
##cular
##ocr
##rate
##inging
##eds
##storm
haz
stair
##urd
##char
##oline
chew
chuck
##ifact
compound
composition
nove
prisons
coch
twins
##aches
disney
##quis
genoc
drunk
surre
deciding
##orden
glor
endanger
imagining
plank
artifact
slums
redesign
swallow
youngest
hopeful
param
reasonable
##pring
profits
challenged
nightm
calm
marketplace
editor
predator
illum
winner
visualize
revolutionary
democracies
expressed
expressions
continuously
tunis
appearance
crypt
phenomenal
fragment
##pox
journalism
associate
electrons
doubled
taxes
batteries
tapir
accelerate
attractive
substance
pursue
incentive
spinning
recip
##working
adoption
abundance
aesthetic
guarantee
dynamics
veloc
biolumines
31
72
900
dent
fired
gor
lanes
mum
mike
nodes
pitt
sizes
tib
vic
##lan
##lim
##rus
##enh
##ason
##see
##utor
##stage
soc
dood
anesth
chase
##ilation
mycel
pecul
mapped
trips
outrage
imit
##ogens
##emies
##ements
workplace
aged
clue
intersection
overnight
blur
##ials
##phony
remix
##anges
carr
carries
belt
relation
crimes
articles
numer
modest
strat
recre
smallpox
reput
cared
handful
seti
patri
valid
politically
shortly
apolog
bills
penet
dropping
strands
describing
fluctu
panic
secretary
collaborate
sequences
thrive
occurring
contributed
denial
beaten
nano
crowds
perceptions
cooperate
injust
melting
pregnancy
punishment
announce
thirty
greece
lifted
inevitably
estimates
discipline
astronomers
devastating
fisheries
convenient
precision
william
philanthropy
enhance
ethnic
approximately
tubes
palestinian
suspended
##otherapy
debris
endangered
peculiar
apr
cows
dum
erect
ga
jen
kong
mant
nap
rains
vivid
##rian
##nat
##nis
toll
##enous
##ester
##orters
##isa
beep
stunt
dop
##adium
nearest
shorter
meals
friction
##cking
##inder
##usions
yourselves
mankind
clint
resem
buzz
royal
acou
underest
realization
##elled
carp
##iously
courses
producers
slower
1900
entr
regulation
waited
proposition
diarr
parenting
masses
universes
steven
apoll
breakfast
consuming
approached
balloons
affair
immort
##lihood
trustworth
worthy
sooner
competing
straw
reporting
lifel
miserable
raped
1980
narratives
broader
officers
websites
##orescent
sectors
woods
expanded
demonstrated
switched
tribal
naive
attempts
maintenance
indicate
documentary
substit
loads
korean
encountered
reproduce
millennium
tenth
anticipate
recruit
vietnam
discrimination
supermarket
schizophrenia
brooklyn
aristotle
canadian
encycloped
november
diarrhe
bert
hong
jord
nsa
por
pic
racing
tight
uh
##cre
##oen
##mod
##iots
##oured
##asive
sty
stadium
liby
##terey
##road
seal
worm
atom
##raine
fran
deals
likelihood
peoples
##ifer
enemies
##osity
intact
comparing
sab
##izz
lottery
contained
blob
scal
scaling
flick
flesh
technically
counted
##rence
carl
shoulders
relat
##weight
criter
##cont
consp
consens
monterey
##attered
##bean
slice
strict
trap
huh
190
elabor
protests
formation
presum
passions
joe
charged
##iolet
momentum
eyed
ordered
refused
absence
massively
delay
approved
speaks
practically
replacing
##ometer
affecting
defining
dancers
laden
1990
hoped
enjoying
interviews
calculations
association
hydr
mammal
randomly
mutations
bench
injuries
bullet
cosmos
aliens
restaurants
towers
witnessed
emotionally
prospect
migration
shrimp
rubber
isolation
officials
overwhelmed
penguin
desperate
deployed
implemented
acknowled
olympic
mushrooms
abundant
frightening
maximum
troops
controversial
trailer
wrapped
chronic
whisper
offspring
buddh
charlie
loose
inhabit
prescription
hybrid
congestion
indigenous
bridges
supreme
apollo
au
dv
dating
fault
ku
kir
matt
rust
rope
si
vo
vice
zer
zimb
##py
##away
##bag
##bial
##eu
##eries
##inent
##alt
beet
stol
##vere
anno
##ima
##amine
sends
segment
##raw
alas
alter
alumin
league
managing
evapor
explicit
cloth
interven
advers
indones
##othermal
genomes
##aken
instruction
glimp
sched
bitco
terrain
kidney
2030
recla
metals
attitudes
corners
couch
patents
switzer
marker
marrow
topics
locom
locally
programmed
follows
messy
collision
reaches
optical
iceland
transformative
facilit
psychologists
pulls
empath
conceptual
logo
perspectives
favel
crossed
hopeless
correl
discussing
innovate
reflects
manufactur
simplest
laughs
catching
targeted
gardens
##oked
chimps
egyptian
##ulsion
pills
augmented
confronted
purely
inherently
##ogenesis
bowl
ceremony
recycled
candidate
screaming
breeding
eliminate
disturbing
contradict
cousin
brutal
intimacy
tesla
##olitan
automobile
hierarchy
atmospheric
distinguish
nitrogen
tanzania
hemisphere
incarcer
injustice
consensus
stolen
aluminum
glimpse
switzerland
55
96
dun
gad
groc
hint
ly
nerves
nasty
norden
pc
puls
yard
##aired
##nas
##gas
##uate
##ugg
##function
##ja
offe
inn
##ali
##omp
##icial
##uts
revers
##ctive
ster
stead
stagger
##cher
##ched
##verts
##roid
asset
##rah
chat
exagger
depr
##igma
##iful
##usive
##ogy
intended
compounds
lever
##ouses
quarters
##abwe
##abeth
coca
interd
arc
sheer
reserve
residents
disabilities
talented
blast
deserves
earning
guitar
insert
##avors
understands
artic
foundations
slight
strike
kidna
engines
extro
biosphere
buses
visions
yeast
retail
avatar
millimeter
apes
18th
circular
float
visualization
hunter
paths
2014
screening
admitted
representing
representative
ethan
counsel
gasoline
thrilled
hurric
sweep
determines
contributing
wheels
celebrity
wealthy
transmitted
analyzed
blogs
prostit
prevention
therapies
stimulation
diamonds
shifts
##comput
venus
converted
embarrassing
columns
festival
santa
microphone
bhutan
spatial
ibm
orphan
olympics
genocide
april
clinton
zimbabwe
37
48
cd
cin
dil
dub
dread
hars
jup
jazz
ka
kit
lp
lh
longe
mater
merg
nons
pier
wage
yog
##coming
##violet
##zes
##inable
##esia
insec
##itable
##sell
##theless
cany
shine
shops
chop
fried
##ila
confer
alert
outdo
spa
enrich
intric
suits
sake
unre
prepar
interconnected
##irect
phoen
kindness
##plete
scot
cola
foie
gluc
boats
##ava
crude
nevertheless
slog
slave
modified
ministry
visiting
respir
entit
publishing
pops
modeling
streams
morph
##angelo
refuse
condoms
##rium
crap
archae
frontier
stephen
literacy
noneth
obsc
psycho
psychologist
shoe
deadly
emerges
blockch
snakes
subjective
1998
checking
principal
filling
division
separation
assumed
sequencing
donor
prisoner
tuned
cardboard
authoritarian
jumping
employment
mammoth
benj
enjoyed
masters
smells
jeopard
injured
astronomy
politician
frequently
appeal
athe
toilets
grains
atlanta
rigid
duty
memorial
triang
triangle
vocal
iconic
ultraviolet
gamma
##keepers
##conduct
programmers
observations
weekend
michelangelo
epiphan
horses
voters
beijing
soccer
mycelium
reputation
grocery
longevity
glucose
nonetheless
cul
fans
jac
kos
lith
mentally
oy
pestic
rna
tightly
von
wages
yards
##hes
##aves
##bc
##ux
##uce
##zee
##inator
##eng
##onald
##itis
welf
##stics
wasted
##imeters
##ado
chol
exotic
##igan
knees
trump
spite
spiders
enab
whoa
whoever
actively
everest
##ogether
intimate
sud
##mental
lee
##izabeth
export
prey
preced
ark
happily
resolve
impl
undert
undergrad
humble
brick
committ
generic
genetics
smiling
obese
##iances
planned
slime
moder
biases
elizabeth
economically
halfway
parag
advis
treas
pays
individually
norway
craig
avo
escap
brands
stepping
operator
dreaming
symp
typing
measurement
recognizing
convicted
armor
destination
planting
civilizations
favorites
horror
achieving
bali
functioning
accountable
annivers
detector
##ynth
multiply
budgets
museums
verb
mutation
wooden
mixing
cooperative
torn
juice
regularly
summar
hambur
altogether
concentration
privileged
occupy
impression
intrins
chimpanzee
clubs
diplomacy
virginia
authenticity
catholic
overlook
contradiction
crafts
hormones
survivor
legislation
tangible
comedy
compromise
chamber
intentions
configuration
antenna
outbreak
hallucinations
legend
criteria
staggering
jupiter
phoenix
welfare
38
cass
cale
cattle
dp
fou
jf
lind
lamb
mumb
nike
pear
pess
sang
tiles
vas
woo
wander
##oven
##mun
##prof
##sp
##gia
##gments
##fly
##fire
##jo
##anas
##ancing
##oric
##omagn
##ican
beam
reck
##ette
soy
sovere
##ching
neoc
mead
meets
alloc
frames
##estone
somalia
orth
##umented
trium
spher
envel
upright
unse
unst
maneu
exposure
clips
intervent
interpre
firing
sylv
lethal
commons
findings
guer
basement
endless
examine
biof
visually
infra
airline
greet
passage
marks
distinction
deter
proposal
answering
territory
escal
protective
grandma
variable
barrel
blueprint
identities
iceberg
temporary
nonprof
practicing
copied
asth
traditionally
turk
skilled
bacterium
checks
fantasy
squares
assuming
rolled
enormously
automated
130
mirrors
transported
electromagn
emails
opposition
pete
demanding
forgive
shocking
irony
hacking
accelerating
empowering
candy
sculptures
frustration
prototypes
advertis
criminals
authors
traumatic
contempl
acquired
mandela
coordination
sahara
rejected
regenerate
cousins
champions
torture
sulfide
encrypt
lifespan
interfaces
taboo
minerals
horizontal
joshua
revolutions
gravitational
siblings
telecom
tibet
dopamine
jordan
elaborate
indonesia
reclaim
canyon
preparation
cholera
anniversary
pessim
envelope
interventions
00
cum
croc
fda
ig
jaw
kite
pau
ross
rides
sier
wins
##ois
##pa
##hum
##rane
##gon
##gie
##war
##wid
##jud
##owers
dose
anecd
goat
##adel
cann
nepal
shining
shakes
chess
alle
##essions
spare
##apagos
managers
noble
fever
coverage
disk
discl
disconnect
loyal
##ormal
acute
humility
##conds
flock
##iverse
countless
drif
decides
systematically
ende
insult
keen
famously
1950
##issance
informal
cares
behold
warmer
corrid
specim
prescrib
charges
costa
publicly
##asha
cracks
absurd
viewing
supercomput
supportive
symphony
squid
feeds
argued
arguing
postc
posters
ceos
penis
pencil
floors
truths
galapagos
logging
1999
checked
##umbled
neglect
collaborators
riding
flee
misunder
clinics
discussions
significance
cardiac
contribution
calculating
celebrated
folds
inventor
laughed
utility
analyzing
adaptation
ancestor
embracing
jugg
empowerment
sexuality
exhibit
symmetries
symmetrical
illustration
frustrating
investigation
assistant
laptops
slaves
rescued
glaciers
gestures
pouring
fulfill
adolescent
adolescence
textbooks
enthusi
racism
incomplete
settled
veterans
neanderthals
arthur
namib
##abulary
unintended
warehouse
encyclopedia
zeros
alaska
bitcoin
lhc
nonsense
jeopardy
kosov
calend
triumph
sylvia
infrared
34
aven
aims
bern
cm
cables
cement
cups
dare
gel
hood
jumps
kle
mm
nich
nathan
tid
vene
viable
wi
wiped
zoo
##mill
##ighter
##aissance
##tz
##tail
##wis
##zi
##zzy
thor
##rection
##restr
andrew
toky
##ano
##icism
reass
onstage
sticking
##keley
shed
meme
pee
justify
plut
bypass
##eling
##api
unac
tables
leban
perip
fee
fees
sometime
##solete
loans
backs
spends
blessed
applies
brush
gramm
shower
counts
systematic
guards
obt
obsolete
longest
helmet
highways
lasting
boards
boiling
traces
server
mines
##ifications
explode
##grade
generosity
hollow
processed
sounded
markers
charter
confined
reasoning
filmed
closet
missions
steam
potato
superst
pressures
##boards
colorful
unfair
shoots
campus
promising
texts
progression
consciously
statistic
virtue
magnets
primates
delivering
tasman
wishes
fingert
cataly
heavily
sweat
liberty
translator
calculated
responded
towns
beatbox
commerce
integration
doubling
algae
flights
symbolic
magazines
ambul
frog
ironic
habitats
renaissance
remotely
frequencies
attracted
ghost
linux
vulnerability
odor
reinfor
grabbed
profitable
concentrated
greeks
crashes
berkeley
scarce
##iatric
ingredient
weighs
casual
fighter
vocabulary
imperfect
resilient
metabolic
entrepreneurial
disruptive
attributes
skeptical
gaza
buttons
propaganda
warrior
vagina
jungle
recession
metropolitan
staircase
nightmare
ethanol
hurricane
harsh
benjamin
epiphany
sierra
tokyo
52
97
cope
codes
ego
hence
hmm
jc
jun
ky
kat
lam
lane
lakes
nair
ngo
oven
siber
tide
wig
##makers
##aque
##eur
##nut
##view
##orph
##arf
##omb
##lla
rehear
##etical
##verted
##opath
##iments
seals
seaw
hect
sher
shuff
fruits
##ilitation
exquis
##arts
mah
alike
albert
##istine
##unks
themes
plates
leopard
##osexual
peru
noisy
twent
newly
tale
idiot
blo
##ibbean
syring
goodness
##phia
flaw
caf
caribbean
courts
centr
kidding
serves
developers
##aze
exploded
biologically
reader
projections
entities
regional
##apses
milo
##version
ohio
terrific
calc
steep
norms
sexually
occas
chemist
identifying
illiter
cyn
microbial
copenh
trusted
pollut
snaps
texture
awake
critically
philadel
suggestion
apartments
threatening
ridge
participating
documented
loses
returns
automatic
fitness
##ponds
celebration
matched
inventions
surgical
mutual
losses
pleasant
fossils
reveals
appreciation
hammer
submers
diamond
shifted
cybercrim
semi
reproduction
storms
clusters
disciplines
sneakers
corresponds
rainforests
bombsight
gesture
procedures
satisfied
bosn
bribe
orbiting
mixt
dragonflies
intriguing
scheme
enlighten
episode
astronauts
enzymes
deficit
prevalence
velocity
entrance
sixt
mumbai
nairobi
copenhagen
philadelphia
43
64
98
ape
divid
ire
jur
jama
jaws
kim
kansas
lists
lingu
nether
rum
sb
vin
wk
wiz
wides
yale
##city
##mar
##press
##pread
##piece
##hops
##bons
##fare
##kers
##atories
toast
##utors
stressed
lighter
##amas
heck
shack
cher
fraud
##ilated
##ulative
defect
##umbs
outl
envision
sucks
tagged
lexic
##izational
priest
precip
clicking
##udge
shepher
##quarters
##acities
adequ
descend
##ffiti
herd
gran
grim
grades
##ellers
fled
simulate
guine
carne
baseline
glo
relates
helpless
transit
fuzzy
monster
bitter
##peare
cellphone
20s
cream
##ception
generates
regul
minded
mindful
connectome
swing
headline
cheating
##ographical
##ographics
exclusive
equil
classical
auditor
viewer
viewed
frontal
hugely
expectation
operates
sensit
barbers
slowed
##apped
professors
experimenting
terminal
exceptional
speeds
philipp
activate
fluorescent
##ophob
1995
##umbling
divine
laboratories
acceptance
collaborator
detected
synapses
discussed
determination
tricky
heroin
folding
johnny
midst
coastal
partnerships
explorer
adaptive
mouths
folk
indicates
hypoth
chickens
clicks
bandwid
investigate
octop
hills
complain
concentrate
weakness
adventures
elementary
assembled
prayer
mentors
observing
holiday
negotiate
transferred
courageous
revenues
acquire
millennia
obstacle
cockro
metabolism
##iasm
tolerant
strikes
1930s
antibiotic
ratings
implanted
elevator
irrational
repeatedly
disappointed
enthusiasm
irrele
ebay
boost
statistical
snake
dismiss
tedtalk
catastroph
membrane
suspicious
saturday
mozart
artifacts
stratosphere
relativity
enabling
sudan
crocod
shakespeare
seawater
netherlands
widespread
bandwidth
46
86
aur
bent
eats
holog
jones
lately
luther
mating
ny
ot
ov
osc
pent
rud
rip
sie
vig
##mate
##lah
##acious
##een
##eem
##net
##fus
##kin
##ju
thro
thail
##erk
##atible
inhib
##oman
##asm
beef
##oto
##etary
##cture
##aya
stare
stairs
stigma
##urt
##urance
dod
##opian
##irable
##imony
##ithm
seam
heating
shred
chasing
##illions
conj
##umber
als
alan
altered
##oding
upward
plu
##ivals
sue
sailing
savan
##ourse
##arded
primate
pricing
arbit
disad
##ensively
acres
contents
##ibrium
indians
gram
incon
technic
##ighth
guid
helium
##aven
monso
solo
##ergy
compute
oklah
moma
wonders
graffiti
reporter
elbow
projection
singular
preservation
##cripts
regulations
funeral
fungi
headquarters
marath
easiest
painter
milky
equipped
payment
files
filters
rises
condom
issued
digging
rais
bluefin
cyl
cycl
surviving
travels
temple
presenting
destruct
photographers
medications
affir
conclus
honored
beds
panthe
daniel
fleet
graphs
correlation
thrust
christopher
140
shaping
angles
climbers
1984
surveys
responding
independently
physicians
nanotechnology
campaigns
preventing
tremendously
conditioning
recovered
mosque
defeat
mythology
crowded
nigerian
priorit
entrepreneurship
declared
inherited
reforms
##ogenic
harvesting
permanently
ashamed
republican
gigantic
passengers
immigrants
alphabet
shouting
oriented
hormone
refrigerator
seventh
transaction
aggregate
dysfunction
album
pedestrian
nonviolent
gifts
diarrhea
conspir
committee
unseen
guerrill
ambulance
ireland
guinea
equilibrium
auditorium
thailand
awe
cad
dal
dens
dates
eternal
eighth
fog
faint
gains
kan
mw
mes
mcc
poured
saint
vest
wives
wolves
##hors
##bone
##rine
##gy
##de
##dr
##ded
##ki
thes
##alities
##isan
##asant
reuse
stal
stam
stew
##idi
doaa
##chool
forty
sham
chunk
thereby
##illa
##ili
##ilage
##ulse
congr
alar
alright
intang
##mentation
unimag
lewis
quo
##agan
appoint
prejud
coher
clues
intersect
interrupt
arter
reserv
overse
disconnected
##ologic
contag
desce
desires
underm
genomics
flush
cairo
decomp
instances
##redict
involving
##uba
crust
poles
famine
mediev
finite
finishing
natasha
questioning
careers
viscer
##geries
subsequ
greed
marked
joining
waking
confusion
autistic
restor
treaty
##lessness
##bral
##brush
freezing
archive
harry
neurogenesis
edward
editors
operated
superconduct
freak
supports
pressing
trading
eighty
sque
multiverse
specialist
considering
185
cooling
princess
civilian
dimin
promises
competitors
attacking
pathways
portray
dancer
fixing
cartilage
addressed
donated
thriving
titles
daddy
manufacture
folded
matching
benign
mastery
displays
displaced
photosynth
arabia
perceptual
visitors
backgrounds
embraced
iranian
accurately
stocks
romance
replacement
pilots
vibrating
migrate
pursuing
vegetation
kicked
##ylvan
colonial
container
flexibility
pools
narc
lenses
autonomy
attending
depths
dishes
exponentially
unpredict
cathed
sacrific
##rospect
dictionaries
hooked
scenarios
chromosomes
macro
fertilizer
volcanic
administr
pixels
purchase
syrian
##uddin
ninety
survivors
##idelity
exercises
manuscript
columbia
squeeze
rehabilitation
cigarette
divorce
adulthood
accompanied
surrender
pitts
gait
sabb
locomotion
interdepend
nonprofit
##human
carnegie
oklahoma
medieval
##ylvania
54
dur
dual
divers
fount
hatch
icons
jason
lump
niece
pose
pumps
sms
votes
zo
##cet
##pro
##produ
##lor
##liness
##hyd
##aved
##bian
##ev
##normal
##worm
##vis
##zuel
##ji
##jan
##erving
##ndor
##ndry
inqu
##alous
##icides
rewards
##otent
##stru
##stairs
##ctar
##kel
##opa
##rose
##rovir
##rogram
abroad
moons
nectar
chore
alliance
dean
spades
composed
theirs
tai
leone
mang
apps
muh
overhead
impressed
adds
underp
indirect
scand
ideological
smugg
thankfully
drama
surpl
persons
earned
owns
brainstorm
polite
##bee
##bees
slaughter
centimeter
strang
bikes
##ceptible
skies
warfare
singers
inflation
##tsd
presidential
jokes
tyran
cheet
costume
environmentally
publication
advant
friendship
protects
racial
##nsylvania
stealing
operational
pleased
picks
fails
chemotherapy
slowing
responsibilities
copies
copying
richest
marshm
penn
pennsylvania
polls
emergent
blocking
empir
smartphones
pathway
salmon
visionary
rainfall
variables
tomato
crispr
ethics
improvements
launching
donors
influen
distribute
innovators
struggled
miracles
liberia
optimize
verbal
halls
scanned
##backs
efficiently
1975
honesty
petition
paradise
michigan
kilometer
brazilian
tastes
hostile
ambass
libraries
accelerated
synthesis
conductor
roman
falcon
shelves
puzzles
documenting
disappearing
janitor
infinity
vegetable
##burg
complaining
referred
disasters
swedish
minimal
elders
powder
reproductive
cerebral
airports
washed
pipes
fragments
premise
coding
tolerance
households
accumulate
volcanoes
aspirations
tuber
conceive
dictators
bureaucr
deliberately
crystal
physiology
strains
browser
parasite
crushed
sidewalk
voyage
bruce
hobby
joseph
apologize
##natural
acoustic
libya
steady
slogan
maneuver
namibia
kosovo
venezuel
##restrial
calculation
enlightenment
irrelevant
monsoon
pantheon
58
bach
bass
dm
dor
dorm
dick
dug
dyl
duration
fier
gur
jill
kep
laz
lama
piv
pav
rs
rou
rage
tink
tues
tuck
##cain
##mia
##low
##sight
##hah
##bear
##rin
##rated
##n1
##ye
##fr
##vae
##inational
##reen
##rels
inert
##alog
##itating
##arium
beck
##state
##ationally
shield
shaking
##gender
##umen
trillions
enters
intest
compens
unch
unne
unified
unequ
perse
bugs
impr
impose
talents
daylight
grind
##integr
##play
incub
simulated
invitation
invasive
##teen
##tends
lastly
himal
slam
recur
waterfall
mineral
repet
##geria
singer
couples
fung
marcus
reasonably
researching
scientifically
defines
secular
programmer
30s
dragged
successes
neurological
##cca
edi
steer
potatoes
directors
superher
limbs
limestone
commonly
symb
illusions
multinational
winners
cooler
copern
northeast
astrol
nicely
touches
irres
pathogens
fairy
statue
##culosis
reactor
accounting
receiver
1997
furthermore
sequenced
160
banned
judges
victory
##ussani
1989
hurts
urbanization
employee
interviewer
denmark
hallway
matches
mammography
contacts
rhino
deserts
accommod
ironically
merc
##untary
cognition
appealing
luc
egyptians
requirement
categor
dispers
novelty
prototyping
philosophers
convincing
quietly
inputs
lester
minimize
declining
mcd
ipad
##heads
circuitry
satisfact
phrases
flags
exploitation
bicycles
##rosion
capsule
derived
asteroids
thermal
louis
stunning
breakthroughs
eradication
williams
gaze
giussani
degraded
legisl
commodities
germans
update
urgent
spontaneously
transistor
diagnostic
executive
legitimate
temporal
jewelry
cochle
plankton
lifelong
intervene
adversity
cinema
entitled
blockchain
asthma
electromagnetic
obtained
fingertips
pollutants
cybercriminals
destructive
conclusions
overseas
tuberculosis
dylan
kepler
tuesday
unnecess
aust
bac
cp
cn
dental
fame
gro
horn
heter
kam
lem
lag
lagos
mast
mash
naz
node
pher
ptsd
rus
turing
tips
wre
wed
##cor
##maker
##hill
##bir
##tim
##uation
##fig
##wan
##vance
##iner
##inates
##atin
##inger
##isc
##leep
##owan
##etches
lip
lips
##opsy
anth
goli
##thal
heated
asleep
##olis
##olar
##adus
canal
shipped
##illes
##ilia
##ilizing
deple
orang
prohib
##igate
##istically
usa
ushah
encel
moreover
intend
compr
tags
evident
expend
pron
feared
reserves
overload
imposed
impulse
lover
##ologies
##ibati
##ultures
betray
scaled
scroll
bricks
##intu
eman
emma
##pling
##plic
flown
cafe
surgeries
remem
wright
glory
boil
crank
problematic
slip
tract
202
extr
careg
skys
sketches
##aware
coupled
preserved
accused
regulate
governor
sword
histories
maria
wavel
##ducing
confusing
auto
cheers
proport
networking
exclud
equals
payload
payoff
lander
##psy
tedx
condem
##rians
measles
radar
##ucks
europa
collar
dealt
existential
demographics
directed
embodied
southeast
transformations
bloody
180
obsession
cops
copper
predicting
replied
developmental
ultras
epile
affection
ballet
balanced
slept
##nedy
portugal
functionality
characteristic
tablet
1996
checklist
sanct
##ammad
linking
acceptable
skype
unfortunate
tennis
exhilar
rolls
homin
heavens
quantity
quantitative
strangely
respected
contributions
broadly
kennedy
willingness
mammogram
inventors
motivate
sections
explorers
ambition
frogs
bulbs
juven
prevail
mexican
queens
bono
divergence
punish
myths
disposal
priorities
infinitely
philosophical
submit
submar
taller
microscopic
recycle
hij
roofs
qualified
venice
observer
comparable
poems
titanic
beside
scholar
texting
tanks
conservatives
tweets
embarrassed
maximize
louder
boson
dwarf
olive
receptor
intimid
feminism
emphasize
incidentally
certified
arrows
exhausted
decentral
transactions
confirm
psychiatr
spontaneous
indoor
metrics
drowning
redefine
substantial
##abytes
kilograms
tunisia
kiribati
lithium
founder
pearl
endeavor
calendar
avenue
tasmanian
beatboxing
siberia
mixture
shepherd
sensitivity
hypothetical
octopus
dalai
congrat
pittsburgh
muhammad
pherom
goliath
enceladus
450
74
bil
bib
bumble
cer
dj
dall
dome
ease
ft
hed
ja
jr
kur
posed
rog
rode
rows
ramp
riots
vect
viv
wag
wool
##phing
##lical
##aver
##bot
##bro
##bird
##rust
##ria
##ni
##fu
thunder
##atus
##atical
android
tob
todd
##esters
##alore
##arians
iter
whip
##icill
##lem
beeth
reimag
##ste
hay
stir
stamp
forum
livel
wasting
##oping
##erend
##amics
##roots
goss
abused
heh
noticing
chord
allen
##anted
exit
excer
##ulously
##iva
timber
appar
wells
arise
anytime
resh
overd
pond
poach
firsthand
impaired
##ounding
rovers
blade
blows
hump
humming
brow
brig
commands
grief
##isha
incomes
greatly
humankind
colomb
invasion
belo
basin
##tech
reloc
creators
booth
cran
consists
##erto
slope
slipp
learns
biode
biased
reply
larry
skip
lightning
organizational
suppress
responds
entity
processor
preschool
swear
##neum
##cuses
shares
standpoint
souls
incremental
fundra
refined
risd
viewpoint
millise
digits
depict
difficulties
thirdly
edit
edited
potent
literal
sensible
superior
barbar
dreamed
violin
##borne
ballot
facult
rockets
penicill
##ometers
worthwhile
redund
hunters
promoting
blocked
11th
mobilize
epic
tracked
philip
expressive
2013
slee
sells
neighboring
1994
admire
dependence
wilder
kilos
packaging
financially
christians
17th
reminder
##cla
bangalore
randomness
jean
taxi
russians
strengths
epidemics
reconnect
diagnose
tourist
indication
therapist
implicit
illustrates
towel
battlefield
lesbian
preferences
chaotic
heights
consistently
inherent
initiatives
manipulation
rhythms
##breaking
paralysis
pipe
pipeline
constitu
stretched
shells
##vasive
imperative
hubble
frightened
jersey
julia
hypotheses
satisfy
guardian
controversy
scholarship
hatred
fulfilling
jonathan
quadr
hindu
settlement
certific
temptation
shrinking
cabinet
##idelines
encryption
nucleus
threads
psychiatric
reinventing
nanopart
induced
disgusting
resurrection
geeks
ozone
tapirs
trustworthy
scalable
dvd
beetle
incarceration
paragraph
summarize
##munic
meadow
unaccept
lebanon
arbitr
intangible
surplus
advantages
marshmallow
ushahidi
wavelength
beethoven
penicillin
40s
53
bj
bark
bands
baker
cc
cs
erosion
gently
gym
hes
hoo
lure
oreg
pity
piss
piles
pneum
rag
rav
rank
ripp
vapor
wiring
zamb
##mass
##pay
##pace
##lined
##ihood
##bod
##eches
##yan
##uction
##uana
##fa
##fers
##flu
##foot
##wear
##wind
##vol
##zo
thumbs
toss
##edron
##iscover
##itz
rear
reun
##oton
##otive
##enter
stall
stap
stiff
##idity
dodo
liking
anch
arena
goose
moist
monday
asph
##ulates
deci
alice
tender
spouse
plun
timing
compressed
leak
##izona
perf
expense
laundry
prefront
amster
amanda
arizona
resign
##ques
speeches
acids
bloom
lett
scope
##odyn
##formed
remitt
writes
carcin
inspect
terra
solitary
slices
schooling
hull
serge
metron
attraction
larvae
elastic
elites
behead
##awi
swamp
cambod
marg
wax
waist
parap
##prop
proph
geological
devoted
##ashes
testimony
equator
##ocra
sought
##aterials
payments
assure
paste
freeze
aviation
measurable
microw
brakes
province
providers
grandd
journeys
barn
barack
improb
centered
mald
templ
personalities
posts
marsh
combining
civilians
releases
releasing
textile
smartest
hotels
exceptions
expressing
starvation
activism
1991
depended
spiral
bananas
judgments
fasc
inefficient
uniquely
societal
reflective
cookie
celebrating
sadness
midnight
controller
jealous
surroundings
austria
mortg
analytical
desertification
merma
hacked
appreciated
prevented
disappears
springs
vibrations
stimulate
darwinian
beaches
loaded
toyota
praying
pediatric
shadows
explosions
constrained
appropriately
biomass
weighed
floods
flooding
diplomat
firmly
sediment
##ijuana
anatom
astronomical
rabbi
expeditions
disturb
immigrant
palestine
pixar
elevated
aerial
persuade
automobiles
commodity
establishment
filmmaker
nuclei
addicts
tattoos
marginal
crawl
urgency
sauce
blessing
insisted
nerd
marvelous
ambiguous
georgia
vaccinated
bonobo
coincidence
unemployment
amateur
distracted
ingenuity
parameters
numerous
substitute
manufacturers
sterile
scotland
hamburger
cassini
unstable
thorough
fighters
fierce
himalay
##timore
livelihood
excerpt
unacceptable
oregon
prefrontal
amsterdam
68
bip
bah
cort
cem
cia
cough
dave
dangers
eager
hitch
lined
lapse
mau
oak
pension
rick
til
tilt
##mn
##boy
##tion
##tles
##uk
andy
##ena
##orse
##itas
##itated
##itters
wets
beast
bending
##utter
reed
##stal
##struction
onset
sob
stole
##urning
##idal
forcing
goats
withd
abortion
abnormal
mock
cancers
shiny
shirts
##gebra
excuses
##ulator
alab
algebra
##iffer
teens
spy
##usal
placing
thinkers
bye
##cium
saves
une
unrel
unaware
##aste
##izable
pervasive
expands
quot
quotes
agile
coined
cocain
amend
clapping
intermedi
rightly
##ached
makeup
mund
partially
disprop
lobe
##ptic
##acent
##ensed
##ounded
underway
##ulture
humil
##velt
differentiate
##phor
emily
emission
flap
##orship
dried
simon
inviting
reluct
lasts
lasted
crashing
consent
keith
powerpoint
##beat
founding
slum
placebo
ministers
moms
biotechnology
cape
projected
cleans
regrets
monthly
curs
patr
patience
swar
menstru
streaming
statements
trek
filming
##eneg
mustache
crab
retired
returning
avian
harass
godd
esp
##ucky
eden
superint
legally
beginnings
encl
sums
cyc
poorer
malign
requests
diego
versa
experimentation
northwest
draws
relevance
mounted
laying
2016
baltimore
cleaned
salary
virtuous
portable
meaningless
efficacy
1993
admin
representatives
##strong
germs
sticky
accepting
collaborating
misery
tennes
##aurus
roller
susceptible
liberation
determining
cooked
citizenship
interviewing
industrialized
heroic
selective
integrity
triple
taxpay
australian
iraqi
fashioned
bleeding
blogging
rotating
masks
motorcy
grassroots
reinforce
angels
vibration
##ulsive
neurosur
gallon
galleries
athlete
cowork
tickets
explanations
peaks
ringing
symptom
absorbed
1945
lectures
storyteller
reviewed
premature
knocked
cocktail
jerry
extremes
abandon
geometric
jefferson
aquatic
aesthetics
stunts
sulfur
joints
delighted
feminine
miami
deliberate
ruling
confirmed
resonance
immunity
flourish
routinely
bounce
fetus
crawling
statistically
##standing
transistors
diagnostics
registered
negotiations
nanopatch
##chemical
bonobos
neuroscientists
zipcar
wolfram
glorious
anesthesia
erectus
underestimate
presumably
buddhist
favelas
intricate
respiratory
triangles
escaped
deterior
encrypted
supercomputer
juggling
catalyst
rehears
syringe
submersible
adequate
philippines
crocodile
throat
guidance
marathon
conspiracy
thesis
stewart
arteries
visceral
unpredictable
venezuela
cochlear
ultrasound
dallas
margaret
##ocracy
cocaine
disproportion
tennessee
56
77
83
94
arose
bog
eh
eco
givers
hg
han
hunch
ivan
jenn
lent
mature
nests
oecd
ps
pave
rented
ripped
sony
tire
vents
wil
wipe
##lif
##lied
##ieth
##bt
##bly
##eed
##rans
##rition
##not
##nest
##graph
##drop
##zler
##inas
##inative
##atma
##onal
##orable
##alians
##arity
##omin
##asis
isa
##owed
##stood
onc
haun
stakes
doses
##amil
##aunt
mola
moham
asyl
asym
##oli
##olas
##olith
shade
shatter
##ppers
##anting
pean
peel
##iflu
trunk
##ieces
plas
plum
evergl
##eman
worldview
##acked
evan
prone
prizes
twel
intercept
interrog
ardu
needles
needless
##iper
##ipotent
dissem
backed
##acco
##berto
roy
rooted
blad
undercover
syd
apples
indul
scare
grip
##rained
ideals
humanities
guest
guidelines
##tebr
glut
relie
boots
crown
exams
consol
playground
communist
strive
trait
cellul
develops
reporters
skins
lightweight
##awa
##awatts
hoc
warn
handy
wallet
subc
##ocks
setup
valve
addicted
swam
swirl
grey
signing
mattered
culturally
costly
geo
milit
watches
##mann
certainty
morally
classmates
auditory
resulted
workshops
archimed
calcium
messaging
provin
approval
norman
technologists
shortcut
optic
optics
essay
embass
grounds
southwest
seaf
posture
responsive
circulation
armstrong
cease
volumes
sustaining
sustained
penal
unfamil
##liers
entert
turb
turbul
progressive
availability
leds
characterized
reacting
ladder
threaten
contexts
bankers
detectors
puff
catalog
tunas
multiplic
employed
mistaken
hairs
verge
scripts
darpa
displace
seasons
vastly
rhet
metaphors
hacker
bullets
reconcil
revealing
tourism
acceleration
departments
extending
notebook
counterp
counterintu
requirements
abstraction
odys
angel
altru
barefoot
sighted
matth
complained
jews
lesters
settings
execution
unexpl
antibodies
shallow
vertically
severely
revenge
drilling
assigned
rushed
cubic
criticized
renewables
prag
padd
regenerative
descriptions
immigration
disagre
christianity
aspiration
bronze
eradicate
fractal
paleont
improvis
rendering
orbital
teszler
obligation
evaluate
ivory
filmmakers
restricted
restrictions
uploaded
botan
genuinely
montana
rectangle
nurture
stereotypes
tamiflu
contaminated
executives
assessment
stimulus
cultivate
amateurs
toxins
doodling
carrot
fluctuations
mantra
immortality
innate
prostitution
outdoor
oyster
pesticides
sovereign
spheres
loyalty
postcards
##nutrition
mahatma
centrif
illiterate
bosnia
wizard
inconven
taiwan
unequal
satisfaction
russell
colombia
improbable
maldives
mermaid
alabama
mohammed
unfamiliar
counterintuitive
82
ao
aura
bail
bumps
ct
eag
fetch
gru
gaining
iq
jury
kel
kings
nba
pod
races
rift
rica
ranging
sri
sift
sapi
tread
tipping
wounds
zod
##pit
##pot
##iy
##houses
##bucks
##ridge
##gent
##ders
##dog
theft
##esy
inmates
weed
##leys
##ller
beard
##vet
rept
rebel
reagan
##step
haul
stub
stagn
stumbled
##chet
##opolit
anom
sealed
moss
heel
heels
shir
worn
##raged
notions
frugal
deer
deleg
##arten
knob
tect
outf
##inkle
spine
spines
upwards
vegas
unin
unthink
leaks
##acks
expose
##aba
##abe
##oren
coco
##itty
clap
##00s
newborn
needing
happiest
resid
resident
backup
##acci
appliances
scares
brute
ideo
genital
incons
flipped
##aka
offsh
simulations
guilt
carn
relies
##weed
endlessly
insign
boot
imaginary
crater
cried
founders
finland
extensive
attor
biotech
reprogram
capacities
warren
secondary
openly
animated
animations
presents
preserving
swap
##ographing
educating
cheer
geese
labels
untouch
netfl
##otto
continually
excav
lawrence
refers
refine
reflex
##asters
workshop
caltech
collections
harlem
radius
babbage
listener
editing
poses
predomin
supermass
barb
limitation
squared
embark
survives
malnutrition
perfection
fights
billy
presentations
186
189
practiced
printers
princet
predicts
vacant
##ustainable
burial
fireflies
similarities
currents
110
turtles
strand
arriving
irreg
speeding
domains
bald
starbucks
telephones
##rams
danny
erase
sanitary
separating
mathematically
spirits
sync
correction
donate
influences
appearing
##screen
struggles
automotive
lawsuit
hurd
ranking
liberals
quantities
deny
denied
officially
inventing
etic
1973
1970
petro
switches
preventable
blend
mercy
bulk
snowden
discom
breasts
burns
frequent
hydrocar
tapest
stockp
installations
routes
academ
rewarded
replicating
vibrate
submitted
claimed
removing
contracts
references
execute
unsustainable
inherit
commandments
mentality
scarcity
ruin
hawking
mega
jacket
coordinate
injected
injection
anxious
embarrassment
sneaker
praise
jesse
cracked
excellence
eliminated
blanket
julian
devastated
polymer
accumulated
mysteries
stereo
recruited
yields
digitally
collapses
tropics
immensely
tortured
improvise
census
leaning
bureaucra
giants
evaluation
intrigued
arrangement
whitopia
browsing
creepy
inexp
embryonic
manuscripts
suburbs
suburban
battles
tiniest
sidewalks
forbid
unemployed
neuroscientist
bmw
incorporate
crochet
municip
bioluminescent
bioluminescence
vicious
recreate
explicitly
pulses
conferences
neocortex
enthusiastic
vinci
catastrophic
affirm
unimaginable
prejudice
reservoir
cathedral
fountain
lazy
##frame
unnecessary
skyscra
decentralized
roger
apparatus
beloved
wilderness
##munications
remittances
goddess
asylum
sydney
archimedes
zodiac
netflix
supermassive
princeton
41
61
78
84
91
ace
awards
bing
bage
bak
bbc
cues
dd
dian
dude
erupt
fred
fitting
gm
gle
gab
gag
hud
ion
kr
owe
pist
rg
rach
sween
tad
uv
vultures
wan
wished
wils
##cke
##cils
##oly
##min
##bands
##bury
##rr
##ril
##tic
##inous
##inators
##inburgh
##ench
##onics
##onacci
##isive
whil
##icus
##leans
beats
##sevelt
##sty
##stick
##enth
haven
soils
stink
stated
starch
##vering
anas
##aments
##rosc
seiz
hears
##ols
##olate
worship
notor
mell
chad
chalk
##ills
extends
orleans
proving
alleg
##ected
spraw
plur
howard
##ogene
sug
compli
unple
unnatural
##astically
tagging
lev
##actic
##activity
manages
perme
##agas
feas
prest
preference
amuse
clitor
artery
partial
bund
backward
kinderg
##ateral
acumen
contra
desirable
applaud
indus
scrib
commander
smiles
greatness
drank
offensive
##xtap
##ordial
guided
##ressive
reli
imaginations
imaginative
craters
fuck
producer
centimeters
hug
servers
developer
developments
10th
reperto
##aho
electoral
walter
energetic
valent
sounding
signatures
popping
distorted
oppon
menu
wonderfully
foremost
globalized
listed
geck
geothermal
##ocation
trem
tedsters
audacious
resulting
draft
dragging
crabs
absent
archives
followers
listeners
delta
universally
edison
edinburgh
stewards
superpower
commonplace
shortage
encoded
performers
125
poorly
specialists
breakdown
inspires
recognizes
conviction
professions
voluntary
psychopath
similarity
reduces
sniff
galile
irish
hotter
dominate
suggestions
capitalist
boyfriend
cleaner
fairness
generalize
panc
panban
dining
primordial
rainbow
admir
capturing
fills
meantime
secretly
ethic
miscon
assumes
participatory
continuum
homosexual
1986
##igrade
simplify
historians
enjoyable
photoshop
graduates
roosevelt
fingerprint
spaceship
merit
reconstruction
juxtap
attempted
tourists
kenyan
venter
ventilation
horrific
cosmology
melody
fellows
summary
bonus
murray
lesion
executed
##holders
illnesses
traumat
seasonal
senate
manipulating
fertility
circumstance
recipes
navigation
beekeepers
biomim
orchestras
fibonacci
deceased
fishermen
extremism
360
kissing
pioneer
pioneers
pioneered
satisfying
pixel
irrigation
commissioned
aquarium
champion
orientation
guaranteed
ninth
rendered
lgbt
instincts
crystall
programmable
sewage
introducing
puppy
weekends
synthesize
involvement
solemn
reverber
nurturing
protocells
scaffolding
forbidden
substantially
disparate
echo
pornography
revelation
miguel
migraine
suffers
chewing
outrageous
blobs
##bags
annoying
contradictions
earnings
sympathy
intrinsic
telecommunications
##ranean
misunderstood
adolescents
grammar
reinforced
junior
photosynthesis
narciss
##proof
pivot
fungus
lesterland
mcdonald
wreck
pronoun
certificate
asphalt
microwave
##ifferent
mundane
isaac
everglades
twelve
embassy
sapiens
offshore
irregular
discomfort
sweeney
wilson
whilst
unpleasant
kindergarten
panbanisha
39
57
89
apt
aime
aaa
cel
dances
drey
gum
hir
iw
jig
jets
kent
lur
lol
lava
nod
nail
nik
pets
rsw
sank
sessions
tus
troll
uber
watt
zoning
##cation
##code
##cup
##oqu
##pable
##aic
##aire
##bted
##nos
##nals
##nik
##gle
##die
##tts
##take
##tta
##fur
##fting
##ko
##inished
##ndur
##enna
inade
##itate
##itories
##aser
##asso
##lli
beans
##owing
rew
rex
sting
##ople
anna
##iry
##immer
##rost
##rocess
abu
abol
mol
##ppy
degen
maur
mahm
usage
spam
enroll
plaus
plotted
actu
##ivation
##elines
##emi
unity
unqu
unite
uncover
unhe
manure
evolves
quart
pristine
appet
amput
clich
cloned
claws
interference
interconnect
##achuse
idaho
humidity
beta
scuba
differential
##obic
drums
##aky
offline
decon
remed
invade
invaded
carved
creatively
boils
transgender
cram
crad
crick
conscience
monsters
meanings
powerfully
modular
modules
##mond
traw
traff
##althy
questioned
americas
readily
projecting
visibility
##ahedron
formats
subset
cleared
regimes
regulating
curator
valves
populated
mario
marijuana
distress
easter
paran
foreground
tops
##ographically
exclus
##ocative
##ocamp
diab
governmental
landm
landf
teddy
##riages
retrie
massachuse
collider
hygi
edible
varied
steak
journals
##amese
barg
barrels
pressed
chemists
apoc
performer
multitas
strongest
billboard
187
impacted
urine
achilles
combinations
visualizing
eyebr
turtle
ecst
beneficial
balcon
logistics
portal
portland
fundamentalism
receives
captures
banker
##lights
banana
packaged
donation
donations
titus
suspected
mirac
troubled
##shot
drinks
simplistic
##ibera
emailed
darfur
tensions
demanded
fatty
crucially
franklin
tribute
inspirational
rooft
commercials
repeating
juan
defending
rebell
conducting
romo
implication
punished
lifetimes
recycl
encounters
extracted
assembling
instrumental
occupation
##glasses
rupe
ruined
converting
acquis
featured
criticism
pumping
antarctic
pharmac
advocates
footprints
whistling
anticipated
rosetta
delicate
volcano
duke
anthropologists
##uddle
confrontation
skeletons
emphasis
sarah
dumped
hippocamp
racist
paj
degradation
oblig
seventy
wounded
corresponding
veteran
arrangements
alignment
enlightened
episodes
rectang
indoors
neanderthal
enzyme
tedtalks
ambiguity
victorian
nonviolence
cigarettes
immersed
comprehensive
microrn
wrestling
##charge
fragmented
reciproc
crowdsour
immortal
flickr
strictly
hydrothermal
dunes
extroverts
sweeping
maternal
friedman
obscure
implants
avoiding
orthod
specimens
casualties
exquisite
cafeter
snapshot
sixty
siege
disadvant
coherent
contagious
cheetah
influenza
ambassador
persever
superhero
accommodate
lemon
remembers
faculty
pneumonia
superintellig
asymmet
plasma
penalty
reconciliation
inconsist
insignific
bureaucracy
clitoris
repertoire
gecko
galileo
aimee
inadequ
massachusetts
arous
bc
bam
bart
bun
bunk
ced
cern
fade
fict
gary
groom
hp
jams
ks
ker
kap
kibera
lous
lank
laur
mb
mck
nun
nag
nih
pup
qatar
rally
raz
ranges
sard
sush
tig
vr
watts
yo
yah
##cion
##cere
##cam
##mart
##person
##lam
##hery
##bble
##eor
##ng
##tent
##uan
##fol
##vs
thigh
##atile
##atics
toaster
tofu
##enet
##onies
oftent
##alo
##aras
##arse
weaker
rearr
reju
sober
socks
sook
##urb
##chi
##changing
forwards
##terior
##imated
##amous
hef
cant
sha
worries
##rack
notation
##anty
##uled
##arted
knit
sput
enfor
plural
byprodu
imf
intol
compart
compost
vending
unve
uncon
##asting
tails
worldchanging
##anship
##abad
feat
feather
agrees
append
amph
clut
arithm
firms
resin
overweight
poop
poetic
##iping
buys
bucket
loops
tales
syll
##veling
scour
##ells
downs
embody
##lection
afterward
systemic
basics
relational
highlands
endurance
courty
crunch
monarch
monument
terrestrial
##bec
communal
believer
##people
sled
modes
modify
strips
medio
mediter
204
finest
##issipp
serial
miniat
informant
graham
movember
hondur
warri
corp
handwr
##ahren
companion
countryside
animate
futures
internationally
probation
curt
rediscover
valued
headache
##swana
popped
marries
marriages
charism
chariot
photographing
confession
cheering
propulsion
geologists
geek
geopolit
devote
moroc
diy
15th
funders
risen
pasted
freeway
mississipp
euros
provision
hyun
potter
literary
barry
barbie
europeans
recordings
##rophe
violated
identification
transformational
privat
cameron
188
obsess
structured
25th
firef
esteem
arranged
galois
critics
guessed
conception
definitions
rainy
variability
fax
pushes
representations
tomatoes
colder
sticker
lowered
skyd
detecting
supposedly
sandy
influential
clinically
achievements
depressing
hurry
reflecting
sweats
liberated
##chester
throws
optimal
##iosis
demonstrations
1968
tougher
toughest
forgiveness
adopting
ancestry
artificially
discrete
discourse
attempting
grandmothers
constructing
constructive
maintaining
indicators
churches
locking
madagas
melted
lincol
academics
belonged
puncture
replication
replicated
investigative
accidentally
vegetarian
kickst
compliment
concentrations
suitable
containers
lasers
manipulated
holistic
cartoonist
mcg
convergence
professionally
regarded
alexand
cereal
##nesday
nursing
adjacent
storytellers
deployment
mimics
mandate
coordinated
databases
triggers
pads
whistles
rabbit
fertilizers
liters
sincere
disturbed
pioneering
murdered
nickn
monitored
attribute
anthropology
convenience
manifestation
##keeper
##writer
reception
rebuilding
bothered
instinctively
persistent
persistence
festivals
width
vietnamese
botswana
perpetr
sponsor
margins
vitamin
foxo
drowned
droughts
gratitude
glowing
protocols
catastrophe
negotiating
conquer
##abyte
fgm
swallowed
imitate
penetrate
bertie
voic
annoy
schedule
articulate
insecure
undergraduate
pessimistic
paulo
disclosure
corridors
neglected
cmu
periphery
kyoto
flawed
jamaica
descendants
barbershop
##ophobia
raisuddin
sabbatical
inquiry
empirical
pavil
tucked
cnn
wednesday
comprised
exhilarating
tobacco
toddler
browse
biodegrad
milliseconds
arbitrary
cambodia
himalayas
wetsuit
swarms
jennifer
subconscious
hudson
dreyfus
mahmoud
unhealthy
cradle
hippocampus
tigers
oftentimes
rejuven
byproduct
arithmetic
mediterranean
miniatur
warriors
mississippi
madagascar
lincoln
71
76
88
ais
ald
bou
bod
bore
bree
cured
dg
faul
fahren
gw
gib
hers
hul
ic
jay
mp
mint
mates
mba
ness
ron
rushing
rng
sway
sars
serend
td
tether
uc
vine
verm
void
vantage
vague
wob
##core
##oys
##port
##pical
##lar
##ikes
##bour
##eing
##eenth
##gian
##dream
##tan
##yss
##uably
##uels
##uador
##wing
##inia
##atable
##atient
toron
inability
##edical
##arthe
weep
iteration
bever
##sex
rebe
##otomy
##otrans
##sticks
socket
soda
##idental
lied
##tering
gogg
segreg
##thy
abusive
mocking
hex
neum
neph
shook
shores
comets
##ustomed
deem
dement
prox
pend
pepper
peek
congreg
##atemal
spear
spong
spik
spores
envy
plots
wholly
imam
timeline
unlim
##ouri
tahr
leo
levit
##izzy
mans
hash
evange
quiz
precon
coer
interfer
arrog
resolved
muff
overf
poets
dissect
firstly
imposing
phy
phos
acre
containing
blamed
descent
##ibles
daydream
hispan
grams
grizz
downstairs
##places
flaws
flashing
offense
##fulness
guatemal
fond
bassem
glands
helix
planners
bites
mighty
poland
slim
slate
modification
centigrade
##othy
medal
kidneys
learner
learners
seroton
metro
grape
grabs
elusive
##awatt
protesters
handling
suppliers
accustomed
governed
curtain
charming
charging
deterg
forehead
profiles
costing
propeller
deflect
##ographers
geiger
secre
virul
heartbeat
classified
50th
blackberry
walker
assass
assured
quicker
missouri
windmill
dealer
colleges
steering
predatory
extrap
extraction
superno
superman
communicates
freaking
aparthe
weekly
grounded
malawi
temples
darker
surprises
arguably
bloodstream
convent
practition
destined
cooled
##heit
dougl
unfinished
trusting
pollination
prompt
competent
mainframe
empires
ecuador
policing
pathology
balancing
starving
activation
virtues
searches
danish
reactors
##ophy
complications
crosses
freedoms
bombing
##cussion
tunnels
policymakers
automation
170
cardi
susp
1982
1985
westerners
respectful
fragr
ignoring
manufactured
customs
associations
commercially
plato
historian
benki
1976
masterpiece
fueled
nanosc
motivations
motivating
petri
husbands
targeting
gardening
yellowstone
bleed
wearable
merch
##flow
epidemi
rotates
credible
reconfig
maintained
joyful
brilliance
stockhol
exhibitions
melts
candle
belonging
intuitions
##marks
altar
vibrant
announcer
polarization
ensla
assisted
rubble
lifts
mosquitoes
crashed
##comed
prayers
declined
seminal
occupied
welcomed
holoc
chapel
accomplishment
ruins
negotiation
solidarity
baton
batman
biomedical
reviews
tackling
downloaded
flowering
pitched
memorable
stretching
rejection
cockpit
clarify
anticipation
concerts
coded
jerusal
intensely
sucked
railway
intentional
strokes
honeybees
scottish
therm
duplic
helicopters
manifestations
precurs
##hhhh
##etti
skepticism
receptors
censorship
##organic
##organisms
triggered
ethnicity
buddha
ella
ruled
composite
broadcasting
twisted
relaxed
awarded
unlocked
embryo
pedestrians
prevalent
##check
legitim
inferior
membranes
toxin
ingenious
revelations
tactics
##ocratic
resemble
picasso
facilitate
deprivation
yogurt
arkansas
overlooked
vascular
biofuels
cumulative
prescribe
hectares
shuffle
occasions
lexicon
gloves
aurora
pentagon
plugged
savanna
cylinder
prioritize
dysfunctional
kanzi
alarming
subsequent
restoration
superconductor
##roviral
dispersed
caregivers
epilepsy
juvenile
submarine
vector
reimagine
zambia
metronome
sobule
cursor
administer
motorcycle
coworkers
arduino
entertaining
unthinkable
attorney
barbara
pluripotent
exclusively
lousy
sushi
fahrenheit
serendip
toronto
rebecca
goggles
neumann
deemed
unlimited
tahrir
apartheid
stockholm
jerusalem
2d
62
92
bp
ded
dair
dull
dash
dune
denom
duct
ero
etern
fm
fau
gn
gau
gamb
hw
hou
hust
hike
kb
kay
khan
lest
lisa
mk
mong
moth
mmm
motto
nour
naming
oops
pies
pall
pine
pope
pores
pisa
rd
rif
rival
ronald
sip
sands
tut
uter
vet
vanc
xen
##cas
##cop
##cats
##oking
##math
##pack
##lord
##lank
##iative
##sen
##hou
##him
##hole
##hran
##rh
##rim
##rial
##rina
##nity
##national
##giving
##di
##tw
##fi
thurs
##ouver
##energy
##ancies
inward
inorganic
##alan
##isp
##isure
##itious
##arial
##omer
wears
weaving
##lements
bean
bearing
reign
relying
rewr
##otential
hav
haired
solly
stain
doomed
##oplan
##imps
gol
gosp
seize
##tha
##thest
abra
molas
shattered
chin
chunks
##antically
exoplan
proxy
converse
##igms
##igible
likewise
maid
usable
outwe
outward
sple
spotted
##ieu
upr
plumb
plague
plaque
##cile
hadron
##elf
##eland
sued
compose
compress
compatible
unra
tapping
leisure
##iza
##ardon
##reatic
peril
persec
exposing
noah
nostal
##idepress
agnes
preh
cohen
cobra
cohes
amp
clunk
intertw
arises
resort
residential
mug
overcoming
pointer
disem
disgu
disruption
discont
disintegr
impair
##acies
##berty
phd
idol
blu
blair
blues
blades
blunt
sco
scout
scru
scars
realizes
##ishes
genomic
incidents
flute
flavors
aftermath
decode
simulator
instability
womb
carve
carrier
obey
##resses
studios
opaque
relay
schwar
##fts
##weil
enduring
transfers
cries
artisan
solves
stripped
traps
meditation
recap
complement
sermon
metast
miners
generator
behaving
behaves
walmart
inflict
bookst
speculation
runner
patron
##ggy
##entional
headaches
modeled
distort
eyew
parade
photons
sideways
confuse
autobi
cheated
nothingness
##meer
proposing
devise
advancing
constell
filed
assault
archie
retain
retrospect
oneself
missile
vienna
messing
##ccoli
broch
broccoli
collagen
demol
antidepress
literate
focuses
frees
freud
barbec
squir
##rett
##retched
encode
performances
12th
improves
malays
posting
billie
##boat
colorado
armies
burma
burgl
doug
firework
sustainably
indefin
visuals
snap
arrives
carbonate
revolutionize
damaging
salam
portfol
##culus
danced
admission
tended
fantas
genesis
passionately
bankrupt
johan
bombed
judged
packets
puberty
##uctive
tuning
homicide
palms
susan
13th
dads
contributes
trickle
magician
transporting
celebrities
broadband
selectively
verbs
verify
vermeer
integrating
mutant
mutually
midwest
jeans
contacted
campaigning
paradigms
democrats
1965
lacks
graduation
israelis
cheaply
torch
##iotic
frost
##untu
pleasures
maslow
##cellular
prevents
defeated
grasses
martian
illustrated
bonica
replicator
axes
sprint
stimulated
volunteered
announcing
tallest
stressful
investigating
pillars
suitcase
augment
declar
marching
undo
##onymous
thickness
harvested
guts
cords
rigorous
attended
attendance
desperation
bioenergy
biomaterials
cuba
dresses
jackson
dividend
aiming
sneak
republicans
##vascular
boomers
autonomously
hubris
prosperous
ubuntu
tolerate
stacked
prosthetics
bait
overlap
distinctive
##oscope
loneliness
unbelievably
aerodyn
gando
##ochond
commissioner
foolish
adapting
bolt
jonas
eradicated
quadru
##condition
##balance
enhanced
settlements
borrowed
poisoning
reconstructed
pharmaceuticals
spelling
exhausting
crystals
hierarch
piracy
gateway
1918
electrode
butterflies
outsour
flourishing
tunneling
ukraine
physiological
supermarkets
prosecutor
arthr
stabilize
proceeded
lawns
hazard
announcement
carpenter
trustworthiness
recruitment
porridge
favela
leveraging
kidnapped
orphanage
merging
culm
jacques
treasure
intrinsically
antennae
anecdote
drifted
corridor
nicholas
superstar
katrina
twentieth
##azeera
cockroaches
oscar
technicians
intersections
administrative
pennies
dictatorship
tinker
imprison
bacon
kamen
condemned
pheromones
fundraising
marshall
oakland
rehearsal
bladder
multiplication
rhetoric
unexplored
stubborn
untouched
inexpensive
kentucky
deconstruct
rupees
sputnik
alexandria
nephew
dementia
serotonin
dairy
houston
vancouver
##lankton
thursday
outweigh
schwarz
59
93
bid
bould
bry
bitten
daunt
ee
ez
edu
fences
gil
h5
hots
hats
hiring
ike
jazeera
kitt
kabul
lick
lining
litter
mism
mitch
np
noses
nails
pse
ratt
ranger
sire
saul
tb
tires
ucla
vod
yang
zk
##corn
##cuff
##mies
##page
##pool
##aism
##rines
##nacle
##gill
##dies
##dated
##uble
##uates
##ugs
##walk
##zhen
##és
##ão
thera
##nde
##ndrous
token
ingest
##arosc
##omon
##ompass
##icious
##leum
##seus
rez
reus
reorgan
##eties
##etric
storing
liz
##opedic
ank
gosh
withstand
abyss
modu
##ader
cans
shen
shru
atlas
chau
chern
framed
framing
exile
orn
orbits
proves
progeria
pel
conform
##cker
mao
alh
usda
tehran
outdated
enlist
plaster
##cia
##ivable
##ogs
intra
intimately
suite
compact
vein
veil
##astrous
evac
nollywood
feathers
preoc
cocon
didn
amino
amoe
clash
mull
##feld
##feller
overest
ponder
poker
disbel
disastrous
##iret
phen
phant
rocke
kindly
##sels
##assum
conting
adhes
desal
##plex
underlies
underwear
humbling
##ffect
herb
sciss
scattered
commute
##coc
##ella
downhill
##phal
emper
emitted
##plan
##ploying
inclusion
flame
flutes
smok
##orshe
decay
carbs
longing
oprah
relent
transnational
imaginable
cripp
crushing
examining
fuse
monst
monop
monitors
monetary
##peut
sling
centric
cellphones
huck
fins
recreat
datas
meta
mommy
attent
wondrous
exploding
repos
##ceptions
##conomic
organizers
protons
visits
handcuff
##ahn
infants
infidelity
accidental
regain
governors
curved
patented
valleys
2000s
swine
passively
robb
robin
##nostic
chee
unto
locals
morgan
diary
diets
walkable
friendships
assert
##riet
archety
harold
clearing
millimeters
babys
messen
collide
collisions
braille
deput
posit
antiret
stein
operas
eleven
sunny
superp
barren
yorkers
handsome
violation
typed
servant
encompass
birch
fishery
malt
consideration
requiring
ballast
##held
forestry
uran
psyche
dimit
chooses
strapped
mounting
attacker
mechanically
benefited
daf
##lett
salv
searched
reacted
reactive
1992
threatens
blindfold
thousandth
hitler
bomber
16th
samuel
judging
judaism
packs
packing
14th
multipotential
palace
1983
temperate
swept
radioactive
vaccination
translates
calculator
riverside
optimist
verse
vertebr
##shine
scrut
scanners
util
utopian
mastered
taxon
woody
moses
demonstrating
pigmentation
roughness
cruise
mrs
##ersonal
tasted
hostility
originated
rotation
credibility
reconcile
discount
discarded
iranians
succeeding
coalition
indicating
gharial
horrifying
mitochond
fifteen
luke
grassland
agreements
puzzling
curiously
dispute
novels
flatten
migrant
warmth
hillary
aspire
colonosc
chairman
qualify
adventur
displayed
extracting
analogies
shuttle
tearing
semic
sophistication
occupying
surveyed
fertile
gridlock
comparisons
castle
surfing
dissent
constraint
assignments
cubes
cubicle
mimicking
pinpoint
instructor
aimed
injecting
casc
commentary
flooded
diplomatic
advocacy
snee
unpack
prair
extinctions
imperial
maryland
##bao
subscrib
pyramids
mailbox
astronomer
pretending
nutrient
jimmy
stacks
astonished
fisherman
##raphic
bulldo
concluded
tuition
purchasing
districts
intuitively
fooled
bribes
consultant
refrigeration
refrigerators
borrowing
feminists
pigeons
wetlands
screwed
dumping
hippie
suspects
pirate
pirates
tragically
settlers
toothp
toothbrush
introverts
compromised
puppet
aligned
composer
jargon
interfere
atmospheres
buffalo
skiing
spreadshe
laparosc
sufficiently
parasites
savvy
newtonian
unfolding
horizontally
prolong
transcendence
excessive
rosling
blurry
acknowledged
inhabitants
correlate
manufacturer
gadgets
reversed
atheist
moderate
legendary
linda
specimen
plutocr
peripher
occasional
dividing
divides
cockroach
holographic
vigil
guerrilla
guerrillas
denser
appointed
descended
indirectly
bureaucratic
incubator
repetitive
copernicus
mercury
orangutan
proportional
sanctuary
congratulations
bilbao
hummingbird
redundancy
sleeve
moisture
decipher
thoroughly
bahamas
withdraw
amendment
cycling
malignant
neurosurge
##olithic
improvisation
reptiles
hydrocarbons
academia
bakery
sugars
pancreatic
degeneration
maurit
hygiene
multitasking
acquisition
cafeteria
inadequate
yahoo
heforshe
honduras
morocco
pavilion
overfishing
grizzly
guatemala
nanoscale
uprising
prehist
h5n1
pseud
therapeut
reusable
module
chernob
preoccup
disbelief
rockefeller
49
63
67
66
87
ay
aver
bim
batch
bina
cater
cue
cores
dro
dazz
fare
favors
fidelity
gour
g20
gira
hid
icy
jir
jab
kal
kits
kelly
kara
ling
lust
mop
nancy
oasis
pas
pore
pia
pens
pater
pals
pits
pins
rang
rah
rug
rude
raging
riot
rogue
sara
seneg
tk
tres
tutor
##oam
##oxy
##oids
##mers
##pons
##pieces
##lis
##ien
##iary
##hy
##hed
##hic
##bell
##easter
##rating
##uis
##uces
##fty
##ww
##xon
##jah
##jev
##inement
##reach
##inges
tora
##animate
inad
inoc
##iscipl
##ito
##itra
##omen
weave
wholes
##icut
##icry
isot
##uter
##utive
reint
##sts
##ghma
stent
stance
##urp
##urren
##idays
doh
doha
foraging
lib
##imity
##aug
##rock
abc
abd
abdom
mobs
heather
##olia
neon
neil
atroc
noted
memo
exert
##ested
delete
alf
##istrib
knight
truff
teap
justin
justine
##inders
outp
sped
spike
enact
enhan
upgrade
pled
plag
acted
##cible
yearning
##emor
##aph
##ineering
compelled
##ours
leym
exports
qui
coated
amen
amber
clo
clog
newest
interstate
poke
buen
buffer
##ologues
backpack
##berries
phthal
blaming
##veland
herbie
indifferent
brink
##ellar
emit
emitting
flames
flipping
humanoid
##akh
offset
cav
caution
surpass
decisive
simps
guides
guiding
guests
carter
obtain
opium
endemic
bonding
boeing
crut
cray
crum
examined
monks
monaster
planner
soluble
communism
numb
cello
celled
metam
minnes
101
atten
woven
graves
gravel
grapes
repay
reads
eloqu
##grow
behaved
lightly
lightbul
possess
protagon
##atively
corps
##ahili
supporters
dolly
presidents
##crast
regulated
curb
curse
redistrib
connecticut
##ggie
swahili
greens
headphones
joins
popcorn
distraction
oppressed
oppression
photore
educators
pictured
pains
effectiveness
defenses
geographical
geographically
netra
locate
advised
excites
heartbreaking
resting
restored
restoring
objectives
classify
audition
fuller
experimented
calving
innocence
mills
essex
diffusion
diffuse
neurotrans
microp
massage
viking
dealers
depicted
operators
elevation
sunglasses
directive
barber
silks
shortest
##ospace
401
404
cymat
specialize
consumes
microorganisms
coolest
##appropri
photographic
astounding
facade
psychotic
penny
ahmed
eyeball
##lux
turbo
arrival
parked
guesses
ecologist
policemen
progressively
periodic
expresses
logar
bedtime
salad
flux
panama
pancre
err
erotic
nugg
primal
##ophys
rainwater
varieties
captivity
princip
blindly
##opsies
thanksgiving
addresses
financed
continuity
ineffect
spectrosc
multiplied
angi
susie
1987
sweating
liberate
respects
determin
##vertently
mistrust
denis
dengue
broadway
sorrow
selecting
troubles
troubling
arabs
folder
integral
tradeoff
catches
methodology
controllers
enjoyment
masterpieces
motivates
surrounds
popularity
toughness
garment
mortal
strengthen
adaptable
naj
naghma
tasting
cheapest
##legic
hosts
wiser
merge
originals
recovering
mosques
##after
habitable
discou
tours
taped
hypert
rebels
horrified
conductive
mitigate
freshwater
frustrations
queue
##ennial
pilgr
migrated
migrants
cognitively
grabbing
orchard
pillar
tickle
hillside
perceiving
isolate
iii
insurg
analogous
declare
commandment
initiate
initiated
senator
impressions
lengths
cartoonists
overwhelmingly
1957
absorbs
ceremon
##world
charts
1947
disson
pipelines
pianist
licensed
implementation
criticize
nesting
coordinates
casually
ashley
memorize
bells
hyperbol
seduction
knocking
anonymity
minorities
regeneration
decreased
eliminating
spirituality
leapf
pacemaker
devastation
intentionally
accumulating
chiefs
gamers
adjusted
purchased
simultaneous
binds
pandora
coaches
brutality
dynamically
punched
whiskey
leaned
crews
branching
highlighted
stripes
screws
enterprises
osama
approxim
patches
butterfly
filmmaking
gears
hawaiian
chambers
perpetual
magnetism
palestinians
vitro
solely
microphones
prosecutors
chefs
ducks
savage
synchrony
nerdy
blinking
1920s
temporarily
spills
disparity
unleashed
saturated
tactile
deposit
whistlebl
exceedingly
illuminate
patriot
vividly
lifelike
empathize
incarcerated
slightest
counseling
yoga
insecurity
spawn
pesticide
trumpet
sympath
drifting
priests
stalin
shaman
sacrifices
scandal
inertia
intestine
austin
nazi
expenditure
betrayal
hominid
biblical
bumblebee
brigades
slippery
nanoparticles
wavelengths
lettuce
prophet
granddaughter
mortgage
unrelated
hockey
seafood
counterparts
matthew
eagle
treadmill
skyscrapers
bageye
rachel
##minster
mellon
sprawl
amusement
stewardship
biomimicry
landfill
insignificant
fictional
mcgowan
nickname
annoyed
miniaturization
supernova
holocaust
palliative
malaysia
johannes
arthritis
ikea
mismatch
vodka
scissors
maltese
peripheral
giraffe
senegal
trespass
##eastern
inadvertently
##isciplinary
enhancing
leymah
minnesota
neurotransm
cymatics
##appropriate
pancreas
550
73
aires
bion
bour
bury
bake
cis
cds
cush
dc
dk
dizzy
eul
eames
fel
ferm
gem
gren
grove
gaming
hc
hives
hann
jn
jpl
jars
jug
kios
kicking
latter
lyn
lumin
mbi
nud
nash
oun
pes
ply
pant
pong
porous
pardon
rider
ropes
ryan
tm
tat
tides
ticking
vets
yak
##cur
##oard
##oster
##mit
##manship
##lon
##lit
##ii
##iencies
##schild
##ao
##aires
##bish
##burn
##eous
##rates
##gery
##din
##town
##tically
##tics
##fo
##wall
##watch
##wired
##12
##kh
##xter
##zweil
thula
theat
##erana
##inform
##atis
##outh
##inge
toe
##esian
##onte
inuit
inappropriate
##orth
##aline
italians
##icidal
begging
beads
isis
ree
##oteric
##stock
##etine
onboard
hail
sofa
##ayer
##ghetti
stark
stared
stitch
stero
stigm
##urf
foragers
##opies
##amy
##itha
goof
abdu
heath
heats
##race
chk
chores
thereafter
fridge
exos
exxon
##estial
deah
dexter
orwell
procrast
conve
conco
##ignt
##igious
maze
alley
##ista
##ifiable
usb
knots
knitting
tril
##inda
outlet
outreach
spans
spoon
##ods
##oder
##usc
envelop
##andan
someplace
imitation
##ogical
intract
introspect
unman
takers
levers
##action
timely
pert
perimeter
nov
quar
query
quoted
prism
##agra
##agne
feyn
agnostic
apprent
twitch
righteous
reset
overboard
poised
diseng
imped
implies
impover
backing
callig
##ensible
##bererana
phases
specially
acron
adverse
daytime
scatter
scram
scoot
brighter
committing
ideally
mayors
##phem
incra
humane
drift
##ilever
remot
invari
builder
carving
cargo
carriage
bases
gloss
highs
insulation
boiled
transce
transgress
imaged
personnel
fucking
understandable
bitch
polish
storycor
##pecies
slap
musk
engra
extensively
recurs
waterborne
seren
attain
grapp
grazing
repurp
capit
skirt
hardworking
##awning
holl
handing
handic
companions
walt
speculate
speculative
cleveland
governing
videot
curv
swarm
swoll
signaling
##nec
joking
##virus
marble
distill
##iovascular
autopsy
##idding
paints
propos
devised
devoid
exclusion
objection
objectively
paycheck
treats
tedster
killers
norse
norwe
langley
crappy
##getown
arche
retinal
retouch
harming
harriet
frontiers
esc
neuro
neurologist
missiles
messed
raj
complexities
##atorium
bravery
provocative
demons
maths
sunshine
sensual
pickle
silently
violate
violently
traded
sentenced
##ipper
embod
fished
cybor
multimed
doctrine
specialty
malware
travelers
tembererana
evolutionarily
considerable
considerably
slows
convict
replica
impacting
burnt
richness
firemen
psychotherapy
droplet
floats
seriousness
pollinate
polluting
pollinators
campfire
promotion
prominent
competitions
snack
textures
stranded
guessing
webcam
pathogen
daisy
fundamentalists
variants
necessity
prints
##strom
interval
blinded
crossword
lowering
skyro
wastewater
participated
##ikh
kilow
annih
banjo
synag
synonymous
uncles
donald
centralized
losers
budrus
homer
175
cardiovascular
titled
hurting
liberties
concerning
forgetting
positioning
trickster
##pole
240
haircut
tvs
simplified
mammalian
inventory
utilize
1979
1974
davis
smelled
branded
nanny
nanometers
mouaz
switching
cruc
transmitting
indiana
##renched
adaptability
invisibility
ancestral
bloggers
rotting
rotten
boundless
faiths
mason
paintbrush
indicated
indicator
attracting
therapists
cosmetic
spotlight
clicked
grasslands
fellowship
documentation
summers
rewarding
bombings
dialect
metaphorical
murm
brightest
reinv
witnesses
sophia
navy
stimulating
sights
splash
investigated
rowing
shrunk
browne
polarized
contractor
establishing
kicks
referring
ensuring
colonize
concentrating
attachment
preferred
dragline
swedes
bathed
bushes
semantic
venue
scarf
pedal
chapters
casting
converts
mathematica
jails
regarding
idealism
formerly
clinicians
nursery
titanium
biochem
pinnacle
millennials
premier
vocational
seductive
spokes
algorithmic
hubs
rabbits
earthquakes
fertilize
litigation
extremists
rebuilt
accumulation
bagh
gamble
troy
instantaneously
aerospace
smoothly
crafted
grandpa
stunned
anthropologist
champagne
aggression
consulting
dwind
fractals
oliver
nicole
disappointment
dictator
##rofoam
sandwiches
osm
obliv
pirated
ruler
limbic
resonate
owl
puppets
busted
accenture
incorrect
varying
nutritional
fetuses
sponsors
sponsored
decoration
decorative
democratization
omn
gyre
gyrus
redwoods
constitutional
inflate
embryos
exercising
synchronize
battling
outbreaks
miniature
georgetown
prolific
transcendent
accomplishments
ipods
disparities
divorced
spraying
subtract
immersive
mozamb
comprehend
unwilling
resurrect
bmi
gifted
exceeds
papaya
ribbon
wrestle
cochrane
illuminating
gorilla
imitating
styles
styrofoam
acknowledging
auction
kuwa
rusty
scheduled
gadget
lyric
lynch
kidnapping
admittedly
dreadful
outdoors
spaghetti
exporting
avoided
reckless
sovereignt
greeting
blueprints
advertisements
nathaniel
exquisitely
seamlessly
undermine
interdependent
underpin
rouge
compensation
symbiosis
##birth
##birds
anthony
extrater
prevailing
psychiatrist
psychiatrists
ceramics
kurzweil
rampant
relocated
anchor
beheading
paraphr
cortical
reluctant
patrick
menstruation
plummet
provinces
turbines
turbulent
displacement
odysseus
altruism
pragmatic
disagreement
centrifuge
inconvenient
fetched
anomaly
hurdles
ddt
diana
gabrie
valentine
traumatized
celestial
appetite
paranoid
apocaly
miraculous
perseverance
handwriting
breeze
proximity
pendulum
coercion
douglas
precursor
gospel
intertwined
bookstore
burglar
portfolio
declaration
schwarzschild
bryan
mitchell
shenzhen
emperor
messenger
deputy
antiretroviral
dimitri
utilitarian
mauritius
chernobyl
piazz
sarajev
atrocities
teapot
buenos
monastery
hypertension
hyperbolic
stigmat
feynman
impoverished
acronym
invariably
storycorps
swollen
multimedia
sarajevo
79
750
aar
aversion
bum
bast
bred
bise
bapt
cures
cels
dup
dung
eis
eure
eel
fist
faded
git
gir
gill
gord
gav
ht
h1
hive
ian
iphones
ibra
js
jee
kas
kate
kaz
kiva
kahn
len
lud
latt
louds
mul
mik
naught
oo
ome
oculus
ping
pots
pony
sid
sous
saus
sdr
uru
vamp
wat
xia
yr
yin
yam
yum
##cart
##ozo
##mel
##mite
##ho
##hry
##hire
##hots
##hift
##bu
##bust
##rit
##rice
##rals
##riction
##nah
##nett
##gd
##gated
##ti
##taking
##ya
##uated
##uper
##fathers
##fran
##wright
##women
##ventional
##ón
theaters
##atars
##oul
##oubted
tore
##esium
##onts
inanimate
##arin
##aspor
##icular
beams
##sea
##utans
##utious
reiter
##eto
##entals
##entiful
##ldom
stumble
##uri
##urg
##urations
##urities
##idote
doom
dove
forged
goo
seb
seated
seldom
abuses
moh
##olo
##adata
canary
canals
nev
shines
shave
shaky
coma
comics
chand
frown
frater
##ilk
##iler
##ulas
##ulars
##ulators
##ulatory
deception
oral
oranges
##eard
##eart
proc
prover
conn
##igue
##umn
maize
albe
algeria
##iferation
usc
tru
tran
trance
trunks
outper
outlets
sponge
spouses
spikes
##unity
uptake
plentiful
thinker
intens
intake
sund
compuls
sagan
veins
vendor
uncont
unbear
uncondition
tapped
legged
manually
expo
##abl
##abs
amid
amel
##itte
clam
clerk
interplay
resume
reserved
overt
##ipes
startling
dislike
impuls
impunity
loaf
lobes
##aco
##ensitive
phi
gothic
##assic
adren
bloss
blaz
desks
undergo
humorous
bets
scaven
brist
brass
grids
##forms
inclined
floss
floren
##obal
##arks
##aki
cautious
##iley
##yses
remn
##angled
invites
foam
##text
oposs
helm
##avored
transcrib
monk
powering
solomon
slot
striving
median
engulf
finances
completing
metadata
nato
questionna
computations
crest
creations
crease
biking
biopsy
changer
elvis
capill
generators
skier
hardwired
hovering
possession
reassem
suppression
processors
infilt
infamous
futur
coumar
probable
socialism
halt
energies
additive
greg
sociologists
socioe
marking
charities
detained
detached
forens
autumn
researched
cheek
prophe
propelled
defy
brent
geology
gehry
milan
advise
advising
restrain
restriction
diaspor
##insky
hundredth
tedgl
lineage
##berspace
risking
assay
assaul
pasting
calibr
retention
avatars
collects
collectors
clearer
esg
esoteric
neurom
micron
##icultural
provider
delivers
delusion
hypo
edition
antidote
predisp
pottery
extracellular
sunset
communicated
plea
pleur
technologically
interacts
fearless
pickup
accessing
sentient
sentiment
chemo
apert
summed
embed
illino
cyril
cyberspace
microc
microse
buyer
causal
183
fundamentals
analyses
predictive
medicinal
purse
northeastern
volatile
conversion
rocky
##omething
##ometric
terminator
polling
reductions
aha
competence
modernity
snipp
mainland
strap
galvan
typeface
awak
mobilized
epit
epoch
progressed
sonar
sonic
sonny
balances
starlight
logically
seller
telegraph
activating
bedrock
salvation
magnify
##loid
panicked
lifting
dangerously
nuanced
connectedness
##exist
captive
zeroes
##strip
gradual
doorstep
crises
blinds
contextual
conflicting
riders
separately
skycar
bombers
##ika
kilo
hopkins
##etheart
synapse
synesth
launches
debates
thrill
spectacle
influencing
weights
homeland
angola
lawsuits
1988
sweater
sweetheart
ranks
liberating
quantify
geneva
plasticity
responders
latitude
scrip
hydroph
doubts
utah
utilities
utopia
destroys
mutilation
mutilated
1972
1977
nanometer
tripled
gatherer
standardized
##belts
malarious
1967
1969
pigmented
lacked
hangers
orgasm
membership
analytics
##guard
trafficking
blended
teeny
hosting
ambient
##ambra
blogosphere
rotated
faithful
mascul
cloudy
accelerator
chicks
ventilated
rebound
horribly
exhibits
appealed
dominating
melan
layered
candles
illustrations
breathed
bonnet
mystical
substances
commitments
witnessing
courtroom
drying
sprout
stresses
limitless
investigations
fossilized
seatbelts
removes
polarity
proteomics
aspen
complaint
congressional
silkworm
qualitative
semester
consistency
undoubted
thinner
welcoming
oddly
explosive
interpersonal
shooter
absorbing
1940s
dissip
dissolve
stretches
cleverly
dedication
pakistani
##monary
scratching
scratched
loudly
wiki
exploited
##ymph
rockett
pumped
casset
diplomats
virgins
advocating
##imentary
recomb
cornell
hooks
screamed
disrupted
diagrams
reframe
nutritious
julius
neutr
derive
pulmonary
thermo
thermost
bullsh
aspirin
digitize
digitized
recommended
binding
scholarships
##keeping
conceived
bribery
fracture
jamie
wrapping
neatly
boredom
censored
hindi
lobb
currencies
delightful
gangs
theoretically
incomp
umbre
tempting
comedian
outsider
requested
athletic
dilemmas
addictive
synthesized
jarrett
buckminster
scraping
ominous
buffett
prescriptions
radiologists
hybrids
antennas
inflated
redefining
contamination
contaminate
bumping
1929
yemeni
proliferation
suspicion
dye
subsidies
amygd
amplify
deposited
preacher
digestive
papua
ribs
editorial
tunisian
recipient
recipients
dentist
doodle
carrots
recreational
patriarch
beeps
buzzing
underestimated
carpool
1908
benchmark
whispering
beetles
empathetic
hints
offend
cdc
dubai
enriched
atheists
oysters
orthopedic
advertisement
allev
fleeing
gelatin
blooms
apex
juris
regulatory
oscill
rudder
rudimentary
subsequently
squeaks
interdependence
smuggled
brainstorming
strangeness
tyranny
bachel
slammed
copernican
astrolabe
heterosexual
depletion
intimidating
747
gossip
poachers
barbaric
##fluid
reunited
tenderness
carcinogens
sergey
sergeant
template
fascination
taxpayers
gluten
cellulose
shirley
delegation
tectonic
cocoon
embarked
gaga
seizure
homosexuality
trafficked
diabetic
eyebrows
rebellion
superintelligence
arousal
lanka
laura
##lamation
rearrange
charismatic
geopolitical
skydiving
beverly
enslaved
legitimacy
fmri
mongolia
abraham
exoplanets
conversely
plumbing
discontin
barbecue
fireworks
aerodynamic
eduardo
alhambra
desalination
##coccus
dataset
uranium
plutocrats
pascal
reintrodu
phthalates
crutches
logarithm
denisov
pilgrim
steroids
exoske
intractable
introspection
holland
norwegian
embodiment
skyrocket
mozambique
kuwait
bisexual
celsius
eureka
h1n1
ibrahim
loudspe
##ozoic
albeit
impulses
florence
coumarin
socioeconomic
diaspora
tedglobal
illinois
05
650
aj
aun
bb
baking
bounds
baked
cada
db
dice
dated
durable
eject
eri
eruption
fitted
fused
gs
gould
gasses
gowan
hd
hos
jog
kang
kism
kites
lich
lumber
lymph
mour
nk
nad
nudge
puddle
qur
ral
ration
ruth
sistine
são
tet
tay
tense
tying
ul
vase
wakes
wretched
yach
zen
zoe
##cumb
##mad
##mac
##mob
##mons
##minder
##muddin
##milk
##pad
##len
##lain
##lav
##lene
##lider
##sl
##hu
##ais
##bas
##eer
##rot
##nation
##gic
##gate
##gone
##gles
##gling
##dad
##yer
##yles
##uch
##uke
##western
##vantage
##kar
##kirts
##jour
thorn
##atra
##oufl
##reet
andes
tori
##eses
##oni
##any
inaug
##isk
##iser
itch
whirl
##llan
beac
istan
##sein
reapp
reintegr
##otal
sopr
staged
steth
stutter
##idated
dos
doable
##chs
##chu
forbes
##ceived
liability
##oponte
##roads
sean
seab
moan
mosc
heb
hend
##olocation
##adors
canoe
negr
shah
churn
##illas
fry
frances
frantically
##ante
##ilization
exem
exterior
myri
somali
peac
pelv
cone
conor
##igor
##uma
##istas
##ifier
usher
tray
outraged
spoo
spade
enlar
upstairs
uplif
pluck
imbalance
##icha
##emaker
suicidal
compression
sacks
unl
unions
unice
unav
unites
unreg
##ouring
leib
leaked
leuke
##reates
manchester
expenses
##anson
quin
##abric
launder
laureates
##acey
agon
appall
preca
coh
cob
cof
cove
coating
twain
clan
claw
clinging
newf
inters
interrel
##uda
##uded
anyhow
##aching
mucus
overre
overhear
startups
##iah
buckets
##owness
lovers
##acre
##acency
phara
littlebits
##assium
idiots
desired
undergoing
daycare
brus
brine
commemor
differentiated
##cock
downside
emits
##plants
flung
flapping
smack
smiled
childbirth
remake
carc
glide
glued
glenn
helvet
endure
insides
transdu
translu
crane
thoughtful
consort
beforehand
monologues
turnar
playwright
terence
solitude
pointless
##beans
##erger
mediate
mediated
meteor
##atched
crev
105
farthest
biome
repaired
skim
organizer
projector
stux
possum
proton
handled
handheld
subord
substr
inflection
booking
internship
timesc
runway
halved
##uese
curate
airlines
redd
bestsell
swo
swings
passages
passport
camels
camoufl
stuffed
marital
distortion
waving
parabol
parole
confess
confinement
businessman
autos
casey
listing
makeshift
magically
devi
devils
succumb
testify
testament
testoster
ordering
classification
tedious
filament
##bras
conduc
drake
craving
calf
retaining
toolbox
##rowing
teamed
neurop
##iculture
windsh
networked
brake
braking
hyster
demoral
revis
revive
stealth
potassium
sensibility
superf
lima
squish
typography
##retion
encaps
encoder
fishes
multid
movable
groundbreaking
malle
traveler
darkest
privately
nationalism
personalization
cameroon
postp
billboards
civics
##borough
184
replay
papercut
facet
psyched
immoral
shovel
termites
worthless
hunted
deadline
##luhan
snuck
textiles
lays
revolutionized
ecologically
tracker
domination
cleaners
definitive
damas
fluent
portug
magnesium
farmland
dana
tablets
dinners
closes
raining
admired
caption
skinny
graders
misuse
misinter
wasteful
participant
sequester
sampled
judy
afghans
loser
catar
buddy
homage
angu
palpable
climber
1981
heavier
geneticist
ranch
cooks
contributor
contributors
employers
ignite
translating
resisting
optimization
wealthier
arable
halluc
beatles
electrified
sadd
saddam
doubles
opposing
##otype
1978
customization
mountaintop
petrol
hussein
comforting
alternate
1962
applicable
pigments
egos
##ofi
##guay
blending
hostage
torso
wiscons
credits
snowfl
chimp
safest
madness
dominance
melodies
marty
bandura
linus
puzzled
sculptor
breathtaking
bombard
punctu
rounded
dials
dialog
disputes
gapminder
migrating
claiming
##castle
splitting
gallons
incentiv
hungarian
coward
cowboy
aspiring
resourceful
220
##holder
unsur
exchanging
exchanged
cyberatt
consumerism
permits
illegally
##locked
undes
unders
venues
mcn
mcluhan
converge
repairability
islamist
hawk
pinker
fischer
vanishing
1948
1949
dissolved
acquiring
fragility
zeit
uncommon
unexpectedly
constitutes
mandatory
pharmacy
ridicule
ashes
disciplinary
dusty
sediments
lifestyles
advancement
anonymously
flashlight
breeders
rabb
jerk
stacking
railroad
sinister
##blood
deriv
##raphy
kisses
##toplankton
tragedies
purchases
recommendations
attributed
paradoxically
fulfilled
unheard
dwell
fractures
wraps
skeptics
nicer
nickel
hindsight
##ilitating
sparks
persuaded
persuasive
writings
highlights
saltwater
ellen
degrading
trajectories
settling
immunization
owens
owning
sewers
buttermilk
outskirts
lifesaver
ignorant
configurations
updated
updates
schematic
chainsaw
democratized
michelle
nominate
##waves
dismay
stereotypical
eucl
inflamm
unfolded
borne
karl
nerds
columbus
tweeting
gratification
stimuli
mildness
khmer
echoes
unleash
immersion
microns
contested
cruelty
munitions
##charged
illumination
numerical
napkin
strawberry
tenths
franch
franken
buddhism
evaporate
hopelessness
chatting
exaggeration
deprived
inserted
interconnectedness
psychoan
preceding
precedent
advisers
craftsmanship
woolly
wandered
allocate
spherical
interpreted
turkish
reclaiming
cannon
cannib
postcard
bernard
cynical
jurassic
jamaican
granny
gloomy
mindfulness
weaknesses
dismissed
ovarian
shredded
savannah
disadvantage
technician
densities
stamps
interrupted
greedy
portrayed
sabbath
moonshot
brainstorms
tinkering
uncharted
recurring
cpu
orangutans
2025
proportions
exclude
hominids
hijacked
vivian
humpback
cranial
viewpoints
nanoparticle
plunge
fiercely
livelihoods
bipolar
taxpayer
disproportionately
lentils
haunted
peanut
peanuts
relieved
predominantly
tapestries
911
tadpole
feasible
reliability
admiration
reverberation
pronounced
lolcats
plausible
quartz
crammed
bargain
recyclable
pajamas
micrornas
orthodox
disadvantaged
bunker
enforced
intoler
unconventional
amphib
monarchs
mediocre
curtains
privatization
firefighter
biodegradable
aisle
faulty
mp3
segregated
evangelical
phytoplankton
hispanic
extrapolate
conventions
practitioners
fragrance
havoc
persecution
ampute
brochure
hierarchical
boulder
daunting
eeg
ezra
rezero
coconut
overestimate
phantom
monopoly
cheeks
prehistoric
jirga
wholesale
simpson
photorecept
microprocess
ineffective
najmuddin
plywood
goofy
calligraphy
capitol
curvature
synagogue
baghdad
oblivious
sovereignty
paraphrase
gabriel
uruguay
nevada
adrenaline
neuromod
undoubtedly
thermostat
bullshit
incompatible
umbrella
bachelor
logarithmic
pilgrimage
gowanus
kismet
quran
ralph
taylor
moscow
negroponte
leukemia
precaution
pharaoh
helvetica
testosterone
conducive
windshield
portuguese
hallucination
wisconsin
aa
aah
bau
bess
bount
baff
biped
cing
ces
cess
cites
dess
dus
dich
dang
dared
ditch
fs
fay
fidd
fern
fuses
gast
hary
hating
haters
iow
jit
jum
kath
kitten
kaf
kalu
lid
lav
mound
nt
nas
nfl
ost
pest
pork
pyth
roth
rhe
rounds
ripe
rivals
suther
tant
tumbling
vern
venom
wang
wiping
yay
yus
yep
##card
##ocial
##mi
##master
##pent
##pill
##lave
##saw
##block
##eel
##rd
##run
##rise
##note
##gassum
##daf
##tp
##tar
##tag
##track
##upp
##frost
##kill
##kens
##kash
##xit
##xley
##zers
##just
thai
theor
##inis
##inid
##inos
##atross
##atomic
andre
tod
torah
tokens
##enberg
##anor
inh
##orum
##alitarian
##arn
##omatic
weld
whol
whites
whipped
##icorn
##lev
beers
isn
##utable
recharge
##otine
##etal
##etery
onion
##gham
stats
stares
stacey
doo
##cha
##chief
##vern
forums
lig
livable
##terol
anew
anarchy
##amer
##amel
segments
##than
##thia
neo
shaming
shalt
shorth
atroph
noting
meerk
chatter
choles
chased
theresa
##illery
fries
##gel
##geist
##gellan
##ustion
##esty
##estones
della
dehuman
procla
peps
peering
cong
##umental
##artic
magellan
alban
alberto
tramp
trophy
trinid
tel
teem
##inkling
spit
spun
spook
spins
spiel
##unken
##osaurus
##ieber
upw
##ando
plight
plains
plumes
##ivores
##elin
##apolis
sup
sufi
sao
vend
veiled
unm
unpr
unatt
unsc
whichever
taker
leop
leaps
leaking
manic
hass
perma
evol
evoke
nozz
quir
##abel
willie
feud
aglo
whereby
coil
coins
##ilding
amira
ammun
clon
claud
newcastle
interm
wellness
resol
reside
overc
overs
oversight
poking
polym
##ipers
##ipher
discer
buoy
impract
impatient
##quet
##rypt
lovel
##aculture
##bergh
##bergs
robe
contempt
adore
adorable
bliss
blush
desic
deserved
descart
humbled
takeoff
scored
scrap
bride
brits
##coher
doesn
grilled
##ickers
##inted
mayan
##ishable
emulate
showers
##forming
incap
incidence
flatter
smashed
##obot
drastically
persists
##ysomething
decou
simulating
remod
reminis
experient
guild
##onsider
caric
cargill
gland
glance
glider
glove
relating
reliance
endow
insu
booms
bollywood
monog
monuments
monumental
powerless
polo
terabytes
artillery
solic
solvable
sliding
slipping
modifying
huxley
recline
reconsider
watering
sermons
serpent
okapi
attic
grail
readings
elon
##aley
skate
hardy
lesser
warner
warps
possessions
secondhand
millionth
healthiest
handbags
suppressed
supplement
dolls
homeown
numbered
subatomic
infring
infused
mindsets
publis
energized
curl
curing
patroll
airborne
connectomes
funn
swat
headset
headwind
##derabad
marx
detach
momentous
oppose
oppress
waiter
parody
photoc
robbed
billionth
lateral
defensive
brewing
brexit
leveled
geoff
bothers
untie
excite
equitable
##ocurren
##pective
##insula
increment
refusing
nighttime
territories
filtered
##onduct
craz
closets
calves
retract
collector
teammates
harmed
clearance
miller
millig
successive
holder
holders
neurologic
motives
##ucker
misses
viagra
brace
marketed
hype
hyderabad
demos
universality
anton
normality
directing
sensations
freest
freaked
barcode
interactivity
silos
accessibility
dreamt
##umped
presses
eyesight
sentiments
squat
squad
squatter
identifies
icebergs
performs
multicultural
transforms
perfected
microfluid
nationality
seaweed
sourcing
causality
eaters
1850
coloring
destit
cools
coping
experimenter
experimentally
vacations
volv
astroph
burger
burrow
hospice
peninsula
shove
estonia
##arring
plantations
dropout
termin
combustion
civilized
pollute
polluted
camping
promot
promoted
##luent
snails
villagers
googlers
awa
critique
furious
furby
parker
pathetic
balk
starve
logos
logged
capitalists
boyc
telep
salute
fluke
ports
##eteries
erased
diner
closeness
fundamentalist
##ophilia
peacefully
gradients
divinity
##uitous
waitress
laborers
dependency
separates
miser
misinform
councils
wildly
births
banal
detects
packet
financing
sandstone
positively
donating
debating
tenure
tung
135
respectable
##repared
employer
insecticides
deng
denying
dennis
resisted
latent
boarding
gunshot
yelling
banging
nationwide
smelly
smelling
branding
sectarian
malarial
1963
austral
crux
egalitarian
rooster
shocks
conditioned
adaptations
tasty
bleep
blogger
foreigners
masa
grandmaster
librarians
diagnosing
tourn
constructions
tapes
bubbling
hypers
installing
counteract
shelters
dominican
implicated
illustrator
sculpting
bonuses
ratios
##linear
courtesy
janitors
piloted
vibrio
advertise
gayla
microscopes
octave
hiking
contracting
dieting
asperger
##graded
ruby
rubbish
tailed
displaying
exchanges
##doch
prayed
antibody
encourages
pedag
rationality
chaplain
explosives
##glass
1954
idealistic
thicker
transferring
navigating
megacity
smiley
glacial
bathing
dedicate
dotcom
fabricated
dressing
licenses
pinch
commenting
ridiculously
tweak
fifths
stanley
milkweed
unprepared
skulls
gigawatts
dignified
wingspan
macint
julie
juliet
railways
vitality
bosses
overlapping
molded
murderer
dereg
abandoning
recruiting
filtering
scripture
gandh
pandemics
protesting
##uddled
manifesto
boliv
boltz
bursts
philanthropic
deafness
censor
disappointing
dictate
sparked
persuasion
reconstructing
sargassum
paved
bathrooms
immunized
akin
aggregates
rodent
uploading
uniforms
discriminate
puppies
propagate
synthesizing
synthesizer
bucky
decorated
schemes
unconsciously
democratize
distinguished
nomadic
reverb
harnessing
harnessed
stereotype
scaffolds
creeping
albatross
evelyn
forecasting
victoria
voyager
retreating
vaccinate
conquered
subtit
subsidy
warehouses
deposits
draining
shoreline
preaching
adultery
incorporated
surreal
redesigning
cryptography
cryptocurren
vicinity
fluctuation
jenipher
manta
acoustics
diarrheal
libyan
delayed
altering
icelandic
gaddaf
pcbs
offenders
reversing
reversal
exaggerate
dilig
merged
morphed
archaeological
blockchains
undertaking
escaping
lindbergh
##space
allocation
greeted
contemplate
contemplating
championship
taboos
pessimism
alleged
prescribed
fulfillment
tidy
pluto
sheriff
twentysomething
courtship
linguistic
shackleton
defects
outlook
ott
cylinders
appointment
contagion
undermining
1858
diminishing
zooming
mangrove
slaughtered
unchanged
grinding
irrespons
irrespective
lucas
lagoon
emancip
sanctity
wagner
##broken
iterations
reshap
reshape
overdose
suppressing
redundant
pissed
ranked
ripple
ripples
##volta
staple
plunged
bloomberg
lettuces
terrace
granddad
templates
jealousy
mortgages
anatomical
marginalized
cemetery
cemeteries
intermediate
humiliated
enclosure
pavement
disseminate
indulge
paleontologists
botanical
podium
mosses
uninhab
residual
excavate
petroleum
tapestry
compliant
compliance
bundle
opponent
opponents
misconception
juxtaposition
enrolled
amputation
landmines
balconies
rooftops
rectangular
inconsistent
cedar
nuns
syllab
courtyard
corpus
kickstarter
voicem
gwen
minto
sponges
mansion
hashtag
arrogant
detergent
secrecy
suspension
epidemiologists
administered
eternity
rifle
rewrite
disemb
impairment
blueto
artisanal
complementary
eyewitness
constellations
indefinitely
salamander
fantasies
outsourcing
gilbert
kittens
rattling
ankle
amoeba
relentless
monstrous
attentive
superpowers
scrutiny
mitochondrial
semiconduct
prairie
toothpaste
laparoscopic
therapeutic
caterpill
jabbar
alfred
nugget
insurgency
fermi
hannah
ounce
##urfing
dexterity
scooter
videotape
extraterrestrial
gordon
sousa
aperture
microseconds
amygdala
jurisd
istanbul
exempl
myriad
unicef
brussels
transducer
stuxnet
substrate
superficial
misinterpre
anguish
psychoanaly
dessert
dichotomy
haryana
iowa
kafka
kaluza
yusor
wholeness
shorthand
meerkats
cholesterol
pepsi
trinidad
permafrost
agloe
ammunition
impractical
descartes
experiential
publisher
astrophys
misinformation
boltzmann
gaddafi
bluetooth
averse
bale
berm
bodied
bisc
cb
dak
daring
eer
eiff
eaves
fitt
fiddle
fanc
gc
gin
gom
gust
ginger
hart
hast
hott
hips
jl
jk
jess
jong
jav
km
ket
kale
kash
karen
krill
kofi
ld
lor
lush
lbs
mute
ni
nn
nood
noun
ore
oily
pam
punk
paus
rf
rale
rapt
rangers
rca
ses
sap
sine
sult
sari
tata
ue
wy
wur
wishing
xero
zur
zap
zapp
##catch
##overs
##mail
##pits
##lie
##lace
##iere
##harm
##aç
##afe
##avers
##bies
##bows
##nour
##niz
##galy
##tails
##yards
##uci
##uber
##far
##fires
##with
##vian
##visions
##15
##kina
##xing
##xed
##xig
##zac
##jet
thal
thames
##ercuss
##erset
##inav
##atons
##real
##reate
##ington
##eny
##encer
##enium
##esi
##onary
##onaut
##anth
##anity
inver
inland
inverse
inversion
incoher
##orously
##edience
##itic
##itations
##aro
##armed
##asthan
whack
##icent
##lexic
begs
beaver
##oween
##uters
rebox
##otected
##stan
##station
oneness
##ctus
socr
stove
stroll
##idian
fork
wasps
##opular
ans
##ereal
##imal
arenas
##aman
##amins
##aun
##roves
gogh
abusing
butch
whatnot
molly
hew
healed
ascend
##aders
cane
canon
cance
canning
necr
shaved
shaba
shimmer
shanty
##rand
mend
ches
chor
chill
chlor
##illusion
allan
alliances
##ilating
##eston
##ulu
##ulian
##oosh
dele
degrade
deformed
somerset
progen
proactive
prozac
pew
peeling
peasant
consec
concussion
macar
##iesthood
alger
alps
alma
alvin
##ifs
##ifada
trim
tease
justified
outstanding
spor
sparse
##una
##usp
ench
ensh
##osa
##ainted
immer
intifada
wouldn
##apest
supers
sachs
una
unload
unifying
unilever
unarmed
tac
taj
lend
lease
workplaces
mango
percol
evils
noon
quake
quarks
quorum
prud
priesthood
##abar
laureate
willful
feces
prelim
cole
coff
coales
cobal
coeur
ammon
amnest
twirl
clark
cloning
aral
arid
residence
muck
mubar
overe
overr
overly
overst
poign
ponds
##ipse
startup
disin
disas
dissection
disillusion
##owned
backbone
kinda
lotus
acrome
evenly
ade
adams
lifeblood
##iba
underb
underdog
underworld
betting
synt
scor
brittle
grit
grie
grips
downstream
##ishn
employing
comeback
##akable
##aths
coli
coloss
afterlife
percentile
##order
invol
invading
focal
opec
gloom
##tych
relied
helen
endorse
boll
booming
bonded
transitions
transcripts
transplants
considers
mono
monolithic
kend
politely
famines
believers
##pend
##peech
slid
sliver
sliced
modifications
modalities
stripping
stroman
traced
##otho
203
hugh
hugs
sorted
completion
waterproof
metall
questionable
cres
102
momma
explodes
biography
repercuss
##grown
##grades
economical
skied
organically
warmed
warned
formulas
subd
earthly
coup
accus
regards
futureless
##author
halve
energizing
curaç
patagon
airb
airstream
leftover
funky
swims
swinging
camel
amazes
##ronics
marin
marco
marbles
charm
detrim
oppressive
menus
photon
forefront
businesspeople
billionaire
##prising
costumes
painters
propri
geodes
memetics
##ilton
continental
mori
##oculars
restroom
1500
wrongs
increments
refres
treaties
tedwomen
audible
audacity
territor
filthy
##bright
##riarch
issuing
freezes
crave
calam
retrovir
retinas
viewers
teamwork
harris
trainer
protections
motive
motel
babe
euro
collars
colliding
circus
revital
antic
antique
sung
bottlene
barric
recorder
majors
interacted
limp
fearful
silenced
shorts
shortcom
violations
lows
trades
sentencing
squaw
squirt
oils
123
doctrines
specialization
malala
tempo
microbi
keyboards
presently
convuls
circulate
circulatory
armpits
destab
ballroom
risked
medicare
roadside
purity
##hea
volt
volts
drawers
burkina
paperwork
conversational
urch
psychologically
rocking
situated
knowledgeable
plantation
mornings
combinator
softly
ahmad
promotes
competed
modernism
texted
straps
galactic
googled
awry
epoxy
honors
soundscape
ecl
webl
policeman
pathogenic
progressing
benefic
driveway
philips
philharm
balinese
logs
statues
activates
bedside
salaries
fluids
fluctus
magnified
ernest
##ophist
faiza
##iaries
complication
tomb
gradient
sangham
fingern
collaborated
sleeps
##olese
ethos
misle
misused
carts
annan
annually
sameness
sampling
judicial
pund
raping
britann
faso
pageant
afforded
debilitating
spectral
budapest
innovating
initiation
angular
fitz
randy
palazz
hurdy
##metry
environmentalists
mentioning
libert
respecting
##repres
stems
translators
celebratory
broadc
latino
latrine
boardroom
verd
##shh
##shell
swimmer
halloween
##clair
explores
infrastructures
bangs
randomized
muti
darn
midair
benz
tong
davinia
fueling
customized
triplet
gatherers
motivational
demonstrates
bagg
fatigue
symbolized
austrian
lacking
hangs
transmitter
iraqis
graduating
wiret
seeded
correctness
fashionable
blender
bleak
harmless
hosted
repeats
merry
cosmet
##ibrill
breadth
juicy
snowboard
masse
masons
##afric
discard
breastfe
renov
appreciating
proust
joystick
preview
departure
defeating
locker
madison
lucy
martine
documentaries
freshman
avoidance
intellectually
divergent
punct
metaphorically
mystic
dispose
brightness
brilliantly
towels
piled
submerg
volunteering
matriarch
pursued
shrine
removal
orchids
contractions
contractors
conservationists
koreans
mediums
##ylon
enslave
colonization
spinosaurus
lesotho
dragons
weakest
extracts
unsus
confronting
abstractions
permit
consisted
seniors
marched
unknow
mentoring
holidays
shadi
##ogenous
rugged
rufus
repairing
encouragement
estimation
ipcc
clocks
driverless
electrochemical
electrolux
absorption
vanished
megaf
megacities
1940
##criptions
attendant
horizons
beeh
cubs
tackled
wirelessly
criticizing
mandarin
clustering
tentacles
prakash
knocks
cocktails
##quez
dirigible
anticipating
decreases
decreasing
pretended
sucking
1932
prosthesis
fertilized
fertilization
sinclair
##blance
delicacy
intentioned
bossy
baob
outputs
rwandan
murderers
recommendation
instantaneous
ferry
conceit
brutally
paleo
bursting
philanthropists
hemlock
encountering
enhances
poisoned
poisonous
emphasized
sailors
deliberation
elegantly
arrowheads
binoculars
sinking
acidification
gracefully
patchwork
1915
infantry
tempted
observable
observatory
correspondence
cabinets
ivo
ivy
widow
widening
comedians
introverted
brunel
irrevers
diesel
trivia
composers
compositions
accents
bouncy
fetal
meltdown
montreal
warrant
vitamins
whitney
bangladeshi
schizophrenic
cliffs
buffet
insisting
awkwardness
janeiro
stakeholders
dismant
nurtured
eugen
savior
inflatable
redefined
exercised
synchronized
boris
borough
##lasma
gratifying
rehabilit
orphans
induce
fostered
cultivating
retreated
epiphy
sprayed
voter
telecoms
rosie
tactical
legends
amyloid
amplified
depositing
crooked
kinect
ribbons
gloria
nightmares
cryptic
dentists
goro
blurred
patriarchy
penetration
conveniently
jenny
stuntman
porch
presumption
hydrant
prospects
acknowledgment
dvds
correlated
prostitutes
unreal
morphology
jacob
##engineering
undertake
undergraduates
moderator
adviser
summarized
craftsmen
380
recklessness
interpreter
interpreting
advertisers
championships
tibetan
pauling
disclose
supercomputers
enthusiast
kleiber
niches
tidying
reassure
superstars
imperfections
syringes
cafes
illiteracy
snapshots
submersibles
rumor
##ophobic
complaints
hologram
nyu
conjunction
fleeting
mccain
shameless
coherence
restorative
diminished
colonialism
duality
scandinav
smugglers
tyrann
ambassadors
dorothy
gurdy
compensate
repetition
legislators
nazis
prohibition
caregiver
excluded
submarines
pheromone
bumblebees
poaching
reconnecting
constituency
bjk
gymnos
rags
resigned
pediatrician
bipart
uneasy
disproportionate
ehud
shattering
provincial
shortcuts
turbine
odyssey
bailout
carnival
petrochemical
stockpile
inheritance
municipal
bingo
notorious
notoriously
feasibility
prestigious
scribble
reliably
tremor
nikola
transgendered
ecstatic
ecstasy
balcony
rooftop
rectangles
reciprocal
kerr
nagging
thighs
sobering
downsides
perpetrator
byproducts
bodily
preconceived
phosph
virulence
serendipity
denominator
utero
golfer
nostalgia
clunky
metastases
autobiographical
antidepressants
freespeech
squirrel
frostb
sirens
ornith
archetype
vertebrates
taxonomy
adventurous
neurosurgeon
preoccupied
bimetal
truffles
quieter
clogged
metamorph
principals
spectroscopy
ceremonies
dissonance
approximation
sympathetic
neurotransmitters
abduct
apprentice
remoteness
engraved
rajasthan
cyborg
lattice
sebast
uncontroll
unbearable
opossum
questionnaire
capillary
forensic
prophecy
hypocr
pleurobot
cassette
patriarchal
reappear
soprano
stethoscope
pelvis
unregulated
leibniz
newfound
biomechan
bestseller
revisit
cataract
unsurprising
cyberattacks
zeitgeist
rabbis
franchise
intolerance
photoreceptors
dusk
jitney
sutherland
vernacular
congolese
teeming
unprotected
clonie
reminiscent
insufficient
macintosh
uninhabited
eiffel
eavesdrop
fanciful
hottest
paused
raleigh
sultan
zurich
reboxetine
shabaab
consecutive
enshr
immerse
preliminary
cobalt
amnesty
mubarak
acromegaly
repercussions
curaçao
detrimental
geodesic
shortcomings
philharmonic
sanghamitra
britannica
palazzo
gymnosophist
06
69
az
ale
aph
aided
alec
azer
bs
bers
berg
baz
bins
bows
cog
cite
cited
cusp
ding
dah
dives
domes
euth
fren
ferg
fiss
fats
fero
fission
fuss
fading
giver
gail
gert
hilar
hik
hiber
ix
jm
jb
jd
jy
jol
jake
kp
kant
kun
kub
kool
kerm
keral
ketch
kurd
lc
ls
lb
lan
lut
lod
lame
latch
lanc
loren
ming
mam
malth
mps
mime
midden
nab
nope
nix
nino
nbc
nieces
nylon
oars
oste
pd
paw
punt
ras
rut
rory
rash
ripping
rosal
sq
sans
scent
sane
sizable
tents
tile
taps
tina
tamp
udo
vain
vint
vatic
vouch
vila
wack
yor
yose
yug
zin
##cro
##oise
##okes
##map
##pm
##pse
##pies
##pans
##paper
##ports
##layer
##sf
##ships
##hd
##hel
##haust
##aways
##bound
##belt
##bai
##eers
##eger
##rarian
##non
##nought
##gun
##game
##gens
##girl
##gium
##tub
##ui
##uz
##uos
##uclear
##wig
##woman
##vitation
##khar
##zn
##jans
##jac
##erb
##erin
##erting
##erals
##inness
##atlant
##atari
##ounder
##rend
anders
inks
inference
inhal
##orig
##orie
##alm
##alach
##isel
##ispect
##itan
##itized
##arking
thatcher
##ompe
weary
##asabar
whims
##icse
##llies
##llah
bends
begged
##utt
reen
rebo
##stop
##etime
##etto
##etta
habe
haird
haze
hapless
##lda
sod
soaring
sovi
stained
stellar
##urry
##idly
##chen
##chemy
forage
forger
##opith
##opters
##terdam
ana
##imi
##amis
##aux
##auna
##roids
gov
seized
abe
aboard
butler
mog
mooc
heap
heals
ascent
canine
shin
shun
atoll
atkins
##rax
##rawn
##raging
notices
chag
chaz
allerg
allah
friv
fringes
##anti
##ilo
##ilizes
excel
exuber
mycor
##estro
deed
depl
##earten
proct
prosc
peaked
cones
conject
conced
##iguous
##arty
maine
maced
maestro
ifafric
alm
alp
alib
alto
alchemy
##istical
##istingu
##ifi
##ifics
knot
knives
truce
tep
outst
outline
outset
outcast
##inkles
spacing
spawning
##eryl
##unci
seeks
##usiness
enron
enigma
engender
##osia
##osures
plume
bycatch
actress
imb
##ivir
##elah
##inee
unison
unset
unaff
uninter
unicorn
thanking
mann
hasbro
perch
perverse
percussion
perplex
exported
nostr
quoting
queries
prere
primes
pruss
priced
##oreact
##agency
##agram
agrib
agony
agrarian
appalach
coaster
coats
afar
twists
cling
clone
newer
interc
interst
interplan
interagency
arno
##acher
sheila
sheikh
overp
overcon
##ipur
##ipel
disres
disli
discharge
lofa
backside
backdrop
##pty
phob
roam
roaring
speck
aden
adage
idle
blake
desolate
##centric
lifecode
undersea
humbly
betty
syrians
hertz
manya
indra
indistingu
scots
bras
downward
ideologies
incur
incoming
incisions
flop
flaps
flips
flakes
flaming
smog
smash
smashing
techno
##obe
##arko
factions
thankful
humanistic
dries
drip
cavity
persian
childcare
remorse
wrath
wrinkle
wrinkles
##redit
guill
carac
carriers
foil
belts
belgium
obi
obstruct
glaz
understate
imported
##wey
crony
examination
fuk
conscient
monoc
kew
kev
##ailing
himba
turnover
biting
playbook
termed
slack
slings
slash
sludge
modem
##moil
stray
strad
traitor
hugging
sorting
extras
recal
serb
fourteen
okin
creed
103
informs
grands
gravey
gravitation
bios
biennial
repel
repressive
elit
##gras
hardened
stuart
##awasabar
hover
warlord
spacex
visa
handouts
##perse
supplements
openings
entries
infuse
infancy
speculated
specifics
futile
runners
runaway
coupling
couste
presume
##crow
##crop
accusing
registers
mindless
probabilities
socialize
halves
curled
setbacks
airbag
airbags
airstrip
funerals
teachings
swift
grease
soundtrack
headlights
joan
##viruses
popul
amazement
roommate
marc
martha
distrust
deton
eyel
wonderland
waits
paroch
shareholders
confuci
robbing
robicse
topography
##prom
profane
badge
##resence
props
propane
propellers
deflation
geys
milestone
milestones
untold
untapped
devotion
virally
##manuel
locust
exclamation
moratorium
newsroom
##ocard
##ocene
##versive
##pecting
restruct
diapers
155
1000
trending
refining
refresh
referend
objectivity
constants
treatable
##pshire
materiality
filing
condes
killings
individuality
crafting
housework
archer
archipel
calorie
retrain
retrof
aviv
greenville
stephan
neurology
raft
caulif
caucas
##mingham
provoke
depiction
marketers
marketplaces
demob
demise
grandk
approve
varies
variant
posing
antig
antiox
stev
fieldwork
expects
eleanor
extracur
sunk
sunscreen
sensational
superv
supernatural
freaks
barking
barbed
barcel
technologist
legos
majesty
limiting
silences
accessories
optically
essays
squash
birmingham
embell
multispect
malcol
malicious
breakup
totality
microfin
sourced
postage
##boys
responsibly
circling
##ending
verses
copep
predictor
replaces
volant
richards
benevol
fireman
urged
psychosis
shoved
esther
##arried
##ometry
pollock
pollinating
campers
emergencies
favorable
blockage
blockbust
villain
turmoil
arrays
typewriter
babylon
skillful
mobilizing
mobilization
honoring
benefiting
starry
starters
starfish
damp
damages
telephony
sala
chancell
virtuos
portions
generalization
lifeless
receivers
##ophony
peacekeepers
##string
tending
hospitality
divisions
coldest
sanction
crisp
accepts
dependencies
misdi
##zeiro
goldman
goldberg
annum
annie
sequel
sams
samar
##ethical
packard
packages
pups
##ucted
impossibility
victories
affordability
debated
##iptical
thrilling
spectra
145
tenuous
tenfold
multiplayer
homogene
palo
palette
palimps
climbs
reminding
occurrence
urbanism
reflections
radioactivity
positioned
cooker
insecticide
ignores
narration
moonlight
denny
dennett
##rorism
vera
hells
utilizing
emailing
mutants
darling
nutshell
jeep
nanot
triptych
motivator
tumble
housed
petr
husk
additionally
1966
australians
pigment
sickness
supplying
cruzeiro
brotherhood
preventive
photovolta
fashions
cooperating
strengthening
battered
harmon
coffeehouse
torto
##oko
rotterdam
snowball
##afel
chimneys
renamed
kenyans
hyperson
safari
accelerators
accelerometer
defec
cosmological
falafel
exhibited
appeals
grasshop
vulnerabilities
sculptural
summoned
bombarded
roundab
dialed
murders
##market
##iffs
dispens
dispatch
hampshire
sophom
sprung
sprinkle
prototyped
valuing
valuation
migrations
pacing
churchill
lunches
lunchtime
thirst
thirsty
darwinism
radicalized
essentials
microscopy
rowed
loading
octahedron
orchid
finishes
circumference
pillow
hungary
complacency
##security
spinner
rubik
rubbing
tailored
partnered
preferably
##habi
weakened
minimally
unsuc
##coma
stupidity
shutter
bathtub
glamor
cybersecurity
containment
kitchens
commanders
occupations
230
scariest
inevitability
holmes
comparative
cartooning
caste
mcque
##break
surfers
inequity
bowling
1953
negotiated
alexis
fiscal
michaela
navigated
megawatts
##cription
lectur
rigged
drilled
washes
deployments
##monuclear
##structure
biomark
fabrics
fabrication
dishon
dishearten
weighing
downloads
plateau
densely
memorized
virginity
fiery
millennial
unpaid
unpopular
premium
spiderman
catheter
##rosis
clarke
parallels
wingsuit
transplantation
elimination
##oshima
1930
1939
prostheses
rails
capsules
extremist
furnace
365
trol
troop
thermonuclear
chocolates
plotting
adjusting
yielded
digitization
protestant
aquaculture
pounding
salesman
jonah
wisely
consultation
consultants
jammed
externalities
renderings
entropica
spectacularly
280
dictated
##organized
##organism
selam
publishers
marrying
paralyzing
boldly
elegance
spelled
reductionist
elliptical
rulers
graceful
confirms
umar
resonates
1912
auguste
sewer
outsiders
ethiopian
aggregated
lifespans
astonishingly
rodents
malls
velcro
disgrace
tattooed
bouncing
warranty
stomachs
junkies
blessings
artworks
dyslexic
snapped
sporting
creek
tamil
inexhaust
unfolds
suspend
stabilized
bradley
squeezing
tweeted
nameless
gratuitous
assessing
sketching
vaginas
induction
tanzanian
coincident
sibling
subsidize
comprehension
unwanted
thresholds
drains
hansen
metropolis
accompanying
incorporating
kinetic
chewed
paramount
fragmentation
gorillas
recreation
dummy
dummies
resembles
straws
substitution
##creation
stadiums
franz
sabot
scalp
carlos
loosely
evaporated
evaporates
intervening
locomot
empathic
pulsing
exaggerated
extrovert
dreadnought
chopsticks
respiration
culpr
undertook
undertaken
treasury
hamburgers
##flyer
soybeans
asthmatic
electromagnet
kiteflyer
endeavors
fleece
calendars
reassuring
lebanese
lamps
wiggle
rehearse
hectare
steeped
cynthia
bosnian
rumors
cherry
cherish
cherished
precipit
adequately
granular
crocodiles
ovaries
inhibited
seamount
shreddies
plugging
singularity
cyclist
vested
reservations
flushed
decompiculture
cathedrals
durga
mangled
mangroves
underpins
dormant
dickinson
intestines
superheroes
symbiotic
lucifer
categorize
anthrax
##thalm
depleted
tractor
epileptic
mammograms
intimidation
bilateral
vectors
iterative
chords
brigade
depicting
sleeves
quadrant
quadrip
csf
hesitation
ravaged
disturbance
beasts
unreliable
quotas
##phorus
harassment
deteriorate
haunting
worldviews
swirling
turbulence
matthieu
paddle
kelp
siftables
delegate
outfit
reflexes
correctional
hurdle
sneakerheads
municipalities
erupting
gmt
seizures
levitation
prestige
sniffing
narcissistic
pivotal
aptly
aaaaa
hiroshima
nailed
tusks
abolish
actuators
cliché
interconnections
trawling
retrieve
bargaining
obligations
microrna
crowdsource
disadvantages
bunny
razor
cantor
compartmental
unveil
courtyards
perpetrators
voiceless
rejuvenation
hulk
weeping
mockingbird
spiky
spiked
interfering
phosphorus
gambling
nourish
xenophobia
stainless
unravel
unraveling
cohesion
cohesive
recapit
sprinting
quadruple
culmination
imprisoned
licklider
##ndez
pellets
contingency
adhesive
recreating
repository
handcuffed
positives
salvador
colonoscopy
spreadsheets
prolonged
gourmet
karajan
palsy
isotopes
abdomen
outpouring
plagued
amenable
##akhstan
attenborough
eloquently
lightbulbs
protagonists
leapfrog
whistleblowers
grenade
kiosk
lynn
nashville
perturb
disengage
glossy
proposals
escort
convictions
kilowatt
crucified
biochemistry
dwindling
lyrics
aaron
gavage
http
kazakhstan
naughty
sdrs
vampire
xiaoping
fraternal
tranqu
unconditional
amidst
blossom
futuristic
markings
restraints
microcredit
synesthesia
alleviate
denisovans
exoskeleton
loudspeaker
aunts
jogging
yacht
thorny
whirlwind
hebrew
peacock
cofounded
coveted
overheard
consortium
malleable
papercutting
damascus
martyr
underside
rhex
spooky
spielberg
vendors
discern
freestyle
telepresence
australopith
hyperscore
bolivia
twentysomethings
irresponsible
fittest
jessica
wurman
##nourished
incoherent
ansari
algerian
unaids
ammonia
adept
underbelly
colossal
patagonia
territorial
beneficiaries
breastfeeding
submerged
unsuspecting
sebastian
enshrined
azerbai
berserk
fergus
ferocious
kerala
ketchup
lancet
malthus
vatican
yosemite
soviets
frivol
mycorrh
proscenium
ifafricawasabar
unsett
agribusiness
interplanetary
overconf
indistinguishable
cousteau
parochial
robicsek
referendum
caulifl
antioxid
extracurric
barcelona
multispectral
malcolm
microfinance
misdiagn
unsuccess
mcqueen
inexhaustible
azerbaijan
51
81
aka
aphor
bif
bidding
cg
cody
cather
cbs
cze
dart
dong
daw
dime
dhar
dotted
dhabi
ek
ere
ephem
ful
fild
favored
g8
gul
hm
hog
hose
hides
huddled
jop
jub
jude
junction
kw
kand
kard
kru
kines
kern
kipp
kik
lm
lis
lac
lak
lah
loun
md
mite
mounds
nou
nim
nach
nint
nak
nipp
olu
pg
pou
pact
pint
pars
poth
pash
pax
porter
psa
rar
rim
rook
rack
rated
ridd
ridden
rationally
reneg
sj
sut
sally
sig
sided
ting
tse
tumb
trench
uz
vow
vib
vortex
vora
wade
wines
wield
wrench
wicked
y2
yun
yuck
zet
zach
zipping
zucker
##cé
##cuous
##oks
##mur
##mir
##mount
##made
##mouth
##pow
##pots
##poles
##pipes
##lr
##lad
##link
##lift
##iam
##iard
##iates
##iott
##sening
##hn
##hin
##hard
##hys
##hik
##hyth
##bill
##bath
##bread
##bler
##bench
##eb
##ecess
##elect
##rad
##rade
##rote
##rude
##gb
##gam
##gra
##dale
##tale
##tops
##unds
##uges
##wed
##was
##went
##wks
##wives
##vre
##vind
##kat
##kut
##kets
##jin
##jal
##jad
##jack
##ín
thom
##eras
##erun
##erated
##inqu
##aton
##atur
##ndt
##oulli
##regn
topp
topped
##enas
##enheim
##enza
##esco
##onna
##anz
##anse
##anim
inac
incess
inund
##ori
##alone
##alism
##alified
##isen
##isse
##iters
##arma
##omi
wei
weeds
##asia
whiz
##icist
##icia
##llular
bef
bez
beavers
ishi
##lys
##utz
##utilized
##vell
reared
revert
reforestation
rejo
regrow
##otam
##otry
##otics
##star
##still
##static
##staking
##eteen
ont
hacks
soar
sock
soak
soles
stool
stern
styl
##urch
##idt
##idious
dox
dock
##chw
##chat
##change
##cending
liar
lily
ligo
wasn
##opl
##opathy
##opotam
anore
angr
anarch
anterior
##imo
##imens
##impl
##imental
ares
##auc
##rod
seating
##thouse
##thought
abbre
abalone
mole
hein
heed
hege
heater
asc
##olon
##olens
nem
neal
nemo
shades
shedd
worsh
atrium
mecca
chir
chant
chel
chast
chene
chamb
chih
choked
chanting
choking
ally
allied
##ppe
##ilot
##ilight
##ilus
exac
mycop
##estion
##ulent
dewey
orkut
prod
prose
progn
conso
concess
connot
##umed
mahab
maggie
alia
aloud
alchem
almond
##istence
##istible
##ifference
knuck
tram
trinity
teasing
tewks
justness
##indrop
outwards
##inky
spur
spig
spart
spices
spying
##unal
##uned
##oshi
##oslav
upbr
upstream
upstate
uphill
upgraded
plumber
##ortical
##ainflu
timet
##emption
##apult
##inejad
suing
compiling
compulsive
saber
veg
##ameen
unab
unpl
unbe
unrest
unused
unesco
unanim
leash
leaven
workbench
##ousing
##izon
manly
manhood
manned
manju
pern
perry
evade
expanse
quint
quarant
fecal
prepo
preempt
coarse
coexist
didactic
amunds
twilight
clown
clones
claus
interiors
righting
##uding
arup
arisen
anyways
sheph
shekhar
resins
resides
mujah
overh
overhe
oversh
startled
disob
disperse
buc
imply
impass
impending
impregn
##ownst
looming
backse
backdo
backstage
backlit
##enson
pharma
acry
acuity
evenings
contamin
contours
adject
adhd
idios
bling
blip
blanc
lifeforms
underwent
underutilized
humong
herds
indifference
scaring
scold
scouts
broth
brides
commuting
##coaster
realms
grants
grameen
##ellant
downright
throughput
maya
##ishly
emble
emeral
eminent
emmanuel
showcase
genre
incision
flares
smitten
##nings
counties
thanked
humanly
humanize
caffe
##athed
colone
decoding
instagram
invas
invitations
guang
guinness
bash
##iousness
glaze
importing
helios
schm
schism
endured
endgame
inspected
insulating
insensitive
boast
brained
##avir
##avio
transient
transatlant
crus
crumbling
conserved
monro
monoch
monarchy
keene
playstation
##ertime
##ilyn
betterment
solvers
##pey
slo
slick
slipped
slugs
slowness
centre
traction
trails
meds
medically
meditate
cellar
hugged
placement
waterways
minne
fours
growers
##orks
bige
bioh
biopsies
repulsive
ela
capric
capitals
capgras
##grass
skis
skating
skirts
hardship
hoop
hoff
holly
warp
warcraft
coronary
handles
handker
supplied
##gerald
wales
walters
formally
formulate
entang
entrenched
sublim
##tenberg
animator
clement
runoff
##crity
accra
accuse
##ceros
regist
probes
socialization
##ractive
curable
curators
airtime
redirect
redeem
redemption
funk
funnel
swell
swapped
headrest
socio
sociable
##rones
marie
marian
marches
marilyn
charitable
wael
allowance
parable
parades
parano
parrot
parainflu
foreman
confines
conflu
confessed
standstill
robinson
billionaires
diseased
profic
figur
painstaking
propel
propensity
propellant
##ographies
geologically
gezi
secured
milton
publicity
sitcom
magna
deval
locality
testable
testified
discovers
morb
morals
hearted
##ocal
rests
restless
100th
refuses
landers
landlord
landlocked
constru
deepening
tedmed
materialistic
##bersome
filaments
entirety
blackboard
##brance
assurance
pastor
pastry
mustaches
archaic
##oyd
innocuous
investor
harp
harps
decidedly
parental
milly
successor
espress
radios
protectors
neurobi
raf
rake
rapp
raindrop
drucker
##ushed
bros
collusion
collateral
depot
delays
delusions
hyenas
eddy
eddie
revolving
antiqu
predecess
potty
suns
sunfl
sunrise
directory
oceanography
oceanographic
sexes
sexist
sexism
superb
supervision
superimp
communicators
freel
freeman
pleo
##lton
institutes
chemok
apathy
encro
encore
localized
##ippers
fishers
cystic
fallout
eventual
groundwater
robotically
mali
malé
temp
temes
darkly
footing
footnote
microbe
micrograph
severity
recognizable
nonhuman
winston
buyers
boxing
##inyl
originate
1800
1800s
religiosity
convol
circled
predictability
replies
roadblock
volta
drawer
burund
afflict
imminent
intelligently
electrically
penile
penises
pencils
##ometeor
combating
combines
indebted
concord
visualized
dimming
truthful
##parov
campuses
competitor
114
snout
snail
empowers
awfully
horrend
critter
honed
codex
ecosia
webpage
mechanistic
pathologist
conceptually
ledger
dai
##ounce
logistical
fairer
dams
televisions
salient
salman
panicking
panpsy
characterize
characterization
characterizes
accounted
nuance
democracyos
ladders
africanism
rained
captiv
intervals
wishful
grading
geront
geriatric
offerings
##books
stickers
fixes
diagonal
thousandfold
ethically
misconduct
skyline
carta
cartel
judd
synergy
rapes
docs
##yncr
continuation
donkey
debut
thrives
catapult
tenacious
tunes
appearances
distributes
multiplying
##scale
innovator
angst
automate
177
178
climates
cookbook
electronically
calculators
familiarity
celebrates
broaden
engagements
hairy
dogmas
verte
verizon
##shmi
##cloth
gunpow
mammary
doubted
yelled
surgically
utens
mutate
mutates
muttering
catcher
benches
nationally
customize
nanom
woodpe
mosaic
missionary
birdsong
petals
comfortably
tasked
alternating
vastness
1964
sicker
orde
ordinarily
mris
transmits
explorations
##affes
frankie
photojour
yellowfin
mixes
tribunal
rhode
forgery
analyst
naively
torval
merkel
metaphys
appreh
rotor
embraces
constructs
hypother
bearings
attracts
ventil
ventric
ventures
##preh
defecation
compares
horrors
madam
madame
conducts
accordingly
proudly
weirdly
melbour
melinda
martial
banding
hateful
pregnancies
sculpted
breathes
queues
summon
divert
diverge
diverged
fortunes
wheeler
##marked
dolby
hamas
hamlet
stationary
janine
##pheres
prosody
altitudes
vibrational
submission
maturity
caveat
seatbelt
gallup
octavio
circumc
athens
emptied
transitional
assistants
perceives
lesions
##rophobic
999
qualifications
elemental
##knownst
unsafe
augmentation
hurtling
hideous
undef
venge
eldest
hololens
##glomer
converging
interpenet
inequalities
##amento
shootings
islamists
overwhelm
1959
megabyte
megawatt
contempor
1946
rigor
dissert
dissidents
dissatis
pyg
internalized
biomaterial
fabricate
domesticated
wikile
uncomprom
fibrosis
coordinating
frameworks
streamlined
pitcher
disciplined
grasping
oxid
rejecting
triath
premises
premiere
siri
gigabytes
gigatons
sacramento
imperatives
advancements
golfing
regenerating
cracking
transplanting
leaping
blankets
boomer
frighten
maximizing
bfib
geniuses
1938
neutron
neutrin
seekers
shameful
molding
lunatic
##friends
bullying
jeffrey
aspirational
digitizing
elevate
irritating
330
expansive
luxur
fools
protested
collapsing
trailers
ferris
fermentation
shouted
coached
precogn
consulted
fractured
##ettos
skeptic
nineteen
improvising
improvised
whispers
persuading
triggering
giulian
sargas
certification
hippo
spells
persisted
exhaustive
buddies
elliott
watershed
incompreh
obliter
seventeenth
acidic
tubing
widen
necklace
introvert
aggregating
irredu
weddings
tonya
psychiatry
cigar
aristocracy
transmitters
bounces
bounced
inkjet
saun
saucer
saucers
scraped
scrappers
democratizing
dawned
revered
prosecuted
creeps
inexplic
insanely
deficits
brady
columbian
suburb
mimicry
battal
1928
absorbent
##rillo
proceeds
unintellig
khaled
manuals
cultivation
coincided
bruises
dyst
conquest
conquering
subtly
subsidized
choirs
amplitude
micrometeor
drained
beijerin
suffice
digestion
croat
wrestled
hazards
compounding
compounded
redesigned
parameter
dentistry
##seeable
doodles
anesthesi
imitated
validation
enhancement
napole
beeping
resemblance
carpent
1900s
encyclopedias
ladenism
whispered
kuzn
voila
facilitated
correlations
contradictory
offended
interdisciplinary
extroverted
retailer
retailers
counselor
dilute
dubbed
dublin
piero
chopped
enrichment
unreason
entitlement
archaeologist
obscured
culinary
jacqu
advisor
treasures
overlooking
foul
reckon
soybean
neocortical
meadows
maneuvers
bioflu
escalated
escalating
turkana
cumbersome
anecdotes
anecdotal
insults
insulted
misunderstanding
triumphs
bernoulli
cmus
plutocracy
hollowed
reinforces
scarcely
imperfection
alberta
idiotic
bloop
vincent
wizards
precipitation
regulators
philippe
catastrophes
inhibit
cyclone
cyclists
thrusters
mesmer
descending
narcotics
sacrificing
administrator
zooms
inquire
choreographer
tyrannos
cheetos
maneuverable
guru
imprint
irresistible
rhinoviruses
rhinoceros
merciful
categorized
legislative
horns
prohibited
remembrance
condemning
exhilaration
juveniles
hijab
dwarfs
confirmation
hedon
hedge
tobago
slippers
millisecond
barbaria
implicitly
paragraphs
arbitrarily
hoover
reunion
perfume
carcinogenic
metronomes
paraplegic
equatorial
fascism
eagerly
hitchhik
quotation
intermediary
humiliation
harassed
enclosed
cycled
rollercoaster
neurosurgery
prematurely
sulfuric
oncologist
consolation
mistakenly
counterpart
pragmat
paleontologist
inconvenience
bailouts
eagles
gruesome
stagnant
tectonics
residue
genitalium
affirmation
affirmative
reservoirs
skyscraper
pistols
tadpoles
starches
contraption
psychopaths
psychopathic
pronounce
nodded
nikol
trolls
rewilding
cliche
traffickers
eyebrow
obliged
crowdsourcing
lemonade
superintelligent
asymmetric
mckin
shaft
plurality
intolerable
unveiling
clutching
sledge
mediocrity
obsessive
sincerely
congregation
spears
preconceptions
arrogance
muffin
detergents
virulent
cardiologist
suspense
merchant
thermodyn
duplicate
serendipitous
gnh
tutoring
splend
disguise
scoop
scrub
scrubs
inflicted
autobiography
demolished
antidepressant
bankruptcy
imprisonment
hotspot
contingent
smoky
crippled
repositories
handcuffs
robbery
blindfolded
multipotentialite
multipotentialites
colonoscopies
cascade
sneezing
subscribers
spreadsheet
pseudo
dazzling
paternity
crummy
ahmedabad
deterministic
tradeoffs
spawned
cushions
luminous
pesa
yakima
heathrow
concoction
unmanned
quarries
serenity
grappling
dialects
subtracting
apocalypse
piazza
dupont
giraffes
jeez
kasparov
omega
sausages
##franch
intensified
compulsively
helmets
awakening
scripted
masculinity
dissipate
lobbied
reintroduce
cadaver
erik
ulcer
uplifting
plucked
laundering
agonizing
appalling
interspecies
translucent
turnaround
swoop
camouflage
saddest
snowflake
incentivize
undesirable
fischeri
inflammation
frankenstein
microprocessor
bounty
cingulate
dangling
gastron
claudia
oversimpl
desiccation
incapable
remodeling
homeowner
geoffrey
incrementally
antonio
destitute
volvo
balkans
miserably
deregulation
gandhian
subtitles
emancipation
disembodied
jurisdiction
bermuda
biscuits
dakota
gcse
gombe
kettle
kashmir
xerox
invertebr
socrates
progeny
involuntary
bollocks
metallic
subdiv
accusation
proprietary
refreshing
bottleneck
ahmadinejad
fingernails
pundits
fitzgerald
libertarian
broadcasters
megafauna
baobab
irreversible
eugenics
epiphytes
bipartisan
biomechanics
unsurprisingly
gertrude
kermit
luton
nixon
yugoslav
##original
habeus
alpine
arnold
flamingos
extrasolar
graveyard
swiftly
archipelago
stephanie
caucasus
grandkids
volantor
samaritan
hypersonic
sophomore
disgraceful
coincidentally
dreadnoughtus
quadriplegic
ferguson
frivolous
cauliflower
unsuccessful
catherine
czech
fulbright
fildes
joplin
kardash
lounge
nintend
uzbe
voracious
y2k
yunus
##imensional
shedding
cheney
chambal
exacerb
mycoplasma
prognosis
console
tewksbury
upbringing
unbeknownst
preposter
shephelah
idiosyncr
minneapolis
handkerchief
paranoia
parainfluenza
superimposed
horrendous
panpsych
gunpowder
photojournal
torvalds
melbourne
neutrinos
giuliani
sargasso
beijerinck
kuznets
01
4sh
5th
7th
aol
aus
aero
avert
aicha
bates
bism
bison
bieber
ck
cay
colog
cuck
cogs
cuis
dé
dand
dors
dred
daph
drenched
ew
eater
erection
ejac
fn
fang
filt
fades
fudge
fonts
gist
grou
gated
gell
ganes
gathers
giac
hic
hod
hale
hinges
ik
ips
iuc
jó
jin
jere
jans
jell
kt
kf
kig
kart
kare
kip
klud
kett
klan
lids
ml
mg
mow
mitt
morm
mish
mister
mta
mashed
mowing
nir
nause
nif
nie
nile
naut
nont
naser
oke
ooo
oph
oath
olf
oats
olson
pv
pont
pouch
pto
pune
piling
pests
paren
pagan
panting
ponies
rp
rin
rie
rans
rik
rube
rosy
ranged
sr
sist
sain
sigh
sash
sarko
tir
tau
tart
tame
tud
tms
tren
tund
tbl
tmm
tighter
tinted
uf
uav
uae
vs
vom
vil
vial
vander
viper
vistas
ww
wit
witch
wards
waging
wester
www
xdr
yu
yod
yap
yves
yew
yank
za
zull
zipper
##cated
##oine
##oia
##oves
##ococcus
##mor
##mic
##mith
##mens
##making
##mund
##park
##pret
##lest
##long
##lia
##lists
##lash
##loy
##liction
##lining
##lasting
##iree
##sky
##slist
##hs
##hun
##hav
##hake
##holes
##haus
##hoe
##aj
##aad
##aise
##ajo
##bere
##bil
##bos
##bab
##bility
##bott
##bels
##bumps
##ean
##ehyd
##rig
##rall
##rick
##rons
##rings
##rma
##rays
##nb
##nic
##nister
##gown
##gang
##gger
##des
##dled
##tct
##tun
##tel
##table
##yk
##yar
##yll
##yme
##uities
##uating
##ucc
##ueless
##fs
##fter
##fir
##fied
##frey
##forks
##29
##2nd
##wire
##wife
##wered
##vold
##vana
##kc
##kary
##kheim
##killed
##xus
##zbo
##joice
##jold
##92
thy
thief
thrones
theology
##erity
##erick
##erative
##inar
##atal
##atol
##atility
##rem
##rex
##ingale
androm
androids
tol
toen
toon
##enfranch
##anam
##anny
##anmar
invert
inbox
inhuman
inactivity
##orical
##oria
##orient
##orbit
##alle
##alogy
##edes
##iscus
##itud
##itars
##itimate
##ituary
##itiveness
##itiba
##aroo
##arag
##ombo
##omorph
##omatol
weas
itun
ituri
whim
whining
##icer
##icul
##icrous
bew
bead
beak
isabel
##owon
##utu
rend
reich
rete
reused
rejoice
##sten
##sted
##stering
##ete
##etize
##ettes
soho
##ayers
sto
stif
stale
stumbling
##uron
##idences
##idency
doyle
##chment
forge
forager
liken
livers
wastes
##opically
##opulation
##oprene
##optery
##oppable
##terrorism
anag
##irm
##iram
##iration
##imer
##roy
##roir
##roducing
goering
gobble
seism
seash
seams
seoul
abus
abiding
abrupt
abrah
moi
mond
hezbo
##adij
canv
canned
canaries
cancell
neh
nept
necks
nemat
shill
shard
shiver
shaw
shaker
sheryl
atac
atms
##raib
notable
notably
notwith
meld
meyer
meeger
chen
chit
chass
choke
chests
allosphere
fris
fronts
##gendor
exo
##usted
myhr
myspace
myanmar
dend
depp
deform
decept
deme
debor
dehyd
deworm
deploying
somber
procreation
peg
peck
pebble
conan
##igated
##igmas
mae
maf
maver
maim
macc
##ights
##ighty
##ighted
##atee
alum
aless
alois
alicia
##essential
usain
trit
truss
teased
justification
##allows
outhouse
spencer
##unking
##odor
##odops
##usi
encr
##osé
##osynth
upro
upris
upgrades
uplift
##anders
##andise
plaz
##hertz
##orting
everlasting
##ivism
##ogly
intensively
timed
timothy
##elian
##elbr
##emis
##emade
##empor
##emakers
##embour
##apolog
suv
suction
suited
compiler
sag
sailed
unans
unmo
uniqu
unify
unjust
unauthor
unethical
unapolog
tactic
leans
lending
levin
workings
##izal
wayne
mansh
perv
perasa
evans
evicted
evocative
noir
quix
quota
pran
prow
prick
prius
priy
##abes
##agu
willy
willpower
##aceous
##aceans
feast
agar
agility
pref
precar
##ongru
coils
cobras
ami
amd
amass
ample
amusing
amorph
otherness
twinkling
clad
claps
clump
clueless
newark
newman
interchange
##uds
arb
arman
arbor
arias
arsen
##achi
overth
overtime
oversee
overtake
overflow
poked
parting
partisan
disab
disqu
discharged
disenfranch
buggy
bujold
##quart
##icellular
locks
backst
##pta
##ensibly
##berger
phon
phoned
kinder
kindle
spele
contend
adored
blat
bled
blond
bluff
##ibu
##ibble
humberto
synec
##rup
herc
hered
herbs
herald
indis
inducted
scree
scoring
brim
brightly
branson
differentiation
##coal
grise
grier
grump
gripping
##rainment
downwards
mayo
##ishna
##phen
emerson
##placed
genie
inca
incongru
flas
flog
flare
flatt
flushing
smoked
##lectic
bigotry
humanism
drunken
##akac
cajal
persp
doings
colombo
decap
decimal
earle
earring
builders
guise
gugg
guga
guitars
gupta
caro
carb
carot
carbo
carmen
caramel
carrillo
fostering
learnt
obedience
obituary
longitude
basing
##ressing
glial
glaring
glows
glitter
imports
##ublished
helices
##week
endings
creatives
insure
insulate
insula
brainpower
brainwaves
##aval
##avened
imagenet
crate
crib
fuzz
monte
monaco
turnout
polished
terroir
artemis
solids
pointy
stillness
sloven
modality
modulation
centen
centella
strata
stromatol
##othe
medi
meditating
engages
huff
extens
recite
recuper
waterfront
watercol
watermarks
watermel
##issy
##issive
metic
natives
minaret
##azi
##azard
farc
farmed
fargo
faraway
attuned
informing
graft
graze
bioc
biologic
repression
repulsion
changers
eliot
elsa
lively
generals
generational
hardcore
hoist
warms
possessed
busiest
corros
visibly
visitor
handbag
handmade
supplier
waldo
wallets
homegrown
formid
formations
formulation
formald
entrainment
subl
subversive
singles
info
infusion
booked
animators
earthlings
internally
clears
clearest
presidency
##crime
registry
musica
governs
grouping
socialized
##racted
curly
curitiba
airflow
valence
valde
##wheel
citywide
swapt
swipe
swells
heady
headsc
headphone
cams
joel
joys
joked
beginner
marcel
chartered
charcoal
##vironment
meniscus
waff
para
parse
parik
parchment
shareholder
foreplay
livingston
reasoned
typh
tyler
autodes
roboc
educator
cheats
cheesy
topso
profiling
##meal
defibrill
##medic
geosp
geologic
geolocation
milieu
publications
devout
locke
locav
continual
heartache
heartbreak
equate
dipped
158
refere
objectification
paypal
nightgown
nightingale
30th
filip
blacks
condor
condensed
assim
pasta
pasteur
##rika
individualized
archival
##oya
retal
harms
harvey
harrowing
greener
greenery
succession
escapes
radiate
motts
motifs
babble
raid
racially
##ushima
brooks
collage
braver
brandon
brahm
provisions
provoked
marketer
hyowon
grandeur
grandfathers
edgar
edmund
revival
antith
antivir
antoine
##iquette
stef
cutter
cutaway
mathare
sunfish
sunni
sunburn
oceanic
##luded
supervis
superstring
superorganism
bottled
communicable
communicative
freer
freight
barrice
recorders
instituted
interactively
liminal
fearing
picket
silhou
shorten
accessed
cultured
wallpaper
optional
lowers
sentin
squint
chemosynth
apoph
servicing
sumness
ills
multif
multicellular
fallibility
malfunction
malnourished
malibu
breaker
tembere
darkened
personalize
argues
keyhole
nonstop
postsec
postmod
resourced
civility
##boats
considerations
181
convulsion
circa
circulated
ballistics
ballpark
versatile
##appy
emotive
replen
streetlights
burton
burhan
carson
256
facs
facit
hospitable
firewood
urging
bookshel
psychic
rocked
affil
affluent
affliction
unfil
trusts
ache
shoveling
##ometti
droplets
visualizations
civilizational
relegate
ahhh
promisc
modernist
##luid
115
snipers
galen
googling
layering
epa
guesswork
achievable
honk
soundscapes
eclectic
progresses
hotdog
safeguard
periodically
##ounced
songwriter
starter
starved
loggers
definite
fairies
damned
telecon
salon
salty
salts
visionaries
magnifying
magnetically
functionally
generalized
panor
flowed
eras
##aptic
efficiencies
accountant
accountants
primacy
##eeee
rainbows
admissions
tarmac
tasking
negatives
crisper
blinding
conflicted
secretive
collaborations
sleepy
fleets
misn
misf
misch
misgu
miscar
misplaced
infects
infecting
cartography
cartesian
wildest
spirited
graphite
specificity
specifications
doctoral
banning
banner
bannister
gasp
gasps
detectable
synaptic
introduces
##cientific
uncons
uncanny
affords
ineffic
throne
thrived
christine
christina
spectr
spectator
spectators
catac
tenor
tenets
tenacity
effortlessly
innovated
homemade
randi
titans
phenomenally
remarks
132
##zzie
fascinates
2100
genealogy
translations
denver
denies
calculates
custod
heroism
optimists
optimized
latte
latitudes
latrines
wealthiest
##semble
dogma
boarded
aravind
verified
##shed
contentious
hallmarks
kenobi
matchers
##class
beatrice
hydrop
sadistic
inventive
banged
etiquette
usefulness
midway
prepaid
beno
tones
1971
davos
purposeful
##ecahedron
tensile
taxation
husky
1961
egot
agreeing
seedlings
corrective
corrections
fabulously
garages
rhyme
totalitarian
mortar
roost
shockingly
conditioner
dramas
##guards
doublet
mouthful
bleach
ambitions
torped
##untarily
bulky
foreigner
credited
pleasing
bounded
snowy
masking
discs
discord
discreet
renowned
diagnoses
touring
succeeds
hydrostatic
coalitions
indications
departed
ghast
ghettos
ghraib
churning
lockhe
madd
maddie
romans
sculpey
counterfe
cosmologists
cosmologist
routines
dominion
melod
symmetric
illustrating
breaths
queer
summertime
bonkers
ratan
bombay
replicates
replacements
ode
odors
dispense
disposed
disprove
towering
reinter
reinner
axe
novelist
navid
navajo
liquids
##hiking
sprink
sprinter
philosophically
submissions
professionalized
migratory
advertised
splits
splashes
matty
investigators
radicalization
gardener
gardeners
crimer
crimin
dietary
cowards
##burst
ensured
assistive
jewels
isolating
explanatory
springing
primeval
minimizing
feedbacks
225
unspe
unskilled
insurmount
declines
shuts
bathe
heightened
permitted
consisting
illegitimate
purest
commanding
occupational
undiscover
undifferent
reforming
reformers
venereal
scarlet
observers
lengthy
powell
shady
chapman
chaplin
comparatively
castro
mcmur
ruining
inequities
reproduced
electrogram
1956
1958
1955
idealized
poof
vanish
##ucated
meggendor
1941
cleverer
contrasted
bioengineering
##offs
youthful
mimi
mimicked
zeal
zebra
zoomed
implementing
exploiting
pinwheel
bayesian
duties
constitute
criticisms
mandelbr
injections
injectors
borderless
arresting
diploma
pitches
pitchforks
anxiously
deceive
deceived
memorizing
afternoons
horsepower
fanatic
unpublished
renewed
prav
praised
spiderwe
hyperactive
hyperactivity
alienation
alienated
cathartic
rhythmic
seduce
criminalize
##henes
breeds
transplanted
pmtct
disrupting
rabin
concerted
railroads
##blad
325
bobby
kissed
pours
overlay
overlaps
##ausible
manifests
lunar
##falls
##viated
flora
floral
geometrical
adjustments
yielding
regretted
elevators
##cribed
controversies
confidently
luxembour
aeros
aeronaut
fooling
hatz
ferr
ferrof
ferdin
tankers
stunted
convened
romeo
conceivable
aggressively
bribing
guarantees
cottage
jamming
olig
##dinger
##written
##writers
philanthropist
institutionalized
shadowy
refrigerated
nicest
nicotine
nicarag
sulfates
chronically
cambrian
hindus
emphasizing
emphasizes
stripe
enterprising
hippies
hippocr
##rograph
oslo
oshea
approximate
smithson
tangles
evaluated
gladly
1919
shrinks
tsunamis
owed
sewing
argentine
nucleic
ukrain
restrictive
pitiful
rods
uniformly
physiologically
romanticized
aligning
composites
addictions
charleston
configured
propagating
mysteriously
updating
##zanne
sponsorship
leonard
buckle
screenshot
bedrooms
erica
scraps
scrapper
relaxing
omg
parliamentary
prosecutions
selfishness
radiating
radiologist
wheelchairs
unhappiness
eukary
mtv
tamara
albums
formalized
deficiency
karma
karnat
forecasts
bumpy
bumped
namaste
##hearted
congested
revolt
mildly
inferences
prolifer
proceeding
corrupted
olympus
khadij
hemispheres
aristotelian
dyston
warden
unleashing
subtraction
hobbes
rethinking
amplifying
suffoc
playfulness
geeky
wolfgang
glorified
swallowing
velocities
tiburon
##enhower
remixing
numerically
apologies
jenesis
tolls
underestim
strawberries
bertrand
picchu
picquart
wormwood
1903
buddhas
rusted
instructional
schedules
facilitators
conceptualize
correlates
distinguishes
exaggerating
blasting
blasted
articulated
orphaned
orphanages
materially
maternity
merger
piercing
enriching
slogans
respirator
archaeoptery
psychoactive
authoritarianism
atheism
preceded
implausible
committees
advisory
craigslist
verbally
tornado
cassava
jfk
##anasia
allocated
unstoppable
biofabric
contemplative
igf
igbo
cannab
flocks
flocked
prescribing
misunderstand
kosovars
klee
tidied
thorium
bypassed
unacc
tasmania
fingertip
reinforcing
laminate
siberian
sherman
shuffled
twenties
bloated
cynicism
rumi
fraudulent
outlaw
precipitating
bitterness
regulates
sudanese
holograms
nyota
vigorous
inhibits
dodged
dodecahedron
guideline
marathons
raisin
affirming
prioritized
mesozoic
alarmed
prejudices
descends
decompose
viscerally
superconducting
photosynthetic
sacrificed
surrendered
durkheim
fountains
zoop
##worms
choreography
strangest
inflationary
bureaucrat
bureaucrats
maneuvering
maneuverability
dickens
gurus
router
##beard
recurrent
astrolabes
rhinovirus
unnecessarily
austerity
grooves
scrolls
swordfish
payoffs
ceramic
rodeo
wagging
reimagining
stirring
gossamer
relocate
biodegrade
swearing
depicts
faculties
constituents
quadrillion
csi
goosebumps
decibels
perfum
elasticity
beheadings
prophets
disturbances
himalayan
coughing
hitchhiking
maui
intermediaries
humiliate
reluctantly
harassing
motorcycles
coworker
deteriorating
tirelessly
wilkins
plumbers
intercepted
interrogation
interrogated
relieve
consolidated
swamps
militant
seafar
ceasefire
puffs
notebooks
altruistic
disagreements
centrifuges
kelvin
siftable
##iyat
anomal
knobs
outfitted
uninformed
cocoa
reprogramming
cheerle
excavated
hydrocarbon
juliano
frederick
glee
krishna
pistol
##rrrr
allegiance
permeated
bundles
misconceptions
photoshopped
fingerprints
lurking
luria
tuscan
molten
unquote
unquestion
uncovered
quartile
remediation
cricket
paranormal
diabetics
retrieval
apocry
rebellious
recyclers
pharmacology
cheetahs
asymmetrical
inconsistency
aroused
kaplan
laurie
pupils
razan
sardinia
enforcing
appendage
scourge
sledges
curtis
charisma
provisional
kickstart
aldo
vermont
vermicul
wobble
segregation
mockingbirds
spongy
muffled
hispanics
assassination
assassinated
extrapol
practitioner
promptly
cardiology
merchandise
duplicated
deduce
dashboard
faunal
hustle
hustles
moths
nostalgic
disguised
disintegrate
impairments
constellation
squirrels
nephews
hotspots
ingesting
evacuation
adhesives
herbicides
recreated
robbins
babysitters
encompasses
vertebrate
flattened
subscribe
bulldozer
neurosurgeons
drogue
farewell
torajans
isotope
memoir
pledge
caviar
surpassed
crayons
crayfish
eloquent
##growth
lightbulb
protagonist
redistribution
eyeballs
##ophysi
angiogenesis
discouraging
leapfro
whistleblower
johannesburg
bionic
bionics
bourge
cisco
euler
felix
jugaad
tatum
theatre
procrastinating
conveying
recursive
grapple
repurposed
masonry
osmakac
plummeted
apocalyptic
baptist
eisenhower
ludicrous
ooze
watery
chandler
proverbial
outperform
##ableness
remnants
reassemble
assaulted
calibrated
snippet
snippets
silkworms
ejected
kangaroo
lichens
lymphatic
ruthless
##mobile
beacon
seabed
henderson
ushered
spoof
unavoid
interrelated
overreaction
carcass
protonmail
timescale
reddit
hysterical
sequestering
punctuated
dialogues
derivatives
cannibals
firefighters
amputees
neuromodulators
cesar
jumbo
wangari
ligament
albania
upwake
hassle
nozzle
quirky
overcame
polymers
buoyancy
endowment
milligrams
terminology
tournament
##dochically
ottoman
misinterpreted
eerie
rapture
zappos
hewlett
necrophilia
shimmering
mendel
deleted
mangoes
percolate
overeating
poignant
disillusioned
syntax
##ishnu
crescent
moriarty
convulsions
voltage
combinatorial
weblogs
misleading
verdict
baggage
cosmetics
punctures
beehive
paleoanthrop
unrealistic
enthusiasts
scandinavia
petrochemicals
abducted
cataracts
euthanasia
frenzy
hilarious
punta
tampa
wacky
zinc
reboot
sodas
moocs
chagall
procter
concede
almighty
alibi
##oreactor
overpopulation
disrespect
kevlar
serbia
grandson
blockbuster
salaam
chancellor
sanctioned
roundabout
biomarkers
dishonest
sabotage
culprits
precipitously
martyrdom
mycorrhizal
overconfidence
dawkins
ephemeral
lisbon
lahore
potholes
rarer
sigmo
tumblr
wrenching
zetas
zuckerberg
inundated
bezos
hegemony
spigot
quarantine
amundsen
backseat
acrylic
contaminants
humongous
emerald
caffeine
invasively
transatlantic
entanglement
espresso
gerontology
vertebra
utensils
hypothermia
undefined
##glomerate
dissertation
uncompromising
luxurious
micrometeorites
croatia
nikolay
mckinsey
thermodynamics
kardashian
nintendo
preposterous
4shbab
cologne
cuckoo
cuisine
daphne
giacometti
iucn
kigali
kettles
mormon
nirvana
nifty
ptole
rielly
sistema
saints
sarkozy
tundra
zullinger
andromeda
toonchi
itunes
hezbollah
neptune
shillings
atacama
notwithstanding
meegeren
chassis
myhrvold
uprisings
unanswered
uniqueness
unauthorized
manshiyat
precarious
amorphous
armani
synecdochically
griselda
grumpy
guggenheim
carbohyd
slovenia
stromatolites
watermelon
corrosive
formaldehyd
swaptree
parikrma
autodesk
barricelli
silhouette
apophis
postsecret
postmodern
bookshelves
misguided
miscarriage
insurmountable
undiscovered
undifferentiated
mcmurdo
meggendorfer
mandelbrot
luxembourg
ferrofluid
ferdinand
hippocrates
karnataka
khadija
archaeopteryx
biofabrication
vermiculite
04
3g
4th
4chan
420
620
9th
ave
aired
bis
bout
bish
bax
cu
cen
cac
cork
cote
cerv
casa
cilia
dl
ds
dine
dory
dived
dips
dumps
duel
duff
dudes
dizz
ether
evel
eile
egan
elic
effer
ebert
elicit
fus
fable
fists
font
ffl
fusing
fateful
gly
gch
gers
gory
gmo
goran
hk
hort
hens
hates
hanger
homs
icing
jod
jared
jami
jett
java
jumbled
jarring
ko
kl
ki
kod
kem
kab
kane
kbs
klu
kai
kiev
khal
kitty
koko
ler
litt
lance
lope
laps
lumps
lumines
mh
mous
mics
mural
mats
munch
noo
nub
nah
npr
nude
oed
ola
oval
pter
pines
puck
psh
piet
paws
rm
ry
rive
ritch
rup
rumb
roses
rums
rotted
raven
rés
riley
sic
sul
satch
tg
tul
tug
tigr
troc
trove
tiring
toured
tuts
tijuana
ugh
vu
vie
vign
vials
vulture
vinyl
vishnu
wim
wad
wong
witt
wagon
wading
wiper
wifi
xy
ya
yb
yan
yaw
yared
yoch
yarn
zac
##cu
##cat
##cot
##cid
##cord
##cled
##caps
##olec
##oza
##oque
##ovirus
##oitte
##ml
##morden
##pin
##pract
##poke
##pipe
##los
##lab
##lass
##lating
##loc
##leness
##iken
##surfing
##hall
##hound
##hirt
##hoot
##aoran
##aques
##bb
##bin
##best
##bach
##bys
##bilt
##bane
##bike
##ender
##eka
##rat
##rant
##rne
##rio
##riment
##rado
##nc
##nie
##gm
##gal
##dle
##dain
##del
##dling
##tie
##tower
##todes
##takers
##yu
##ytodes
##uay
##uition
##uced
##ugging
##finder
##furt
##wre
##will
##welt
##vine
##via
##kt
##kit
##kable
##krit
##x8
##qa
##60
##án
##ña
thump
thirt
theolog
##erh
##inum
##inance
##atan
##athing
##atial
##atiable
##ndy
##ndas
##ndra
##rell
##requ
##enon
##enseless
##escent
##ongh
##onite
##anu
##aned
##anmen
ines
inverted
inmate
inaction
##oras
##orio
##orati
##alis
##alah
##ede
##edict
##educated
##isanship
##isbane
##itant
##itures
##itime
##arus
##arves
##arrow
##omo
##omist
##omitable
weathers
wendy
##asper
itay
whoo
whome
whaling
##icated
##llis
bech
beth
beag
beverage
isaf
##lyte
##sees
##vendra
##ioned
##ionate
reap
reag
rework
reusing
reuther
reeling
rehyd
reenter
##stra
##stoy
##stones
##stoke
##stocks
##eted
##etting
##ethe
##etected
##etrack
##entious
onward
onscreen
onicha
hah
hare
haptic
haidt
soot
soared
soaking
sodom
soggy
softer
stau
stard
stature
starr
##urge
##urably
##ido
##idium
##idels
dopp
dooms
##chry
##verbal
forer
##cephal
liable
liabilities
likable
wast
##opians
##opias
##opilot
##term
##teries
ante
anise
anne
##ircle
##irapt
##imm
##iman
##imented
##imilar
##amen
##amation
##amus
##amie
##amish
##ithe
##augh
gond
sext
seah
seym
##thetic
abaya
aboriginal
moe
moor
mover
moose
moody
moai
hemo
hepar
asians
ashan
asbest
##olan
##adan
##adas
##adema
shang
shhh
shaving
shuk
shhhhh
shanti
worris
atop
atav
##raci
##raft
notch
notep
meats
chub
chilling
chester
chasm
chitra
chisel
therein
##iller
##illus
##illiard
frid
frates
fraught
fridays
fringe
frigor
fruition
##pps
##antanam
##ilm
##ilic
##ilocks
exon
exempt
##ersk
myesh
myelin
myocard
##esting
##estown
##ulus
deity
defer
deco
deeds
orland
orville
peat
congen
##igai
##umi
##umption
##umerable
##umika
##ckx
##cken
##cked
maz
mack
maath
magr
macr
mailing
maeda
mapend
maersk
##urement
##istines
##ifix
##ifully
##ifiers
teme
##allax
outliers
outgrowth
##inka
spits
spock
spitting
spilling
##uncture
eno
enric
enri
enigmas
##osable
##osuction
##osahedron
upt
uphe
uphold
##andme
##andescent
plac
plated
plaques
whore
whooping
byrne
##ortant
##ainable
actuation
actresses
##ciers
##ciating
yearn
imax
mores
##ivik
##ogas
intuit
timer
##elic
##elle
##apa
suicides
superson
suzanne
compel
compile
sage
saken
uno
ung
unear
unru
unob
unres
unins
unpar
unification
unamb
unimp
unconnected
unassum
unbroken
##astatin
taft
taji
levi
lexig
workah
##izzing
##izhou
##actory
##arel
##arez
##arder
##oseconds
##reated
mania
manvendra
##encephal
perks
perfor
eva
evokes
expired
expelled
nok
noor
nois
noaa
quack
quilt
prades
promet
##abit
##abits
##abana
##aga
##agons
##ideen
##idean
lauren
willow
feats
feasting
agora
approte
apparel
preston
prenat
pretends
preexist
coe
coy
cox
cozy
##ilder
amur
amused
amnes
afoot
##agell
twig
cler
clout
clare
clath
clergy
clutter
clonal
newcom
interim
rightfully
##udgery
aryan
resell
resists
residing
resorts
resumes
resusc
##fellow
##soleum
partition
discon
dissoci
disreg
dismal
disench
disorganized
disorient
bueller
impe
impat
improp
impotent
implements
##quin
##icep
##ryn
loon
loom
locus
lovable
##ologous
backyards
callum
##ptop
##ounted
##igned
##aca
roberto
##selage
lothar
lotteries
acin
acup
contented
adhere
talgam
idio
bland
blower
bloc
blizz
##ibur
undergone
humid
humili
##ffy
##ruit
##rugated
##ruciating
herring
heresy
indel
indomitable
scorn
scler
scala
scytodes
braun
brisbane
commenced
commissions
commuter
commuters
##coat
realism
goodall
goodwill
grin
grun
gripped
gritty
##roughs
##cessible
##ishments
putrid
##phil
##phonies
emo
emir
emory
emulation
emigr
emitter
emeka
teller
genus
genitals
inciner
incandescent
flir
flattered
flavored
technorati
##obites
##obee
##lected
greats
countdown
facto
factly
factual
drc
driest
drudgery
##akir
cao
capped
caval
surfer
surrog
##ilee
colin
colbert
childish
percentages
decency
decrep
decoded
remi
rembra
##redited
##anga
earns
earners
buildup
gull
guantanam
guizhou
carly
carroll
obe
basel
basking
basins
basements
baskets
studs
glint
##ubes
##ubber
relinqu
schw
##weap
##weaving
insanity
insidious
insatiable
boise
brainw
brainer
courthouse
transf
crumble
crumbs
persona
fuselage
conson
conserve
understandings
understandably
monot
monica
monolith
##ailed
##ailable
powerhouse
polishing
artful
solver
solace
pointill
##beats
commune
communists
believable
slang
slopes
slapped
musically
##moon
strick
strider
strung
##ixir
trape
tracy
tracing
hugo
hubert
huaoran
finn
finer
finals
reciting
receding
##issible
natal
natanz
mined
##reading
computable
okoll
faring
##erica
woken
informational
informatics
gracious
biot
biop
bihi
biotic
biospher
bioreactor
biogas
##cycles
readout
readable
readiness
eli
elude
elixir
caretakers
generative
lightest
organics
projectors
hardwood
##awing
hovers
warped
warping
warhead
corrugated
visc
visor
electroc
countrymen
homeopathy
formulated
enticing
sub1
sublinear
infar
inflex
infrequ
infidels
animating
animates
specified
rung
accretion
regained
regurg
##auth
halal
halle
curving
curated
seth
patrol
airways
airbed
redder
connective
swore
swami
swelling
greets
passports
camped
signage
jov
jost
joie
sociology
beginners
stopwatch
maritime
charley
distilled
macho
detriment
menace
waved
parity
parox
parcel
parallax
forecl
foresight
forefathers
foregone
foreseeable
confers
confisc
businessmen
autograph
autopsies
autopilot
robbie
educates
##fected
cheval
computerized
costum
strewn
propon
defiance
defenseless
brew
brevity
breivik
agendas
secrete
sitopia
magma
certainties
succin
excre
excruciating
productively
##apeake
orderly
heartbroken
newsprint
newsweek
restrained
incredulous
dipping
wrongly
treason
refuel
refusal
payne
payroll
classically
classics
classmate
landline
landmark
constip
deepened
audit
auditions
materialist
materialism
blackout
condens
condenses
assange
pasture
pastures
drags
freeing
freeways
crafty
arches
calms
calming
calvin
calcut
caloric
retard
retool
avid
avant
tooling
toolkit
teaming
haring
motherhood
measurably
godless
goddam
esk
escrow
trainers
stepfather
differs
diffusing
protector
neurotic
neurost
neurophysi
microm
missp
viability
messiah
raided
rafts
brooke
collided
collins
brah
bragg
brackets
delve
delus
deluge
deloitte
hymen
revise
revised
antony
elevent
sunsets
sunitha
sensed
superhyd
supernormal
superflu
barrage
baroque
naturalist
legadema
##ltry
majestic
limor
commonality
commonalities
opted
handshake
dreamer
symphonies
violating
trader
eighteen
eighteenth
sentimental
chemically
whitehead
apology
icefall
localize
embold
embodies
embroid
architectures
cypress
multil
oiled
124
fallacy
feedstock
[...]
