[PAD]
[UNK]
[CLS]
[SEP]
[MASK]
!
#
$
%
&
'
(
)
*
+
,
-
.
/
0
1
2
3
4
5
6
7
8
9
:
;
=
?
@
[
]
^
_
`
a
b
c
d
e
f
g
h
i
j
k
l
m
n
o
p
q
r
s
t
u
v
w
x
y
z
|
~
£
¥
¨
©
­
®
°
²
³
´
¼
½
¾
à
á
â
ã
ä
æ
ç
è
é
ê
ë
ì
í
î
ï
ñ
ó
ô
ö
ø
ú
û
ü
ć
č
ē
ğ
ī
ı
ō
ş
š
τ
ย
ร
อ
่
​
–
—
‘
’
“
”
…
€
℉
™
∇
♪
♫
##ü
##n
##c
##e
##l
##u
##r
##t
##a
##ı
##ğ
##z
##m
##k
##i
##s
##ç
##y
##b
##h
##o
##d
##j
##f
##ö
##g
##p
##ş
##v
##x
##7
##0
##â
##9
##3
##8
##2
##5
##w
##é
##1
##ë
##♫
##í
##6
##ï
##4
##q
##î
##ć
##ó
##©
##è
##á
##°
##û
##ã
##​
##¨
##²
##ñ
##ä
##℉
##τ
##♪
##ē
##š
##ร
##่
##อ
##ย
##ú
##ø
##ê
##à
##³
##ō
##ì
##æ
##´
##£
##­
##ī
##ô
##€
##la
##er
##in
##ir
##an
##en
##lar
##ın
##ar
##il
bir
##ma
bu
##ek
##or
##ak
##im
##ler
ve
##iz
##da
##le
##yor
##de
##un
##lı
##ik
##ün
##ya
ya
##ey
##el
##di
##dı
de
##on
##ra
ol
da
ka
##tı
##et
##ız
##du
##st
##lan
ba
##es
##ok
##em
##ce
##ım
##bil
gö
sa
iç
ha
##um
##iş
##den
##ların
##iyor
in
için
yap
##ta
##ur
##ha
##li
##sı
##ür
##uz
##am
##dan
##iy
##ları
bun
##ında
##ini
##üz
an
##ük
##is
##at
##it
##ış
gör
bil
çok
oldu
##üş
ger
##ol
##mak
##san
şey
ne
ben
##üm
değ
##ıl
##ık
##ti
##ul
##bilir
var
daha
##me
##ır
baş
##ca
##ine
son
##mek
##leri
on
et
ta
insan
gi
##iniz
al
##sa
##bi
##te
##imiz
##iler
##yle
##ıyor
##sın
##alı
her
olduğ
##uş
en
##oğ
ki
gel
##ka
ön
##diğ
ama
##ay
iş
kar
il
bü
##inde
ge
##cak
##az
ver
ay
##uk
te
ist
##aki
kad
biz
##ara
düş
ara
##unu
##aman
kon
##ki
##dir
##larak
##ğın
##öyle
zaman
##ğı
gibi
##se
olma
olarak
##tir
##yı
##ğım
##lik
##ev
##eye
##inin
##dır
yan
##ğer
olan
##lık
ola
değil
##cek
ken
##ut
##çek
or
yer
##ül
##laş
##cı
##ark
##eki
büy
##tır
düşün
##sun
gerçek
ar
çalı
##ceğ
çalış
##ası
yaş
##ön
##ro
##ip
tek
kadar
dün
yıl
siz
bak
bunu
sor
yüz
ile
##yan
##esi
anla
##daki
##op
##maya
##üyor
##eş
##man
##mam
##lerin
##al
##uy
kul
##kü
##ten
iy
kullan
##dım
sonra
##der
as
##lara
ev
##ünkü
ko
##miş
büyük
doğ
##uyor
##zer
çünkü
bura
##şı
fark
##mış
##eni
şek
##iye
bul
##ru
den
geç
çık
yar
##dim
har
dünya
gün
sade
aç
sadece
##siniz
##dü
gerek
##ci
sür
##len
##yon
şim
haya
iyi
ilg
##larını
nası
nasıl
##eceğ
##ren
##ili
el
##eler
olduğunu
##ken
##iç
##dik
ma
şimdi
si
##üç
##ika
bo
pro
##ep
##tık
değiş
di
##tan
##lu
san
tan
şekil
yani
##ımız
##00
sağ
şu
sah
se
öğ
##leş
dur
##ör
##tiğ
hak
##si
##oc
##ster
##ına
uz
##lama
bunun
yeni
##va
##ça
top
ayn
yak
fak
eğer
##iyorum
yok
##tik
üzer
##ecek
gen
par
##ba
faz
##deki
benim
asl
fazla
##meye
##unda
##ana
##lıyor
çoc
##zı
##ebilir
##sel
yol
başla
böyle
göster
##olo
ak
kur
aynı
aslında
##ret
dön
##dık
##diyor
bel
##arı
##ede
##ını
##ğını
kı
##sunuz
##ğımız
##om
şekilde
##isi
##üc
orta
der
kal
##tü
zor
gerçekten
bilg
burada
tüm
insanlar
önce
##ez
öz
##lerini
öl
##eyi
hiç
mu
söyle
ok
fakat
diğer
iki
neden
ilk
kendi
##ot
do
ek
##oloj
kö
##bir
hakk
##ından
##lem
yapa
##ği
çocuk
konuş
önem
##imi
##tur
yaptı
##ter
mil
##ley
kay
##sında
dev
uy
##us
##re
karşı
##yla
##raf
##enin
##inden
farklı
##düğ
kiş
##ebil
hep
##meler
kor
öğren
##dum
sahip
başka
sı
ed
duy
gül
tara
küç
##let
##ap
##iyoruz
tamam
az
alk
##mem
oluş
##os
##lü
hakkında
##ması
size
taraf
yet
iste
bağ
##öz
##sını
doğru
git
bazı
yön
ik
şeyler
ede
inan
alkış
kend
önemli
##arak
##maz
##yun
olduğu
ör
tekn
bizim
##lardan
içinde
küçük
sev
teş
##tım
görün
bana
ih
fik
durum
##ans
##lk
##if
##tu
ada
##sal
hast
etk
gülüş
büt
##iyle
işte
veya
tar
göz
ilgili
mi
##ab
alan
üç
konu
##gi
##larda
olduk
##lere
kim
bö
kap
##stem
iz
##fa
hay
##sit
##gu
##umuz
er
gülüşmeler
##şa
geliş
olur
bütün
eder
##tr
##ilen
eğ
##eli
be
su
##duğ
hayat
am
ihti
##etir
tür
getir
##diğim
##gün
##eniz
##sek
##ının
ra
yapı
biraz
sistem
ediyor
##ğa
##sar
ora
kah
##ne
##tür
##ekk
ku
##una
##larımız
açık
tem
mo
##tim
##bileceğ
biri
ise
##diği
yük
##rı
##larının
##ran
sen
çoğ
özel
teknoloj
yara
##eri
bunlar
mer
mü
yaz
insanların
##ızı
teşekk
teşekkür
##sız
şe
##ydı
##na
sonu
mes
##id
##lg
arka
bile
##muş
olacak
##imizi
po
ancak
##siz
##eket
çek
hik
bey
is
gir
##dur
##dığı
alt
##laya
tasar
##sanız
hem
##likle
ülk
his
##larına
##üzel
tam
ner
##iyorlar
dış
hareket
##sınız
##ist
##ıp
##ic
topl
##be
ihtiya
##esin
##sına
diye
onu
##larla
##leştir
geri
##mayı
bah
kadın
gele
mı
##syon
##tar
onun
gü
değiştir
##ileri
##ıyoruz
##set
bugün
##unuz
tut
seç
##min
##ünüz
es
nok
##ğin
çev
##mesi
##esini
ter
üret
bin
##biliriz
olmak
vardı
##diğimiz
böylece
çıkar
alı
nokta
##duk
yüzden
adam
edil
##ınız
##dür
kahka
güç
anlam
##ber
hikay
##ven
##lay
kahkaha
güzel
##ıyorum
herk
##gan
sorun
birka
yapmak
##rar
ad
birkaç
##ümüz
yaklaş
belki
##elim
af
hız
üzerinde
olabilir
##lerde
yardım
süre
##ram
##larında
bulun
amer
##han
##lım
##lak
birç
##ih
kan
hal
çöz
zamanda
at
##van
bilim
bize
##yız
kaç
##vaş
evet
ça
beni
onlar
bit
tarafından
##esinde
##daş
dok
gördüğ
##ri
##dığını
##eme
##hir
kat
res
oluyor
fikir
milyon
pek
##ilik
uzun
ses
nın
öyle
istiyorum
düz
üst
##men
peki
onları
oldukça
##lığı
görüyor
buna
##ünü
etmek
say
tak
kaz
##manın
kız
##gı
##siy
##luk
##diler
eş
##ıyorlar
yaşa
tekrar
##yal
##ştır
19
##layı
ortaya
gelen
##dığımız
##cu
##iyi
20
oy
##ğınız
##ob
soru
birçok
dav
bilgis
ağ
güven
deney
##şık
##çe
göre
ulaş
##bilirsiniz
hüc
din
parça
mak
##lerle
##up
ayrı
devam
##rup
sıra
##ket
yaşam
##şey
un
##mel
ser
para
kötü
araştır
##malı
##mez
##lerine
değer
##cağım
##onom
##ımı
ın
##yanın
bilgisay
zorunda
sonuç
##üp
artık
kork
eğit
şeyi
oluştur
10
olması
sayı
##liğ
##lamak
hiçbir
##üs
##inç
##elik
kab
karar
ail
##ide
##liği
bence
orada
##uğ
##aret
müz
koy
##lerden
##diğini
boyun
##ünde
dan
basit
düşünüyor
##sak
##ırak
belir
alkışlar
##unun
##ge
av
bırak
man
toplum
##tem
##ici
##sin
##ed
##ver
##nek
uç
muh
demek
yüzde
sö
##iyordu
fot
##sının
tele
anda
gez
yüksek
dönüş
um
dik
fil
##erek
##esine
tabi
bek
##ayı
açı
bilgisayar
##likte
boyunca
##net
birbir
yay
arkadaş
##ji
sizin
haf
##mamız
##anın
##bet
##lerinin
yarat
hayal
bölg
##ye
##düm
du
##seniz
sık
nerede
dünyanın
kıs
ekonom
proj
tamamen
met
çalışma
##inizi
##yse
biliyor
kita
##oğraf
ala
afr
oyun
ener
cev
hat
mik
şir
##lendir
şöyle
harika
keş
##landır
çeş
##şır
##var
##kan
söy
geçir
##vi
kam
##tıcı
içer
dör
##og
tah
erk
prob
şirket
başarı
000
hastalı
##dığım
##eg
##bilecek
kahkahalar
##elen
kişi
##işim
mar
mut
##inci
##ındaki
aşa
##larından
##eyen
öğret
##meyi
problem
##mal
birlikte
##ılmaz
örnek
çeşit
##iydi
teşekkürler
herkes
##iya
##lam
##imde
##memiz
fotoğraf
dedi
##ilerin
genel
im
##üt
##imizin
ister
saat
şa
oku
çiz
geliyor
temel
##ebilirsiniz
onların
kır
ün
inter
arasında
erkek
sos
can
savaş
pay
##usu
##tış
##ğında
##işk
##lerinden
yakın
ür
yerine
##kat
##ılmış
onlara
söz
##üne
sin
##kı
kazan
ber
##lerinde
hayvan
haz
nin
##dük
sonunda
##tıyor
ye
##esel
##ral
hatta
##rim
##dılar
bilm
##sından
şehir
üzerine
gereken
poli
##yım
sanat
##fer
çoğu
##yar
benzer
genç
200
yaptık
ona
yaklaşık
##can
##yet
##larım
dil
##lük
gelecek
re
##tal
okul
hatır
organ
daki
boy
ila
##sunda
internet
paylaş
afrika
uygu
uzak
##trol
birşey
##iyet
##uyu
ihtiyac
yür
ot
katı
sosyal
##diğiniz
ettiğ
ilginç
etkil
hızlı
ayrıca
##fon
ederim
eden
dere
sek
so
kontrol
##for
##met
sağlık
bizi
hava
mode
##mi
kut
li
tasarım
##uluk
bağlan
dört
##leme
örne
##gram
mese
##lığın
eğitim
vardır
##çı
geliştir
##cağını
##nak
işe
söyley
##gil
##hat
araştırma
elek
##suz
sal
gelir
yeniden
yor
tarih
yine
##lerce
biy
##ıt
vide
herhan
herhangi
dair
oran
pa
inanılmaz
##dak
dolayı
kol
hala
hemen
kolay
keşf
kesin
##tak
amerika
##ban
kaynak
##ıcı
##hi
##kez
olsa
dest
milyar
gön
davran
ana
fır
##layan
otur
baz
yen
merkez
##luğ
yı
bas
güc
ca
kelim
konusunda
kür
program
beyn
geldi
yapma
eski
gezeg
##inc
##ilmiş
yal
##lış
etraf
yerde
hazır
##lardı
kısa
##çası
grup
ölç
çalıştı
anlat
araba
##stan
kendim
hisset
bar
bunları
gördüğünüz
beş
dikkat
bilgi
yönet
##ğız
cevap
##lemek
deniz
insanları
araç
telefon
diz
hafta
tane
ölüm
mat
##indeki
##iyiz
dolar
bundan
##cağız
elde
karşılaş
han
##tör
değişik
inşa
##gin
##tiğini
##kün
##teş
dünyada
olmayan
##det
video
##ciler
mek
##lerimiz
kom
dak
##sındaki
##nız
kül
ci
ann
##gel
teknoloji
##asyon
pat
##acak
kes
geçen
##lır
dem
şeyleri
düzen
dol
haber
önc
konuşma
hayır
şunu
##ve
elektr
##sik
yalnız
##ekli
derece
vüc
çalışan
yeter
bilir
##oz
##isini
olay
##siyon
müzik
##art
yapıyor
kısm
yapar
çevr
##müş
##ınır
rob
bahset
başladı
hin
çif
yazı
kil
ikinci
nes
##ıldı
fiz
devlet
hepsi
hale
istediğim
##hr
tep
ilet
##eceğim
hasta
benz
seb
ho
böl
beyin
evren
güçlü
uğ
kabul
bunların
##ırım
kültür
##imin
olduğumuz
geniş
##larca
model
##menin
##ime
plan
##he
görüntü
izin
kitap
karma
sizi
##tor
##ince
##matik
##biliyor
neredeyse
oda
yem
durumda
##üy
100
##sam
aşağı
##lanmış
koru
##ladı
olmaya
##tiği
sene
bakın
müm
##rak
özellikle
ted
altında
mal
insanlara
mümkün
##ita
olmalı
destek
va
nor
tahmin
fa
ilişk
amerik
çift
##lim
çözüm
mesa
sınır
##lo
##isinde
siya
##eden
çıktı
resim
hisse
istem
biç
edin
sp
##lat
güneş
taş
enerji
istiyor
bazen
ayak
ban
gönder
gider
##ebiliriz
##mekte
parçası
15
teh
##esinin
ulu
ren
##eleri
##makta
görüş
##alım
görev
##masını
##sıyla
gezegen
em
##dip
görebil
film
##manız
##lin
hücr
hastalık
sebep
gaz
yapmaya
muhtem
##emiz
hük
##ünün
kav
##umu
tabii
ic
dedim
yanlış
birleş
ağa
na
##gun
çar
##imize
sahi
çö
yaptığımız
bahse
taşı
tanım
30
ab
##leyen
neler
new
hayatım
tu
##ğına
taki
##etr
##iver
değildir
kullanı
karmaşık
##sine
per
##son
##meden
##gın
alıyor
varsa
tanı
##ayan
doğal
sok
##abilir
##mesini
boyut
##maları
##çi
##ğe
küresel
kez
##üst
bağlantı
bağlı
kr
ney
teda
fizik
la
mey
##dde
##ünden
##ilerini
yaşında
kans
##lah
ince
sanırım
##madan
tük
##sini
##dikleri
sol
##hen
engel
hâ
##lüyor
etti
baktı
deneyim
robot
yarı
boş
hes
içine
araya
düşünün
heye
##liyet
yere
akıl
##bilmek
hindi
##aber
50
ifa
yolu
örneğin
uğra
hücre
ihtiyaç
heyecan
##mişti
gerekiyor
ülkeler
götür
duygu
görüyorsunuz
##lamaya
##undan
##larınız
okyan
sak
beraber
##uyla
##tiler
##hil
##labilir
ingil
##meniz
muhtemelen
ifade
##iversit
çin
aş
##cer
doktor
kuz
test
tes
##tif
olduğuna
##arken
gide
alın
ışık
emin
hiz
yuk
##uluğ
organiz
sonr
art
##ke
##tıl
yapan
mesela
hindistan
##üle
##miyor
ortak
sonraki
##yıl
birisi
buz
hepimiz
ele
olmuş
##ene
düşündüğ
kesinlikle
gidiyor
gösteriyor
kimse
ürün
derin
dir
özg
##dy
bakar
##mamış
uzay
st
koş
üniversit
gerekir
şaşır
giz
zar
bab
anlaş
biliyoruz
sını
altı
iletişim
şeyin
ülke
ilaç
köp
hoş
##okra
dakika
##duğu
##mıyor
ah
rahat
##fes
değildi
adı
ris
##ünc
##lanma
bölüm
kullanarak
sey
##ch
karış
##sıl
##lüğ
sun
davranış
başladım
cid
söylüyor
bur
geçmiş
dışarı
kalan
ettik
çalışıyor
ihtiyacımız
##üf
##isel
##isinin
gece
sebe
öldür
hikaye
##diş
##bol
dönem
normal
##ıyla
##larıyla
yoktu
hüküm
##str
##esinden
ilgilen
##lacak
mev
arasındaki
boz
canlı
ro
kuş
ayr
yöntem
dünyayı
kural
##edi
yatır
balık
azal
lider
##imizde
çocuğ
vak
etme
##uyorum
rağ
düşünüyorum
##cağı
tab
merak
##ga
üzere
geleceğ
##tuğ
nedir
##landı
insanın
##memiş
hizmet
yukarı
##eti
yüzyıl
sürü
for
çocuklar
tıp
##mız
dayan
yaptığı
alır
bilirsiniz
bakış
adım
##iyim
yavaş
buradaki
yaka
büyü
##ebileceğ
rağmen
##liyor
görmek
dünyadaki
alıp
görebilirsiniz
##olojik
başlıyor
##diğinde
olmadığını
renk
suç
kendini
ekonomik
##leriyle
sürekli
paz
##sas
düşündüm
##uyoruz
##lek
##ina
gerçekleş
vücu
hede
yağ
verici
kullana
hedef
avrup
##ere
sar
##yken
##bo
harita
seçim
bes
##bek
ettim
yardımcı
##malıyız
##ing
##etik
görül
çarp
ip
##emez
etmeye
büyüm
##meyen
mikro
sınıf
uc
##lerdi
yıldı
##duğumuz
yalnızca
york
yaşayan
cin
##ham
sistemi
oyna
mesaj
hesap
hen
mük
sorum
keşfet
orman
düşünce
##ceğim
doğa
##ucu
##ydi
yılda
asla
##mıştı
mate
##eb
olsun
başına
##larımızı
##ck
veri
ciha
yoğ
sağlaya
yemek
sat
evrim
olup
zih
şid
go
mis
miktar
acı
zen
madde
dönüştür
##madı
yaptığım
demokra
##har
ga
##bı
biliyorum
düşünür
yaratıcı
bina
##üncü
gar
mim
##tığı
yapılan
##taki
##ig
##bon
##imli
yetiş
lab
nüf
##yaz
##ete
verir
tip
öd
##sem
görür
##atu
##cağımız
çevir
takip
##emmel
değişim
##lilik
bilin
##enek
binlerce
kuzey
güney
mekan
##ust
uygun
defa
yüksel
enerj
##sat
##ladık
başar
meydan
iler
dep
##lardır
##teşem
yiye
birey
kara
başarılı
ciddi
yoğun
görüyoruz
muhteşem
##duğum
şark
halk
bununla
odak
##ilere
##cık
##yüz
vermek
elbet
kurul
mükemmel
beri
##eyim
biliyorsunuz
##tika
##aten
kurt
vir
##ydım
##dis
##lanan
almak
başlaya
tartış
dışında
##cut
##sil
görünüyor
algı
kanser
don
##pan
beyaz
##uydu
elektrik
sim
##ınca
avrupa
##tum
##diniz
bağım
gidip
lar
##ildi
yapabilir
elbette
buraya
yapıl
anlaya
##teki
##mur
eşit
ağaç
tüket
yatırım
br
ait
asıl
##fak
##lit
düşük
kaldır
bazıları
haline
hangi
özgür
ler
rek
burası
silah
40
süp
##ıntı
##ğınızda
yıldız
yılında
tanış
ortam
temiz
nedenle
eğlen
mühen
kir
##mızı
gerektiğini
içerisinde
deki
hayatta
bulunan
##ton
##sk
aldı
işaret
başladık
anlamına
çağ
tehlik
12
##lerim
arada
kurum
kop
##vet
kayı
hâl
zengin
##ileş
kafa
şeye
başlan
pazar
##deş
konuda
mevcut
mem
kendisi
mutlu
laz
yerleştir
harca
kendimi
aile
##lıkla
kapa
##lili
batı
yaptım
id
ni
ru
##iyorsunuz
anne
uzman
ediyorum
makine
edecek
##inize
fikr
ap
şans
##din
kaybet
ağır
pen
tat
##ola
##cılar
##stik
sinir
öde
##isine
gerekli
##tiğimiz
hücreler
sıcak
herkesin
##ly
işi
##oh
sürdür
kişisel
##ğan
mimar
dö
uygulama
sayesinde
endiş
ayır
##unuyor
kadınlar
yayın
henüz
fay
hap
zamanlar
başlangı
le
med
tr
##medi
##lıyorum
yeş
gay
ileri
musunuz
oraya
takım
mol
maliyet
18
kem
dna
vur
olası
##uyorlar
far
##laştır
hata
tanrı
yolc
##dıkları
##rafik
öğretmen
fikri
##bileceğini
risk
hav
##ıyordu
işlem
gelenek
##usun
ortalama
dağı
veren
anlama
kalk
babam
sır
ders
zaten
dahil
karbon
olurdu
çoğun
birinin
sana
olduğum
malz
yeşil
öt
labor
şarkı
fayda
##meleri
olmadan
yıldır
kimya
##hal
mah
matematik
unut
##luğu
##incisi
yu
abd
gördük
teor
prote
laboratu
buy
alış
##bileceği
süreç
bunlardan
anlamak
bitir
tedavi
molek
##ımda
##inizin
geçer
##iyat
mühendis
25
bula
tav
şekl
ingiliz
giy
##ğini
kaf
şiddet
ces
ışı
##dın
kayna
##sen
##ste
sanki
kalp
##ansız
##masına
##ümüzde
hükümet
bakalım
belli
mutl
sebebi
diyor
##lon
##ıma
##tığımız
kamer
zarar
süper
##dınız
##gar
##liğin
fakir
##slar
##sey
##sta
sav
amaç
##ülü
ask
göstermek
şef
işin
ata
##lerimizi
umut
eki
endü
##gor
politika
amerikan
fin
park
petr
##su
##sinin
dalg
##emeye
söylemek
kapı
##meliyiz
fiziksel
##rü
##bar
##üstü
diş
op
olmadığı
yerel
pan
özellik
bebek
##üsü
kok
##za
birini
yapacak
##larımızın
annem
çap
kurtar
petrol
tic
çıkan
beklen
dolayısıyla
diy
birden
##izyon
olduğunuz
num
yüzey
kısmı
çocukların
etkileş
fırsat
birleşik
oğ
##fen
yiyecek
ard
##mayacak
günde
sağlıyor
oluşan
dolu
soğ
senin
karak
diji
yaşlı
yarar
mavi
yapabil
üçüncü
müca
pla
söyledi
oyn
rol
ufak
yık
olacağını
bulmak
nun
kök
olağan
##ebilecek
##şırı
gücü
yaban
##ku
##malar
hastan
##od
##tıra
aracı
çalışır
dünyaya
##tiğim
##bah
saldır
dijital
##ilir
karan
60
bakter
##arım
yasa
verdi
proje
karakter
##as
birleştir
içeri
makin
uğraş
##uma
görsel
gelip
yıllık
öğrenciler
gözük
kırmızı
##sü
kardeş
şeylerden
katıl
##ülebilir
##cil
##taj
gerçekleştir
yedi
mücade
gru
##sır
veriyor
anlata
cihaz
##iği
##jen
##haf
lazım
gittik
alet
nedeni
izley
##müyor
sabah
##maktan
başkan
yoksa
şaşırtıcı
yetiştir
##yın
##mesine
yeterli
11
cep
fe
##sul
herşey
aldım
iklim
çevre
bitk
cam
şeylerin
##eceğiz
medya
ke
saç
verdim
bizler
sefer
##oloji
sahib
aşı
##th
gördüm
gerçekte
aşırı
##dunuz
##ger
milyonlarca
öğrenc
##bileceğimiz
yenilik
##lığa
girişim
mars
co
##ulu
goog
sit
##gen
baba
stan
##tay
farkında
mot
of
işle
##ücü
politik
lis
##ala
google
inanıyorum
##iv
##yış
tarz
##abil
dağ
mantık
değişiklik
gittim
ediyoruz
yapıyoruz
##arası
soy
biçimde
neyse
kendine
resmi
psik
çeki
başlar
bakarsanız
köpek
iyileş
##diklerini
##kin
duvar
idi
##mada
yapılmış
halde
sokak
sayıda
dar
ilerle
akıllı
ateş
edi
ob
##sıt
seviy
imk
bor
sesi
##iliyor
##dular
azından
topluluk
gerçe
yanında
##elere
derecede
##sünüz
##lığını
olmaz
mağ
ihtimal
kanıt
kriz
##eyn
##tiv
##bileceğiniz
mesele
bl
##üler
moder
bilmiyorum
tur
##ho
##tığım
ham
görme
##üman
##elerini
kıya
edebilir
olacaktır
adlandır
nör
zek
##mey
##ebilirim
öncek
olmadı
masa
bilimsel
201
genellikle
##lanıyor
sonrasında
eve
##inizde
##eceksiniz
çizg
##bu
##yacak
insanlarla
kişinin
form
geleneksel
kağı
sab
söylen
hissediyor
tıpkı
min
temsil
yaratmak
##les
##olog
kavram
modern
fran
ilham
kod
metre
okyanus
karanlık
##ser
yerlerde
yaşan
saniye
teknik
uçak
kişiler
olduklarını
ruh
yum
##ladım
çalışmak
imkan
me
##to
##atan
sağlayan
istedim
kuv
ton
düşünc
gösteren
gözlem
köy
gördüğümüz
dalga
rak
##go
şehr
açısından
list
ten
##mayan
olursa
sayfa
meydana
siv
etkili
hey
yüzünden
farket
hikâ
noktada
garip
virüs
sem
üz
tanesi
nereye
motor
##bat
##emi
işler
yarış
amerikalı
it
becer
korkun
cez
gor
toplan
199
esas
gı
bay
gök
zamanlarda
##ımın
##iyorlardı
fon
net
##tuk
##iyordum
değilim
profes
kendimizi
yeme
##acağım
##meli
##izm
yapıyorlar
isim
terci
hâlâ
##ilerine
dolaş
çeşitli
çal
yüzlerce
doğu
sağlıklı
korkunç
web
##ledi
sonsuz
ekran
sekiz
sahibi
mücadele
ep
piya
##dek
bulduk
yapabiliriz
baskı
öncelik
80
günlük
eyle
kör
##ılması
istiyoruz
##ğının
yarata
anlamda
ziy
##miştim
üzerinden
##liğe
ödül
şüp
##tro
##gü
arab
onunla
ardından
fel
çıl
##dem
zamanı
cevab
genelde
ucuz
laboratuvar
##laması
yoksul
göstereceğim
ölçek
pop
##ğine
##ize
##ıyorsunuz
##elerde
rüz
yıllar
dokun
pekala
satın
endüstr
##yalı
ani
öner
rast
merkezi
##fi
sıf
sanatçı
icin
önceki
##ikalı
uyum
ihtiyacı
##onik
kendilerini
alanı
güvenlik
uluslar
may
kala
etik
sessiz
siyah
gizli
tercih
##çiler
##ent
geriye
başarısız
ulusal
stra
olanlar
konuşmak
korku
eb
sahn
seviyorum
potan
rakam
dans
tit
##eydi
hadi
içindeki
öyleyse
kelime
##aka
sava
has
olmasını
çıkıyor
##geç
salg
indir
oluştu
getirmek
##istan
##lerdir
gitmek
üstünde
banka
odaklan
nesil
kum
uyan
üc
##ale
##muyor
##pa
##ledik
buluş
edilmiş
por
giden
kullanmak
yoktur
kaldı
güvenli
dam
edebil
beden
##işkin
##ılan
##tılar
tec
parmak
aktiv
bilgiyi
alak
bis
##hş
##lemeye
##ıza
##emin
##ümü
##bilirim
ondan
hayatın
##liğini
vücut
tor
##eksiyon
aldık
hepimizin
##ia
bilinç
genetik
durumu
kayıt
stand
miyiz
##ond
olduğundan
zorluk
bağış
ikisi
yürüy
yeterince
rahatsız
başlangıç
nde
##lıp
##ımızı
##leyici
oldukları
terör
açıdan
yağmur
tı
şan
##ah
##zam
##vizyon
amacı
işbir
sürec
alakalı
vatan
##atif
toprak
devrim
##of
##vik
##arlar
üzerindeki
eriş
televizyon
olmayacak
piyasa
dek
##celi
##inda
alman
buldum
##duğunuz
türlü
kura
kamera
dey
##kın
##malarını
işlet
önemlisi
belirli
bahsediyor
potansiy
zeki
oldum
merha
paha
yazılım
icat
aya
##enler
##imden
devr
arkadaşım
olağanüstü
16
anal
edilen
böcek
##çuk
##oy
hali
olabil
karşılık
kutu
##maktadır
çoğunluk
fr
je
budur
yapmış
gerektir
cok
yapmamız
olduğunda
eğil
##layıcı
kitab
ziyaret
##ıştır
sağlamak
##düğü
beynin
##üğ
##fet
##lenmiş
##osfer
altına
değerlendir
tehdi
kuvvet
##lardaki
##lana
##ite
ettir
sanal
yetişkin
teşvik
anlamaya
akl
seviye
##duğunu
tedav
500
##ğından
yaşıyor
kadınların
birbirine
fi
##ılma
erken
bi
##şam
yaparken
düşünmeye
##istik
ücret
tır
önünde
düşündük
köş
adlı
##layıp
kere
lüt
şekli
çocukları
edeceğ
sonucu
üretim
soruml
olun
##urken
##lıklar
seya
önceden
etkisi
fir
ilgi
poz
atm
kendime
gıda
dür
##res
##iyer
##ğınızı
çalışıyoruz
##abr
erkekler
asker
tecrü
##eyle
##dışı
detay
##tığını
istediğimiz
##layacak
değiştirmek
söyler
kimyasal
molekül
sahibiz
jap
suy
##co
##mat
##yat
onlarla
konusu
sorunu
bölge
70
yi
insanı
##ilerinin
araz
düzey
sırada
belirt
etrafında
nöron
sıfır
uluslararası
##ydık
verdik
yanı
##manızı
bom
adında
##ümüzdeki
okula
dis
##gör
hayatı
benimle
ikna
çılgın
mon
çi
##ari
kas
kabil
##lanır
##diğimi
verin
toplam
muaz
kims
şah
barış
zihin
soğuk
japon
chr
mez
the
##ile
ediyorlar
yaptıkları
strate
lütfen
##mür
mas
##lıyoruz
başlat
##dyo
muazzam
kit
sizlere
gittiğ
yönlendir
afgan
90
vaz
##br
##balı
birine
##işki
yaparak
nefes
mahal
duyar
kamu
biçim
müş
şimdiye
yetenek
davet
demektir
yaygın
13
fabr
seni
ül
sırasında
organizasyon
mahk
soruyu
koruma
meş
şiş
##do
##şeyi
##50
yapmayı
geldiğini
yerinde
sizinle
boyutlu
##ohn
ebev
bisik
14
nef
akşam
müth
savun
tıb
##ati
##melerini
olmasına
çalışıyorum
meslek
fikirler
çalıştığım
karşılaştır
burda
gayet
tra
##larındaki
gib
##uyordu
koşul
seyir
müşter
fiyat
tim
##ruf
##meyecek
##lığına
gazete
zihn
bağımsız
ebeveyn
müthiş
john
veriler
tasarruf
anlamı
olsaydı
##mektedir
car
iti
##larımı
##isyon
çalışmaya
##elerden
##lamaz
sonuc
çaba
katkı
biyolojik
##irler
##land
bildiğimiz
hakkındaki
finan
yabancı
kağıt
pahalı
dal
dahi
##esiyle
harekete
yorum
spor
##tin
##yum
bakan
teknolojinin
##lüğü
kurtul
##mıyorum
##anda
yada
adını
hücreleri
##fik
##lasyon
##ükle
##ümde
##miştir
##kenin
tuhaf
imkansız
eylem
gur
##ire
##leriniz
##dig
düşünmek
ülkede
umarım
çöp
düzel
tel
##bin
kali
dışı
198
sıradan
##forman
del
eg
##cının
##eği
##ron
sap
##isin
##uştur
günü
adına
yaklaşım
halinde
tehdit
17
no
##tma
##mamızı
##eceğini
##tere
bahsede
piş
başında
bakım
giriş
kısım
ölçü
performan
tehlikeli
##leti
##sef
##lıkları
hepsini
yetene
kana
pren
##ze
##ilebilir
göç
##cağınız
günümüzde
görünen
etkin
sinyal
sektör
beslen
bağımlı
rüzgar
delik
##anız
bayan
farkına
##iciler
çatış
sürdürülebilir
saldırı
yayı
##isiniz
ste
yo
##yo
birer
uza
##tüğ
şeylere
##sizlik
##ınızda
analiz
seyahat
tw
şart
öğrendim
yazar
##ograf
birşeyler
##form
plastik
maym
##ladığımız
ayı
kullanır
diren
kuruluş
cer
eya
##ündeki
ettiler
çalıştık
gerekiyordu
tarafta
hastalığı
taşın
##uluğu
kaynağı
çekici
obj
mül
çab
##yl
##esiz
fazlası
öğrenmek
anlatmak
kopya
grafik
ısı
##hur
balon
##lis
bende
olduğumu
olmamız
eksik
sorular
gelecekte
gür
hip
##ladığı
yapay
##iyan
ayar
##diğimde
##layarak
miktarda
bileş
onlardan
genom
ederek
##diğinizde
kapasit
oluştura
gec
bulunuyor
denem
##ınıza
çizgi
anah
devletler
tepki
sağlayacak
reklam
çoğunlukla
##mini
##are
buradan
geçiş
gerektiği
##lıyorlar
aklım
uydu
oğl
kuy
şi
bacak
anı
yansı
##siyet
keşif
##panya
iddi
malzem
vatandaş
21
ib
zayı
##her
##otik
##etre
alma
toplu
ortasında
serv
şirketler
kilom
eminim
zayıf
##raman
göreceksiniz
önümüzdeki
düşür
##mıştım
ekip
fen
ide
hafif
geçerli
24
aca
nit
birik
##umun
isteyen
arı
##mamı
çıkara
seçenek
ticaret
rap
##lerimi
dediler
olum
yapıldı
##ayla
kart
kullanım
koya
akış
ameli
hızla
neye
##cın
##miyorum
##bur
ilişki
veril
arz
salon
eğlenceli
ışığı
öncelikle
standart
nefret
sta
ze
##üyle
##tarı
buçuk
öngör
##düler
etkilen
benzeri
ettiği
mesaf
duygusal
görürsünüz
edici
potansiyel
zir
##eğ
##dar
##yap
verilen
##omuz
##usunu
istedik
##mazsınız
kula
çök
niha
buydu
bol
kü
şif
etki
etmiş
şeh
ünlü
komş
##menizi
numara
##ılır
##taş
çalıştım
kullanıcı
konuştuğ
alanda
sayısı
dr
hiv
mit
tren
##hu
almaya
aydın
dinley
yönetim
mor
##af
##dığınız
şeyden
tale
değiller
kullanıyor
mısır
dokuz
hayvanlar
ingiltere
galak
ülkenin
300
not
tık
birincisi
##rat
##üme
doğr
##osu
önemlidir
##larımıza
kamp
olduğumuzu
iyileştir
atmosfer
huk
nükle
rus
ıs
##yen
##larınızı
kaçır
kullanılan
grub
he
km
men
suyu
utan
##liler
##erasyon
##lari
bildiğiniz
tas
kenar
##lerindeki
kaybe
ikincisi
üstüne
giderek
ingilizce
inc
##ulmuş
yana
sordum
anlayış
sez
##ebiliyor
kahraman
çapında
##dıklarını
gelişmekte
alacak
dedik
başa
yeri
doğum
##eceğiniz
##örün
gitti
mic
doku
sonuçta
uçuş
oto
evrenin
ayakka
aşk
bisiklet
düğ
##dun
##ımıza
yapabilirsiniz
gelişmiş
tutk
hikayeler
değerli
yarısı
cesaret
sabit
gr
##imizden
yargı
pol
olmanın
##bilen
##bilirler
olanı
değiliz
bulut
deng
gelişim
zorundayız
örneği
##liliği
uça
zinc
##tek
##masının
##lerimizin
başara
olmayı
açıkça
##esindeki
tasarımcı
nesne
yolculuk
eyalet
##uc
kaya
başlama
uzan
part
uyar
benziyor
direk
kemik
atı
##eyiz
denk
sağlar
bahç
saf
##umda
olmaları
##düğünü
inanç
yaratıyor
hatırlıyorum
mantıklı
kral
red
##yiz
##one
görmeye
harc
sağladı
kaybol
nereden
##meliyim
arkadaşlarım
polis
neyin
mekaniz
nak
yapıyorum
##tasyon
##medik
dene
yakıt
parlak
tarım
altyap
saygı
büyüme
afganistan
birinci
kalır
##oğu
büyüy
artış
eser
bilmiyor
komp
bozuk
gem
##ry
##mayın
yandan
bakmak
kalb
noktası
etkileşim
epey
şiir
lim
pil
yola
bilmek
nevi
evr
sanda
duruyor
aktar
##cağımızı
fabrika
besin
diyorum
mark
ır
##siye
##lamanın
korkut
herkese
kolon
komik
malzeme
hikây
savaşı
maymun
şeydir
boya
##vasyon
noktaya
sonuçlar
problemi
dök
ceza
çiçek
zincir
edip
lond
sarı
##iğin
##yim
##irken
##lanması
yaşındaki
##mıştır
ortadan
oranı
dikkatli
kilo
tepk
tuta
arttır
cinsel
stratej
cerra
nükleer
deli
ir
##iğ
##mas
##amız
bunlara
insana
verimli
konfer
yerleş
insanlardan
kulak
197
siyasi
çocuğun
##skop
mutluluk
##ilmesi
##lanabilir
##diğine
adamın
paylaşmak
kısmını
gurur
hukuk
öy
##ad
##gul
##ledim
##lığında
benden
herşeyi
karınca
sever
kapalı
yaşaya
aşama
ettiğimiz
nesn
bilinen
gittikçe
ez
nan
verme
istat
olabilecek
şura
haklı
##lamayı
kısıt
ortada
##abet
chris
tıbbi
rit
##pit
durdur
kanun
##ıyorlardı
oluşturmak
##forn
ülkelerde
misiniz
şanslı
cüm
nda
sur
##ruk
##dam
##landa
basın
yarım
katılım
şefkat
ac
sil
karş
evde
##ımızın
##leşme
aktif
diğeri
öğrenme
##meme
baktığımız
şüph
dürüst
hid
iğ
kla
küt
üy
kalit
##atür
verecek
isteme
olanak
yerler
asya
söylediği
sevdiğim
adalet
halka
##tılmış
##yi
##anta
##ekte
##tez
##ceği
duyu
edebilirsiniz
##yu
bulaş
yapabileceğ
müda
##best
adamı
##dığımda
yürü
tırman
vazgeç
ayakkabı
ce
görmüş
kariyer
hayata
ölü
yaptığını
##gele
evrensel
nüfus
sivil
insanlık
anlatıyor
kullanıl
öğrendik
doğrudan
##layın
dönüşüm
kültürel
nüfusun
londra
ja
kre
nö
##ij
##madım
##diğimizi
korun
kendinizi
üniversite
endişelen
toplantı
emek
##cağına
başladılar
millet
tuva
aptal
şeklinde
##ğen
##ayet
##cılık
olabilirsiniz
196
tarihi
bahsetmek
itibar
rapor
domuz
şuydu
dediğimiz
##rail
##stit
##emli
enf
yerden
kullandığımız
muha
yaptılar
kimin
teknolojiyi
altın
bulunduğu
taklit
serbest
uçur
ekonomi
eskiden
korumak
gökyüz
##rım
##lerinizi
kate
balin
geldiğinde
verileri
koc
elimizde
aksine
##ebilmek
radyo
süreci
yaşamak
berbat
mahalle
lo
##tra
##sl
##ıklık
taban
##imizdeki
geldik
ordu
baka
dost
yapacağım
oyunu
##memizi
gönül
tespit
sorumlu
hapis
protein
yumur
şehrin
işbirliği
atık
##mesinin
bilme
yanıt
sihir
oksi
##umuzun
bebe
avust
hatırla
gerekirse
karıştır
ölçüde
##mıyoruz
##gh
##isinden
şeydi
arası
##ülen
artır
##üyorlar
##eceği
sıv
sıkı
kitabı
modeli
kısaca
pencer
kalı
##lif
##iydim
önüne
##leyecek
kayde
edildi
bitki
toplumun
afrikalı
seks
çalıştığımız
sebeb
kitle
iddia
fos
ri
##mit
dönüp
##ezil
kaçın
sert
bölgeler
çocuğu
kayıp
anahtar
##tüm
##ınızı
##yıp
olabileceğini
gerçeklik
kullanıyoruz
##dikal
##omo
kendilerine
kapat
hayatını
olmaktan
ihtiyacınız
diyelim
##ima
##stra
##mekten
işleri
verdiği
istiyorlar
olmasa
düşünme
teker
##alt
şekillendir
fazlasını
david
makale
duya
isterim
plat
##racak
gelmiş
geldiği
versiyon
şeker
##ciğer
gösterdi
derg
kalma
iske
sorunları
otob
demokrasi
sembol
ker
kra
##ladılar
kuru
getiriyor
terk
çıkarmak
sesleri
##lığıyla
parçacık
patlama
elektronik
tüken
cevabı
suyun
diyoruz
##rom
metr
cinsiyet
kimsenin
gürül
##cin
yav
yaşıyoruz
çocuklara
kişiye
parçaları
serma
sonuçları
dörd
azalt
yüzyılda
prens
400
##ysa
##âr
##ırlar
##ayn
##laşma
bulur
aklı
karşısında
##ilendir
oyuncu
isterseniz
dizi
roman
altyapı
peş
##imler
##imle
kıyı
görünüş
türü
ters
anlamıyla
##vantaj
görüyorum
boşluk
nihayet
boğ
irak
kus
##tüp
edebiliriz
alanında
##hane
pasi
yılı
zeka
adet
ış
##ektif
içinden
enstit
vermeye
kent
bakarak
bulmaya
##ımızda
musun
bizimle
müsl
israil
aileler
toplumsal
##veç
heyecanlı
hesaplama
deyiş
istatistik
aka
dip
##ori
##ilerden
isteye
##lıkta
kendisini
çoğunuz
ürünü
programı
dolarlık
civar
vahş
ötesinde
gerçeği
ırk
jen
zev
##est
##süz
##las
deva
bakıp
kullanan
denen
çıkıp
sahne
##lıyordu
##tern
kaydet
istediğiniz
açıklama
mercan
##ids
posta
ettiğim
derec
dizayn
face
nadir
krit
tablo
geleceği
ticari
##ilyon
dediği
degil
göğ
##tip
##imizle
amac
bizden
zamana
böylelikle
eko
yönel
kendimize
oradaki
##layabilir
tutar
atom
katman
basitçe
düşünüyoruz
telefonu
doldur
bomba
ameliyat
bildir
ilki
##altı
##dukları
sayede
makina
öykü
hol
pra
çer
##nun
##dil
##dünüz
yalan
etmeyi
değişimi
hakları
kıta
yapıla
ulaşmak
kampanya
canlandır
uzaklaş
üniversitesi
tartışma
etiket
müslüman
cen
##jan
##amik
düşman
yerlere
görünür
olursak
2000
uzakta
mektu
çevresel
##book
finansal
talep
oh
göm
##ise
sorgu
büyüklüğ
##yonel
yolunu
karşıya
edersiniz
koyar
ihtiyacım
vade
lerde
kıyas
yumurta
bro
ısın
##iti
kadının
zamanla
kullanma
##iliğ
durdu
mantar
barın
acil
iran
ju
##sp
##ore
##hale
##ilerle
##ülüyor
evlen
çıkarı
hareketi
ulaşa
##liğine
##mamıza
kanseri
brezil
memnun
kütle
pak
##liyoruz
##lamış
yatak
##stir
altern
yılın
sordu
##uyum
muc
duyg
##dığımı
aşağıya
hayatımız
işlev
##kel
##vur
zamanlı
çıkış
konuşmaya
yazık
arkada
kanal
fırsa
mater
hassas
yavru
facebook
alternatif
ale
klin
##ksiyon
##ceğiz
sizden
##uyordum
parç
##leyerek
kaza
istiyorsanız
karışık
depres
öte
##kır
birinde
dava
dayalı
##ami
olmam
yıldan
bakıyor
buluna
döner
şehirler
ahla
ayrıl
##emezsiniz
özgürlük
rastgele
salgın
balina
zevk
devasa
klinik
aids
##cilik
##sör
##çak
##lerken
anladım
harf
türden
hikayesi
hızlıca
fonksiyon
meslektaş
düzelt
str
##ov
arap
olamaz
geçti
çıka
gerektiğ
##renin
##sistem
topra
kurmak
sahiptir
izle
getirdi
sistemleri
takdir
yaşadığımız
##malısınız
içerik
ihtimalle
profesyonel
ima
pir
öf
##don
##mali
and
başta
konuyu
##ceğini
##rop
istedi
edilebilir
hikayeyi
##dığımızda
manz
##veriş
marka
hang
ilişkiler
misin
ibaret
zehir
eleştir
wal
##gre
##ann
anlar
##suna
sonrası
##uyorsunuz
##lenen
yakından
yoluyla
gösterir
dolara
öğrenci
radikal
yaratık
çekil
##layabil
sorunun
fikirleri
yaşamın
titr
twit
acaba
ekosistem
neyi
ric
##ard
bug
##lığımız
isten
uyuştur
okuma
##larımın
##lığının
araçlar
hissede
dışarıda
vücudum
char
lif
pu
tuz
yörün
##tacak
##azi
maden
sevg
teşh
kablo
yürüm
hissettir
emp
rekabet
trilyon
gözüküyor
saçma
profesör
almanya
merhamet
japonya
hidro
jo
##ülasyon
##dığında
sam
algor
geçtiğimiz
şudur
gördüğüm
oluşturan
okuya
milyarlarca
bölümü
kredi
bugünkü
algorit
şem
##ılabilir
##sh
##varı
kasa
arama
artan
yollar
başlayan
kıv
köle
hepiniz
kendileri
kazana
ettiğini
oranda
kelimeler
beyni
mülte
kuyruk
kütüp
fosil
alarak
ef
pet
##aliyet
##ürken
##alıyor
karik
istek
olmasının
yerini
faktör
##ecektir
bilgiye
yapabilecek
tarafında
gelişme
birbirlerine
fotoğrafı
##iyeti
kilit
kavra
popüler
yur
##tıp
bilgileri
konuya
##duğunda
moda
çoğunu
bilmiyoruz
kutup
baktığınızda
depo
döv
zihinsel
tuvalet
kocaman
kusur
brezilya
depresyon
##anı
gelin
##üyoruz
mad
##eyici
ederken
beğen
moti
islam
güvenilir
buzul
düşündüğümüz
vakit
ofis
komşu
karikatür
ziya
##tesi
##biy
##pr
##ân
birlik
dediğim
##ong
##olu
parayı
kalmış
bağır
üçte
ismi
anlamlı
oyuncak
suçlu
kanada
gönüllü
sıvı
çerç
##miyoruz
##yarak
##larsa
olacağı
yolda
döndür
tümör
nedeniyle
yaptığınız
isimli
şirketi
kutsal
söylüyorum
blog
hissediyorum
toh
anti
değeri
##ıklı
söylediğim
erişim
arkasında
##unuzu
##liğinde
projesi
alalım
sonsuza
performans
deyişle
ahlaki
sunu
##ood
##madığı
##iki
bal
geçiyor
##iliği
aynen
ediliyor
bahsettiğim
olmuştu
trans
olduğunuzu
tecrüb
vahşi
çerçev
to
##mayız
nehir
onay
verim
verdiler
tarif
sistemin
mobil
ailem
araştırmacı
biyo
sınırlı
özgü
mimari
mağara
mec
aman
astr
dun
mir
sız
##no
kalıyor
balığı
yapım
bilimi
yüzleş
başlamak
sevgi
##diğimizde
sıklıkla
meta
gücünü
faaliyet
çağır
kıyafet
aktivit
eğilim
sonucunda
kulağa
müdahale
bet
##cuk
##mer
##ysanız
##gini
##inal
##uldu
varlık
geor
##evi
çalıştır
kurban
diğerleri
konuşa
yönelik
ederiz
dura
temelde
yenilen
gazet
demokratik
aniden
##balık
kilometre
som
##ney
##kar
##ps
saha
tali
sürede
çocukken
##ebilen
kanat
umur
donan
cesur
askeri
fransız
sorumluluk
oksijen
gol
lez
sine
trafik
##cel
##por
##imser
##ırken
etmemiz
##ıyordum
zamandan
##lıktan
düşünmüyor
sanay
durumunda
hayran
getiren
esnek
çözmek
düzgün
##ford
keşfed
çöl
##uluğun
düşündüğünüz
dük
##ner
##ılıyor
##sya
birliği
##lerdeki
yapmanın
##iyel
almış
kare
istasyon
konum
zamandır
çalışması
alanlar
##larımızdan
olacaktı
çekmek
adamları
okulda
organik
bireysel
##stein
mezun
baktığımızda
platform
avantaj
vi
##per
##lade
##anlar
##lerse
yat
olmanız
##stor
##ston
olduğunun
##araya
yeryüz
iyimser
deniyor
günün
doğrusu
haydi
suya
açıkçası
sürece
##melisiniz
projeler
hisseder
felak
soyut
cerrah
şempan
rü
##imleri
gördü
bakıma
##esif
kullanmaya
bulma
##lemeyi
tarafı
tutmak
içeren
##suzluk
hint
vaka
yüzyılın
çalışırken
gibiydi
fer
hır
##ub
##ğinde
##jer
##illi
##isiyle
tanrım
yapacağız
kişilik
birbirinden
çalıştığını
odada
olmuştur
normalde
başlıyoruz
otomatik
twitter
mc
niye
slay
tok
içi
##melerine
duymuş
örg
##ick
değiştirdi
esk
bilgisayarlar
maruz
boyu
dönemde
kurtara
yapılması
tatlı
anlatacağım
blok
heykel
ağı
lı
##tın
yaptır
geliyordu
##utu
buldu
bulduğumuz
bağlam
kapsam
oradan
danış
sözc
hayvanların
yaptıklarını
150
hayatımın
robotlar
başlayalım
bon
diyorlar
fl
kış
##biliyoruz
yapması
görem
etmesi
kişiyi
kore
umu
sebeple
alıyoruz
ilerleme
aklıma
sc
tom
za
şok
##tük
##ff
##qu
##antum
baştan
düşüş
yıllarda
doğanın
farkı
değişti
##tikleri
zordur
sıç
gelebilir
dinle
filmi
alabilir
erkeklerin
biyoloj
yaşındayken
hâle
ahlak
eyl
rö
yunu
##iriz
##lanacak
##amı
çoktan
##diğinizi
artı
çalışa
dünyamız
##tıkları
görünmez
dışına
sıkış
metal
##ralya
yürüt
savunma
eylül
##ydınız
##gara
##masyon
##lılar
##diğin
arayüz
kenya
düşünebilirsiniz
teklif
şimdik
##tanın
özet
duydum
istediği
hayret
müdür
tersine
##ınızın
ülkelerin
merhaba
şehri
lik
##erken
##undaki
##ırsınız
##aza
farklılık
birazcık
##ümüzün
sıkıcı
kırık
etkileyici
havada
##lerimize
bölün
sakin
düşündüğüm
##ebileceği
fikrini
uyuşturucu
ziyade
ital
çel
##imini
kaba
##list
##medim
etmem
istis
koca
açtı
duran
öldü
teknolojik
sıradışı
serg
biliyordum
tahta
söyleyebilirim
kaynakları
oturup
değişikliği
ihtiyaçları
organize
liderlik
nijer
tavsiye
hikâye
civarında
materyal
isa
şuna
##los
##ura
olmaması
##ülük
##ülmüş
##mamın
belg
konuşmayı
oluşuyor
##faf
özelliği
hissi
oluşturur
imza
geliştirmek
pozisyon
pişir
kritik
rüya
naz
##cis
##tre
##und
baya
sonuna
önemi
bazılarınız
çeken
bilimin
eşya
##liğinin
restor
söyleyen
etrafta
çiftç
##ington
tipik
yuvar
aracılığıyla
başkanı
##uluğa
bahsedeceğim
tohum
gri
hedi
piyan
##zon
yasak
##makla
aylık
öğle
yolla
ekmek
fikrim
kahve
##larımızda
teknolojiler
yaratır
sorunlar
birçoğ
sıkıntı
falan
renkli
vücud
şeffaf
olumlu
cümle
gu
kl
##uç
##mıyorlar
##mesinden
##pt
##mama
##lıyız
öne
tez
##likten
kullanımı
hakkı
##leyi
sahipler
tamamıyla
##umuzu
yapıp
kuantum
paul
dayanıklı
endişe
kaliforn
süt
##hbet
##danın
geldim
işç
olacağız
baktım
kullandık
denilen
maa
sağlam
##ebilirler
muhaf
alanları
yapılıyor
yazdım
##bert
süredir
çalışmalar
cadde
patent
engelli
mekanik
mühendislik
##ash
sivr
tecrübe
arzu
paket
yörüng
35
cum
küm
omur
pr
sh
##lete
yasal
##dıra
dehş
##emem
gelince
##mayacağım
deneme
##ock
bilginin
kömür
alana
girdi
alıcı
yaşama
eğitimi
birbirimize
sohbet
siyahi
istemez
evrimleş
bakteri
farkettim
yürüyüş
akadem
hor
##itif
##mede
vereceğim
büyüt
söyledim
##leyip
yöne
sent
kanı
kırsal
sinek
##yetik
##larımdan
kolayca
araçları
fare
darw
dördüncü
om
verdiğimiz
zamanın
artıyor
gülüm
tamamı
açıklaya
isveç
üretmek
olmasıdır
bölgede
geçirdim
gezegenin
hissettim
istemiyorum
mikrop
sırt
operasyon
borç
##meyin
şüphe
seviyede
göçmen
kategor
prensip
com
itir
lan
muz
sunuyor
##eğin
oldug
başvur
onur
çalışıyorlar
sormak
dünyasında
duruma
bilgiler
##mazlar
yaşadığı
oluşturuyor
bekle
şehirde
ölçüm
yun
yel
##ğim
##mon
##sur
##viç
##ell
gölg
bildiği
gelmek
değişken
yönde
ağrı
açısı
imp
merkezinde
fav
kullanabiliriz
alışveriş
bitkiler
servis
mektup
felaket
örgüt
cun
kli
lam
şaka
##ni
##gs
##wa
olmuyor
daima
##oksit
görmez
geçtik
süren
sağlığı
şeylerle
çekir
adamlar
herkesi
dinamik
avuk
kamyon
uzaktan
geçmişte
üzgün
dili
fo
graf
pe
##madık
##izi
##isyen
insani
zamanında
gibidir
elle
elinde
proto
kalın
dosya
örüm
olursanız
üstün
buyuk
kaliforniya
avukat
45
600
kızı
niyet
tüy
##üb
##cilerin
basa
göv
yapış
veriyi
##ğımda
olayı
sizler
sürük
##elerinin
kendinize
kapan
##muştu
altındaki
güzellik
olabilirdi
koymak
düşünüyordum
çeşitlilik
gruplar
yönetic
##hard
grubu
klasik
ein
mel
sir
tv
toz
vizyon
yir
##ydim
##po
##val
##larken
bat
halen
yapmanız
gördünüz
şeyle
aldığımız
yanına
sürüyor
##bama
kişilerin
getirir
##isti
##malıyım
##ıldığında
bağlantılı
organizma
maliyeti
ekib
sandaly
korkutucu
şimdiki
cunku
22
los
##tiniz
##imer
kast
satış
anında
##aydı
ayında
istih
koz
yolunda
dönüyor
##lemesi
hepsinin
beda
çatı
hiçbiri
internette
##uyucu
##biliyorsunuz
pozitif
99
bı
iken
##anne
yata
yapalım
görebiliriz
aldığı
harik
saniy
söylediler
öğrendiğim
##tımız
gözden
kuram
kadınlara
oranında
düzenli
benzeyen
ayakta
gidecek
##tıldı
faydalı
times
gürültü
einstein
meden
şara
##mis
kalem
bayı
satı
##itler
##mediği
sona
geçmek
##için
##tiğinde
yakında
##dıktan
bazılarını
adap
bütç
ediyorsunuz
tasarımı
oluyorlar
üstesinden
refa
görevi
bozul
ayrım
kuralları
idare
##trop
yoksulluk
meşgul
çabuk
kütüphan
öle
##line
##mes
##yer
##gal
##ens
##disi
##ımdan
##bilim
kullanıyorlar
sonradan
ilgil
##bab
##dıkça
uyarı
uyku
durumun
gelişen
ederler
##enizi
tasarlanmış
bugüne
sayf
birbirleriyle
liber
biyoloji
##luğunda
kurallar
vücudunuz
lerin
galaks
bedava
75
ag
gl
sına
sesini
##iğe
##hone
kalacak
##işi
varol
konser
sorar
kullandığı
denge
##leniyor
##elerle
taraftan
teknolojisi
değiştiren
dua
##bilecekleri
saatte
kazandır
haberler
siyaset
##emizi
varsayım
bakarsak
##ebileceğimiz
görülen
pengu
masraf
denklem
konferan
diplo
pratik
dükkan
yunan
gs
wash
##ec
##atör
yaşlan
dünyası
macer
##ecekler
konuşuyor
tutku
edilmesi
çözün
eşsiz
yayıl
örnekler
dile
elektro
okyanusun
dakikada
geleceğin
yemeği
şansı
ideal
kıl
niçin
suna
yuz
##pat
##vara
biraraya
##onun
##landığı
inek
anket
oldular
düşen
bakacak
##derson
çıkmış
günlerde
sahte
döndüm
yeteri
edelim
tamir
bulundu
yaratan
çalışmaları
yığın
meks
demir
tesis
alıntı
depr
ların
ödeme
havuz
bahsediyorum
düzeyde
trav
zirv
avustralya
richard
lit
##nik
##ts
##yseniz
tap
düşünmüş
yıllardır
elb
göstereyim
ediyordu
senar
teknolojileri
tutul
seçene
üretken
ürünleri
tabaka
terörist
işletme
karşılıklı
katkıda
george
prototip
23
atıyor
gra
pap
stü
tüp
vol
çay
ölen
##mı
##ekt
##yasyon
##diven
yapmam
antik
##cav
alda
yerleri
çalışarak
büyüklük
gerekti
söylemeye
kayb
sistemini
hikayenin
uçan
##memize
arabalar
ileriye
matematiksel
numar
ayağa
sezg
büyüyen
metafor
çı
çanta
##lav
demiş
kalıp
##stri
hasar
hack
işim
olana
##zersiz
özgün
diğerine
##leyin
oluşur
hayatlarını
hikayesini
soruları
ağz
okulu
benze
görebiliyorsunuz
hayatımı
yöntemi
makinesi
egzersiz
enfeksiyon
meksika
##cavüz
coğraf
hig
##cileri
##tun
##ph
##wood
bam
ange
bill
etmenin
tay
tecavüz
kullanabilir
##elerine
akciğer
kurtu
zorlu
kendisine
sensör
geride
kızlar
##dığımızı
##obal
zorundasınız
dönüştü
şidde
fransa
imkanı
bilinçli
##isinek
çatışma
stres
washington
ade
gan
gal
lu
tiyat
##cül
##uğa
##erler
biriydi
##tılı
##isiz
##ator
olabiliriz
ark
çalışmayı
##manı
deneye
sığ
##bileceğim
hareketleri
binanın
kızıl
hafıza
##mamıştı
larda
eğlence
francis
kalıcı
nihayetinde
maaş
sivrisinek
dini
fut
mür
pal
##alan
yas
dağın
insanlığın
allah
aramız
##dırlar
sora
iyidir
sağlama
##baş
kalmak
konuşur
konuşacağım
ikiye
eğr
sistemler
hemş
güçlendir
##mezler
bırakmak
birbiriyle
projenin
2008
keşfe
dakikalı
bant
nasa
hayatımda
babası
bireyler
app
ücretsiz
barındır
slayt
gövde
ch
sel
##ildiği
yaprak
##üzyon
anlıyor
iyisini
sigor
akım
deri
derken
kendisinin
yapılar
resimde
yaşamı
teleskop
bekliyor
yarattı
##vard
hatırlat
kelimenin
çalıştığı
çiftlik
istiyordum
görülüyor
ortamda
duyarlı
polen
pilot
nijerya
miyim
##ie
##fez
##int
##ilde
##masından
yapmalıyız
##tası
##ames
anım
gören
bakmaya
yolları
ölüyor
konuşan
ikisini
##ganda
##ümüzü
devamlı
unsur
arkadaşları
kişiden
gelecekteki
reç
reak
sunum
çarpıcı
evrimsel
görürüz
tanıştım
arkadaşı
vücudumuz
kedi
miz
##ladığını
##ant
##arda
gercek
##ırsanız
##lendi
##leyebil
uyu
istedikleri
sisteme
çıkardı
ulaşım
bilmiyordum
köprü
büyüleyici
matema
ödülü
endüstri
yararlı
youtu
fırsatı
angeles
youtube
zemin
##tel
##eral
##rabilir
##esan
anderson
bilen
##maktır
düşüyor
olanları
yarın
harvard
hakim
##omen
kaldım
devre
etkiler
etkileri
yapılacak
##layabiliriz
tutuk
atlan
problemleri
savaşın
otor
yetersiz
1000
moleküler
kafam
esasen
kalabalık
kasaba
darwin
tiyatro
bür
cana
huz
sk
vay
##emini
ant
insanoğ
ente
veriyorlar
ayda
##akistan
düştü
olabileceği
denet
geçici
maale
##tıkça
yapabilmek
kendimiz
hayatının
terap
üreten
adil
194
geçirmek
yenil
ulus
kullanılabilir
tanıdık
çarpış
iphone
yapabilirim
ötesine
##emeyecek
dişi
yenilikçi
saniyede
ölçekte
şahit
traj
şifre
maalesef
27
lin
ocak
teki
##adü
##gim
##20
##dal
yapıştır
##ürler
başı
başlı
geldiler
##ayım
##cıları
sorduk
##dikten
diya
##sunuzdur
köken
##leyebilir
edeceğim
çevrim
öylesine
belirsiz
ekonomist
miktarı
çözümler
karbondi
süreçte
lisans
damar
kaçınılmaz
ran
##edeki
##ıla
##miyorlar
##30
##madığını
##unca
##tabilir
##amıyor
aldığım
iyisi
koyun
bulduğum
gene
kurduk
döng
##lemenin
duyduğumuz
yetk
örtü
alanlarda
kimlik
izlemek
sisteminin
##larımızla
##bileceğimizi
biridir
çoğumuz
girip
hızlandır
çağı
parçalar
sıradaki
yaşamış
##mezsiniz
kablos
ailesi
manyetik
dusun
##elendir
etkileyen
haftada
resimler
##larınızın
testi
tesadü
alışkan
özellikleri
değişiklikler
mahkum
bayanlar
teşhis
vs
ven
##cusu
##tına
##oya
##vel
##emek
geril
##ırda
işini
##sever
yerin
##cısı
##mayacağını
çıkmak
##oter
sıtma
teknolojiye
dinlemek
sergil
umuyorum
kazandı
calis
ölümcül
inşaat
soka
balıkçı
düşünürseniz
başlayacak
çağrı
yuva
2010
titreş
hidrojen
futbol
cik
cazi
pom
sop
##ğinin
##ole
bulan
##sten
yapın
yapmaz
bunda
##ırız
veriyoruz
aralık
##dirler
##cıların
kullandı
##lenmesi
ilgisi
akra
döngü
dersiniz
##eyif
konuştuk
esna
tersi
etmekte
##landırma
şirketlerin
reh
kontrolü
salın
##lerimizden
kesim
##üydü
kullanılıyor
doktora
olasılık
çoğunluğu
yumuş
damla
rusya
redde
iskelet
manzara
global
cis
keyif
pem
çak
##aa
##mo
##miyordu
##yeni
birileri
##tığında
##biliyorlar
inti
bilinc
aldılar
kenara
orke
düşünelim
açan
sürdü
yoldan
gitmeye
örgü
durumlarda
sistemine
##türü
yaratı
üstelik
internete
koleksiyon
cali
kilis
benzet
spek
hücresi
halkın
tavuk
devrimi
bileşen
nitelik
grip
sözcük
bayağı
örümcek
refah
bla
cr
hil
nden
oz
obama
rok
ümit
şik
##ny
##ğimiz
##yabilir
görebilir
bilem
##diğinden
işlerini
vermiş
yanlı
kullanış
doğuş
değişiyor
ayna
özür
söylemeliyim
milli
##leye
duyduk
tarafa
açıklamak
giriyor
noktalar
oluyordu
kaynaklı
##luğun
olaylar
hastalar
birleşmiş
ettikleri
simetr
zararlı
krizi
hapishan
göğüs
bra
dra
fili
ötürü
##mesiyle
##pe
##anya
def
amazon
yerinden
yaşına
bulmuş
çıkacak
##iliğin
parma
##bağa
gösterdiğim
söyledik
aday
hastanın
sonuca
onlarca
fikirlerin
koltuk
dikkate
öncesi
istiyorsunuz
giderken
nasil
pazarlama
seferinde
imkân
##ologlar
olunca
charles
cumhur
kablosuz
hev
pakistan
ret
silik
yiy
##cik
##liyorlar
##rana
##beri
##enekli
##ona
iniş
##amp
işit
değilse
yüzü
evi
siber
##luğa
##ört
ilkel
başkalarının
duyduğum
oluştuğ
istediğini
olduğudur
olursunuz
kadınları
sera
şirketleri
annesi
görebileceğiniz
##emizde
hükümeti
bitirmek
torun
direnç
nano
1960
cennet
dunya
##portaj
röportaj
james
lat
mam
##liyorum
##ital
##sül
##wn
##ladığım
##irkin
##ora
çoklu
alz
yanıl
##sunun
aslına
döndü
gözler
ilgilidir
türleri
tutan
bulunur
deneyimi
tahr
fotoğrafçı
ayrıntı
##ebileceğini
babamın
protest
oper
animasyon
başlangıçta
nota
pişman
şifr
sihirli
otobüs
huzur
coc
eger
hu
miydi
sw
çub
##cını
bulama
bildiğim
##ultu
yarıyor
##elerinde
sanıyorum
çocuğa
orası
yarasa
yazılmış
##sızın
girer
çıkart
kızların
oysa
belirgin
alaka
internetin
soyle
yapmaları
dakik
doldu
genişlet
sınırları
alıyorlar
teslim
tatmin
dağılım
kalkın
koku
1990
felsef
endüstriyel
arazi
kabiliyet
çözünür
atar
dâ
ust
##lör
##tiy
##tınız
##sinden
##gesi
##eyecek
orij
yıllarca
anlatır
doğur
denir
##eceğimiz
sahil
topar
parti
paranın
fazlasıyla
duyur
##memi
tarzı
yapısı
yazdı
çeker
çekim
##ıplak
topluluğu
tutun
sesler
düşünüyorsunuz
toplumda
çizim
hayvanları
otomo
##müştü
taşıma
kullanıla
doktorlar
alınan
yükselt
yolculuğ
##tıracak
gore
limit
danışman
karbondioksit
bede
eli
fı
şer
şap
##ane
birim
birisinin
buda
bulabilir
##imdeki
##haz
##inizden
düşünen
değişen
diyal
kurgu
kılan
oluşum
gözet
rad
kucak
##sızlık
yürüyor
ürünler
keşfettik
felç
##oyu
oğlum
##spektif
yunus
dehşet
medeniyet
yumuşak
bez
ceb
tetik
çim
çirkin
##cisi
##irsiniz
online
##üldü
aranız
çalışmanın
baktık
bulgu
sürpr
##lenin
sigara
##ımızdaki
kayda
##usuz
##düğünde
inanıyoruz
##umuzda
ertesi
diyecek
çıkarıyor
güvende
parçalara
açığa
bölgesi
kırıl
2007
2009
geliştirme
oturan
anlatmaya
dizil
çevresinde
evrende
##heimer
gezegende
bahseder
taşıyan
meyve
çalışıyordum
geleceğe
##memişti
keşfetmek
##duğunuzda
detaylı
seyirciler
direkt
şurada
itibaren
sermaye
##iliğinden
efsan
hek
lük
meme
pre
ray
tho
çor
çıplak
##yü
bire
##lie
biliş
geliyorlar
vergi
istik
aslan
büyükann
harcan
süreli
okur
##masıyla
tarla
olacaklar
gördüğü
yaşadığım
kararlar
bölgelerde
bariz
elektron
tedar
olmalıyız
perspektif
##edia
gerçekleşen
enerjiyi
##skob
memel
sıcaklık
şeklini
finans
beklent
sahnede
bağışıklık
1980
micha
komplek
yurt
lezz
itiraf
francisco
roket
con
diyordu
est
ndan
ros
yil
çip
##tes
##mik
##idi
##so
##him
##malarına
##akar
##ilerde
gelmişti
istey
##laşmış
evin
evlilik
günümüz
##ücük
duyul
beledi
amp
merdiven
##leştirme
çama
içeriyor
kazanmak
fırtına
öncesine
kitaplar
ilaçlar
haritası
elektrikli
##lywood
öğretmenler
şiddetli
liste
ekranda
amacıyla
pasifik
empati
görmezden
##lavuz
thomas
jon
##sinde
neş
##mediğini
gidiş
bizde
olabileceğ
##ceğimiz
kadarıyla
mahr
şekillerde
durup
zorun
kortek
gittiğini
sudan
##ydılar
değiştirebilir
edilemez
olabilirler
kızın
müziği
koyu
yayım
mart
çeşitlili
okudum
otel
##lerimizde
##ozor
aşağıda
yaratıcılık
brit
kurumsal
memur
protez
bakteriler
##meyiz
körfez
frek
malzemeler
topluma
utanç
yirmi
adeta
esa
gps
tey
uzer
wat
şük
##cinin
##ac
##ko
##kür
##yol
##ander
##larin
##uncu
##denin
olacağım
##opar
kola
aktör
sahipti
kapsa
##mesidir
eşim
dinozor
yarattığı
oyunları
yaparlar
hastaların
hastalıkları
hizmeti
simdi
makineler
co2
obez
arabanın
savaşa
golf
şempanz
alzheimer
yır
çelik
öden
##tle
##sim
##ble
##dını
birinden
##madığımız
##emde
göreme
göreceğiz
sizlerle
bakıyoruz
##mişler
aslinda
dönelim
kılavuz
sıt
kapital
raf
ispat
bulunduğumuz
parçasını
bıraktı
toplumu
dikey
bekleyen
gençler
havaya
anlattı
kültürü
görüntüler
ilişkin
iletişime
hoşlan
mesajı
dağıtım
##seydi
baylar
uyandır
##ation
steve
konferans
sermay
büyüklüğünde
gerektiğine
motivasyon
şarap
macera
apple
şikayet
ul
öm
üye
##elerin
##gra
##şeye
##aktif
##lediğimiz
##lanmak
##biler
görmüyor
insansız
##saydı
arayış
orda
düşünerek
##uyuz
kullanmayı
mav
##leşmiş
hakik
buradayım
izleyen
türde
çekiyor
yardımı
keşfede
##ilmişti
videoyu
devletleri
istiyorsak
muhtemel
balıkları
hapse
heves
çamaşır
65
aşık
lok
og
çat
##bası
##hri
##düz
##stin
ini
benlik
##mekle
##alık
gelmez
önyar
kader
arş
##opter
açıl
sürücü
##lenebilir
##dikçe
şimdiden
sanmıyorum
dolay
konuşurken
öğrenmeye
gülüşler
kapak
çoğunun
yaradı
çekti
##istiyan
##unuzun
üretimi
olmakla
soruya
bölgesinde
okumak
##larımla
söyleyeceğim
##dakiler
keskin
##emizin
hücrelerin
arttı
derinlik
gizemli
ülkedeki
çalışıyordu
enerjisi
sanatı
annemin
beklenmedik
sahneye
çılgınca
biriktir
olumsuz
keresinde
enstitüsü
somut
sigorta
orkestra
orijinal
fiya
gemi
şun
##lye
##aba
##meni
##yn
##sti
sag
varmış
taşır
enstr
işley
vereyim
kong
yaşar
##ros
mac
boston
şekilleri
başlamış
yapabileceğimiz
duymak
ihtimali
temin
arkasındaki
poster
nerde
diyebiliriz
değiştirmeye
hikayeleri
düzine
avcı
kısmen
hastalığın
mary
araştırmalar
gücüne
patron
yaparız
yaparsınız
planlama
taşıyor
kavga
cidden
büyüdüm
firma
seyirci
##biyotik
astronom
penguen
sürpriz
michael
bm
fig
hızı
ilan
nu
pi
resif
tün
vası
##usa
##eliyiz
##emiyor
##ember
##med
etmesini
insandan
istekli
zamanki
ardı
deneyi
açar
boyle
##tiğiniz
ölçe
dog
küçül
##gide
müte
katına
gezin
projeyi
alabil
saatlik
hatırlayın
tarihinde
etrafındaki
kısmında
kitapları
görebiliyoruz
perde
liderler
##landıra
cihazı
##lerimden
fikrin
disip
market
iğne
ışın
jenerasyon
silikon
radyasyon
tedarik
col
dh
##nes
##cim
##tlar
##lamamız
biriyle
##imp
yahu
demişti
##emiş
##uman
etmeniz
etmiyor
önde
yansıt
değildim
dünyadan
##lenme
##içi
paris
fazladan
##bire
##masıdır
kendiliğinden
gözle
oluruz
getirdik
çoğal
ülkeye
fotograf
beklem
kazanç
ilacı
yaparsanız
görüntüsü
gidiyoruz
dışarıya
yukarıda
başlangıcı
teori
##tığımda
kuvvetli
yeteneği
nöro
donanım
sanayi
higgs
fit
krom
uf
##eç
##sünü
##onu
##ondu
dalış
incil
herbir
enter
gelmiyor
işleme
vererek
çıktık
##diyorum
##ebiliyoruz
duyuyorum
yetenekli
istediğimi
edebileceğiniz
konular
kızım
ağız
deneyler
problemler
fotoğrafları
##ozom
devletin
heyecanlandır
gizem
acıma
başardık
tehlike
tatil
herşeyin
edeceğiz
gittiğimde
nüfusunun
vadede
liberal
sınav
pembe
bilişsel
32
süz
star
sch
yed
##sc
##larsanız
##landığını
##emeyiz
içgü
##sanın
dahası
##cağınızı
etmez
##diğince
veriyorum
konse
##lıklı
yerli
##ceğiniz
doğan
güncel
##sinizdir
mali
yolun
derdi
kalmayı
özen
çocukluk
önemsiz
istediler
edersek
suda
kahv
değiştiriyor
##ünüzü
çözmeye
atmak
tekrardan
kabuk
fotoğraflar
dilim
tarihte
modeller
ilişkili
çözümü
güneşin
neydi
tabiki
gerçekleşiyor
doğada
frank
uyumlu
meşhur
beslenme
şüphesiz
pasif
öfk
puan
sıçra
mürekk
protesto
cö
gre
nı
yep
##fı
vesa
kaş
##lanıp
içiniz
tavan
düştüğ
##likler
çalışacak
hayali
tanın
yollarını
##otek
dolardan
hepinizin
edebiliyor
inanın
etkisini
olurlar
türler
yapısını
ism
tasarlamak
esin
noktaları
koyduk
istersiniz
hazir
##luğunu
yılan
gücün
anneler
odadaki
bang
gezegendeki
solu
okyanusu
söylüyorlar
gerçekleşti
vücudun
girişimci
psikolojik
boru
piyasaya
kilometr
kıyasla
kusursuz
##mert
umursa
otorit
filistin
cömert
bük
diyet
elem
jim
nis
rön
çam
ömür
##ula
##vir
bira
##lel
yatan
##lanmaya
##sıyor
##ity
##ırsak
işten
olabiliyor
anlatı
kullandım
hariç
açıp
tanesini
gösterilen
dönmek
mutasyon
yapabiliyor
koruyucu
gitmiş
tarayı
alanın
yapılabilir
çekildi
noktasına
yapmakta
oluyoruz
değerler
yaratma
yarattık
ekonominin
alabilirsiniz
şaş
söyleyecek
hani
benzin
modelleri
##üncüsü
kuşlar
yavaşça
mikroskop
bilinmeyen
oğlu
kardeşim
minik
düşüncesi
kitabın
kalite
kentsel
alex
stüdyo
rehber
kullanışlı
dâhil
yepyeni
vesaire
##zi
##ja
##fil
##larıma
bilmem
neg
##inizle
yaşıyorlar
iyice
gösterdiği
dersi
eksen
uygar
gitme
göze
ismini
dışındaki
değiştirecek
##unuza
terim
edilir
birçoğu
##veren
bekler
bilgisayarın
reform
tasarımcılar
yazılı
##lanmıştı
biçimi
hastalıklar
anlaşma
riski
geçmişe
sağlayabilir
ödey
ileride
250
pant
öğrencilerin
mağaza
hamile
ekipman
kaybediyor
1970
milletler
çıkarıp
peter
çığ
lezzet
azı
helik
mum
set
yon
şar
##mar
##sür
##dilik
##irsek
##arş
##ikola
olimp
##lanmamış
##biliyorum
biliyorlar
başından
##ayıp
veric
arasından
gerçekçi
evine
açmak
elimde
selam
dönüm
derler
derinden
gözleri
şebek
##layabilirsiniz
güver
noktasında
resme
uzunluğunda
üstü
##dilerde
sayıları
koyuyor
koydum
sıkıştır
problemin
sözlük
rej
oranları
beyninin
robotik
olmalıdır
hizmetleri
oynamak
halkı
görünüyordu
tüketim
tüketici
kira
kurumlar
ayırt
unutmayın
bulabilirsiniz
birdenbire
lise
arabayı
hipo
zira
hediye
üzgünüm
entegre
kırılgan
kromozom
36
ex
fre
pis
pri
raki
##pi
yaya
##ons
konuyla
olmasından
düşünmemiz
yaşın
elini
belge
##ometr
yapamaz
konuşmanın
ergen
getirdiği
kuma
mola
bunlarla
yazma
diyebilirsiniz
eseri
yaşamaya
unu
birbirlerini
bölgeye
projeye
metab
çeşitliliği
sözü
oturuyor
konuşmalar
geleceğini
##ebileceğiniz
yoğunlaş
yıldızların
hâline
uzmanı
maliyetli
zehirli
kuyruklu
nazik
omuz
belediye
ali
atış
femini
kâr
sön
wh
zıp
şov
##ade
##kinden
##iğini
##gis
bulacak
##ikip
##esiydi
anki
onda
işçi
verebilir
düşer
olacağına
##utan
düşündü
sizleri
bulup
maya
çocuklarını
çocukluğ
uydur
##lüğe
sevimli
##leştirilmiş
mısınız
tutuyor
ressam
1950
ulaşılabilir
yaratmaya
2005
refer
yapıyorsunuz
destekleyen
##emize
meraklı
alırsınız
seçimler
silahlı
amaçlı
izleyici
mülk
kapsamlı
istisna
senaryo
çözünürlük
otomobil
ağın
alay
hom
mana
nob
çuk
##ct
##ulan
##mesinde
##bre
##irseniz
##ilecek
##üntü
##dıma
##lanarak
##umdan
anat
##itir
##olik
etmeliyiz
işlerin
##azor
verip
verdiğim
yaşımda
şimdilerde
elimizdeki
sand
aynısı
nedenini
##ott
yapacağını
çocuklarla
bazılarının
edebilmek
post
bugünün
terc
##vanın
kazanan
ettiğiniz
etkiliyor
merkezine
geçenlerde
olmalısınız
rengi
görevli
görebiliyor
taşıya
##larınıza
uzayda
geceleri
düşünürken
binalar
yapıldığını
ağaçlar
havalı
dağıt
##tığımızda
##seydik
hastane
bahsediyoruz
olabildiğince
##ografi
versiyonu
hacker
ultra
önyargı
feminist
eh
lev
meg
şab
##ota
##ord
yatıyor
batar
##liy
##uluyor
insanla
gelmeye
##sundaki
çalıyor
sizce
doğdu
günler
başladığımda
kuran
dönen
derek
çocuklarının
##memek
gelişmeler
yapılır
müsa
katil
hücrenin
dinazor
araştırmaya
değerleri
kararlı
duvara
biliyorsun
mutfak
söyleyebilir
kolu
olayları
görüntüleri
çiftçiler
resimleri
tanıma
engeller
seyret
burn
büyüdük
yaptığımı
##usta
lazer
optik
##süel
feder
bitkilerin
amerikalılar
titan
gerektirir
gerektiren
üyesi
muhabir
rica
antibiyotik
pompa
akraba
bg
fu
if
mr
yoz
##ilmemiş
##yali
##etri
basar
göl
yapımı
##iydik
anlıyorum
biliyordu
başıma
gibiler
yangın
yanımda
büyüyor
düşünül
yaşlarında
bob
gösterecek
bilgilendir
insanlarda
öğrendiğimiz
inanıyor
alanlara
ülkeleri
##icileri
takı
yaşadım
##liğinden
##sinda
2004
düzenleme
öncü
olayın
kabullen
ilişkilendir
ağacı
hesab
eleman
##mamıştım
ucunda
nüfusu
panel
çekip
ödüllendir
incel
reddet
italya
dakikalık
##hazırda
mürekkep
hipotez
chi
hr
log
##mm
##ymış
##bak
##bel
##oli
##madılar
buhar
bag
haiti
haberi
inana
değin
##ilerim
istiyordu
org
yüzeye
yardıma
başladığım
tümüyle
ekim
yapabileceğiniz
kaygı
ikiz
ikisinin
seviyor
hayatında
getirecek
temeli
mod
yazmak
ülkeyi
##leştirmek
bugünlerde
kötüye
oluşturduk
müzisyen
metin
##ego
şehirlerin
tarihsel
gücünün
dizüstü
düzenle
yaparsak
çevreye
planı
odaya
bron
teorisi
bulabil
umutsuz
olmazdı
meselesi
sürecin
galaksi
aptalca
##cinsel
maddi
yuvarlak
deprem
çubuk
700
iv
mini
sü
uganda
wil
zıt
##siyle
##ovasyon
##doğu
##feri
##şet
##irim
##anti
##larız
##lerimin
##stat
hamur
inovasyon
##larıdır
##uşu
istes
bizlere
aramaya
kulüb
kullanıyorum
evinde
çıktım
açıyor
gerekecek
dib
döndüğ
kaldık
kaybı
inanc
kaplı
türk
getirdim
ediyordum
girdim
bahçe
##ünüzde
resmin
takımı
mutlak
rezer
hatırlıyor
interneti
sola
pata
roma
keşfettim
enerjinin
karaciğer
işareti
kurtarma
kurtarmak
hastaneye
piram
mülteci
californ
diyalog
##otekn
anatom
ajan
hita
küp
tö
##ucak
##top
##bür
##ünç
vardım
almayı
işliyor
gecek
verildi
##araj
aralarında
kons
##yıcı
yanındaki
##mayacağı
elinizde
değişir
değişimin
santim
başladığı
ekolojik
ekstra
hepimizi
yetecek
yönden
inanmak
hastası
üçüncüsü
getirmeye
sentez
çekilmiş
altından
##unuzda
##berg
adındaki
kaçınız
paralel
sayısını
##uğu
bekley
biliyorduk
oyunun
uygulamaya
sekilde
geliştirdik
tepe
##manıza
taşımak
baktığımda
sunmak
davranışsal
döneminde
ilgilendir
##ülüğ
seninle
anlatayım
2011
aktivist
telif
uzaya
mesafe
sandalye
muciz
##ropik
düşünmüyorum
numaralı
latin
disiplin
içgüdü
nobel
28
800
dor
ero
güm
ox
odanın
pm
süs
val
willi
##niyet
##eğe
##luyor
##ğinden
##by
##ero
##umet
yapmıyor
##amin
##ıldığı
varo
varlığını
etmeden
kadına
bakıyorum
anlatan
kov
##mışlar
dünyasına
günden
tanık
toplama
diğerlerinin
eklem
önems
edebilecek
tartı
gözlük
ülkeden
gördüğümde
eşcinsel
yaşayacak
ulaştı
kötüsü
bırakıp
filmin
duyan
öğretti
şehirlerde
otizm
kolaylıkla
yapmadan
çaresiz
bağlıdır
soldaki
tabak
##memiştim
dayanıyor
mikrofon
sınıfta
gali
düşünürsek
simülasyon
özgürlüğü
vurgu
sırf
öğrencileri
yaşanan
denedim
rio
juli
algoritma
adapte
elbis
anımsa
26
kâ
kimi
ndeki
çikola
##mamak
##ürüz
göreceğiniz
alçak
entel
##azı
kongre
soruyor
buldular
denek
aça
gereksiz
hayati
##iliğe
mag
yollarla
küçücük
alkol
görünce
hayli
kule
yazan
girmek
topluluğ
mısın
mıydı
üretilen
resmini
düşünüyorlar
arkadaşlar
söyleyin
##hattan
yılım
kelimeyi
yapmasını
çıktığı
emniyet
tanımlama
boyutta
buzun
gidiyorlar
stre
yukarıya
demokras
eşitsiz
şarkısı
diyen
akıllıca
seviyesi
finanse
yayılan
uzağa
şehre
ısrar
mekanizma
bozukluk
hollywood
vadeli
ısınma
oldugunu
favori
kastet
intihar
esasında
figür
enteresan
helikopter
federal
atıl
cha
ebo
hile
sesin
seti
tropik
##ag
##sha
##bın
##dilen
olgu
##lantı
##emeyen
satır
satıcı
içten
bili
varken
##ilerinden
kararı
yerdir
düşündür
yüzünü
kullanıldı
evden
buluyor
açlık
zordu
oluşmuş
görünt
alanına
hayatları
türlerin
rah
##iste
değiştirebiliriz
çıkaran
kandır
yaşadı
sonuçlarını
müziğin
bırakıyor
metro
##ografik
mutsuz
okumaya
yakınlaş
tasarımın
##lığından
kaynaklar
##ilmiştir
##törü
yazıcı
virüsü
rekor
kaybetti
farz
seviyeye
hamil
sabır
minnet
kavramı
yaratacak
laboratuvarda
bankası
aktivite
noel
çöküş
grubun
basınç
ceo
krali
hollanda
hangisi
bıçak
mizah
enstrüman
acımasız
hristiyan
gun
hic
kis
ms
nic
rüş
sip
ti
vb
yitir
şeri
##oo
##ardo
##değer
##iksel
##ızın
içe
##tadır
gergin
varlığı
başlarına
##mektir
alması
geliyoruz
karı
verg
gerçekliği
yaşta
bakıyorsunuz
çıkarak
şimdilik
elli
uzat
topu
ayni
yoksun
yolsuzluk
başladığımız
kurmaya
kalmıyor
tümü
kaydı
uyuş
duyduğunuz
tamamını
izlen
izliyor
gelişimi
yapıcı
birazdan
##icilerin
mıyız
tuttuğ
bulundur
bitiş
öylece
195
güvenliği
koydu
manhattan
##sinler
##mamızın
martin
##ılmıştı
daire
yönetimi
olmayabilir
desteklemek
##ling
götürdü
gidelim
üniversiteye
riske
ipek
enerjiye
algılama
yıldızlar
fikrine
bebekler
öğrencisi
farkındalık
isimlendir
kumanda
strateji
##brid
obje
bölgelerinde
pirinç
klini
kaybede
çevrimiçi
cocuk
hakikaten
çukur
şablon
bf
cil
gat
hi
pam
seri
öbür
##nam
##eder
##ris
##pet
##ille
##maması
##lığım
##yalım
dah
##ışı
nehr
gidin
gelmesi
aygı
arac
sorduğum
##esidir
##alim
doğası
geçip
değişime
##lamalar
##meyeceğim
döndük
ekley
yapacağımız
kişilere
korid
tamamiyle
##tımı
alanının
izleme
##umuza
##eliği
yapıyı
yaramaz
pound
##esince
seçil
##ınızdaki
çözül
bittiğini
kızgın
yaşadık
##cağımı
bilgisayara
geçirdi
aşamada
örnekleri
ürünün
2006
pas
bardak
cevaplar
##lerimizle
haberleri
görüntüleme
korumaya
olmalıydı
taşına
emisyon
boyutu
incelemek
hesaba
ağaçları
hastanede
içeriği
sokakta
potansiyeli
##balığı
ritim
işlevsel
miras
sentetik
gsy
benzediğini
canavar
negatif
california
çikolata
33
ph
qu
usta
wor
çember
öv
##cesi
##liyordu
##lekli
##we
##lası
##inson
##iri
##masi
##emiyet
##ımdaki
yapmalı
##isindeki
##ırdı
onlarda
etken
enj
işgal
aramak
olmasın
olanların
##arket
##ald
büyükbab
bot
##tiğin
toplamak
kurak
kalmadı
kalıntı
kayak
##osunu
##ınızdan
yapmaktan
eşi
ulaştır
maka
bekleme
genelinde
savaştan
eğitime
koltuğ
yıla
bastır
kelimesini
grupları
kısmına
odası
çıktığını
bank
beraberinde
alındı
dayanarak
yolculuğa
riskli
mutluyum
sessizlik
haliyle
mezar
##eğim
aydınlat
severim
nadiren
yenilenebilir
şiddeti
insanoğl
istikrar
tünel
street
95
alık
th
çey
##lum
##dr
##graf
##arator
##lerek
##lediği
##ızda
inin
şeytan
##ıkna
karın
verilere
temas
olanlara
##laşıyor
##ceğin
asit
##ruğ
süresi
##lenir
gösteri
aynısını
kıy
##tüel
ölmüş
edemez
görünmüyor
##tran
bec
giren
hareketli
hikayem
sorunumuz
sesli
seslerini
deneysel
hiçbirşey
ailenin
ekonomisi
oyunlar
öğretmek
fotoğrafını
isterdim
söyleyeyim
gezegeni
bakınca
ilişkileri
çiftçi
abar
yarısını
aşkın
kalanı
robert
yoğunluk
eşitlik
ağaçların
120
başlangıc
oynayan
yıkıcı
bakımından
prensi
denemek
emekli
tekerlekli
peşinde
duygusu
öfke
sunucu
restoran
muhafaz
imparator
arkam
dramatik
kompleks
batarya
gecekondu
bilimada
##ıknatı
ira
van
yut
çür
##rek
##tis
##yınca
##lata
##lemiş
desen
kazı
##atçı
##tig
vermesi
bizleri
büyürken
yılına
anladık
iyiydi
büyüklüğü
buluyorum
süresince
ellerinde
male
sağa
durmak
aksi
söylemem
konuştum
azın
edebi
yapılandır
kahveren
isviç
##layacağız
çıkardık
güçleri
kaçak
ulaşabil
zorundaydım
aileleri
hafız
projede
eğitimli
programları
programlama
dikkatini
##artman
yapıyordu
nesli
vadisi
istemem
istemiş
kavuş
kullanılır
gidebilir
##landığında
verirseniz
yükseliş
kurulu
eşitsizlik
hücrelerini
ışığın
atalım
seviyesinde
böcekler
tedavisi
hiper
denedik
kalırsa
zinciri
nesneler
bulaşıcı
sebebiyle
artışı
kabaca
akademik
lamba
##oterap
gram
peyn
war
çen
##tey
##tok
##iel
##ben
##âl
##larsınız
##aran
saya
##ulması
tac
alg
işimi
araban
sormaya
evlat
geçecek
gerekmiyor
siste
şekiller
şuan
paraz
##batı
başlayıp
göstermeye
akla
kıt
oksit
diğerlerinden
duyuyor
istediklerini
konusundaki
teknolojilerin
yazmaya
anlamsız
belkide
ağlar
paradig
zorundayım
olmasıydı
koyup
diken
bilgisayarların
dilek
tarihin
sebepten
hükumet
seyre
başlıyorlar
vücudu
bilinir
özgürlüğ
ortamı
kirli
medyanın
şiddetin
soğut
adlandırılan
sorumluluğ
masum
bakanlığı
krallık
kısıtlı
bebeğin
ölecek
reaksiyon
gercekten
esnasında
tahrip
chica
koridor
alar
ası
slo
##chi
##ece
##ali
##kop
##çilerin
##arız
butun
hac
##iyse
##ümün
başlık
##cası
once
onemli
almaz
##sah
verdikleri
kadını
##amanın
konunun
yanından
yankı
yerlerinde
##asıyla
kullandıkları
##mıştık
ilgimi
elinizi
değiştiğini
tanıyor
tanıt
##stero
kalmaya
muay
karşıtı
kişiyle
korsan
gittiği
gitgide
yönünde
ikil
inanan
kendiniz
fikre
durumunu
durumuna
yaratıl
güce
biten
oluyorsunuz
##siyi
sömür
keşke
saati
sanatın
havaalan
baska
öncesinde
çalışanları
ilişkisi
robotun
duygular
organizmalar
davranışı
renkler
garanti
defalarca
bireylerin
işlemi
politikacı
rolü
listesi
ayıra
fenomen
kaybeder
partner
##ght
##mith
görünüşe
maddenin
motive
italyan
şapka
haziran
chicago
alem
nat
ndaki
rb
sini
##baz
##oma
##gos
##lal
##ino
birilerinin
##ikler
##amın
bencil
işken
işleyen
işçiler
kartı
yerlerden
##cılığı
çalışacağım
evcil
kodu
kova
doğmuş
yarayan
maç
sağladığı
haklarını
fakül
##dıklarında
okuy
konuşmam
farklılıklar
duyduğu
kendilerinin
ihra
alanların
kaplan
yapıları
yazarı
olacaksınız
noktadan
etmekten
dinleme
sayısız
bölgesel
şirketin
hastalığa
sov
anlattım
denize
ölümü
karşılaştım
istemiyor
gezegenlerin
alıyorum
zarif
ford
alırken
başlayabiliriz
donmuş
olasılıkla
parkı
gerçekleştirmek
çizgiler
yarışma
amerikalıların
torba
fiber
müşteri
##digim
fena
tutkulu
yerleşim
yapabileceğimizi
beton
scott
hormon
çekirdek
basamak
salınım
örgütü
##ational
element
sandviç
hitap
william
3b
cuma
dır
dus
ec
fet
fok
fanta
hy
king
mıknatı
smith
ufa
üs
##eet
##yip
##dom
##bilme
içsel
inkar
anlık
anlıyoruz
nelerin
başlarında
##leridir
taze
işık
verdiğini
verilerin
konus
gerçekler
sorusu
anlatıcı
kole
##eceğine
yolcu
başladığını
böylesine
akıntı
kurdu
##arıma
derim
doz
farklıdır
##ebilme
duyma
azalıyor
ikl
sevdiği
gülüşme
yükse
ispan
##layacağım
güv
yardımıyla
attı
değerini
sayısal
müzesi
düşünüyordu
dönüşüyor
yayıldı
fotoğraflarını
savaşta
şehirleri
gençlerin
ilacın
etkile
araştırmacılar
kolaylaştır
kelimesi
bilirsin
çevreyi
uğr
gezegenler
filmde
krist
boşluğu
ilaçların
bölümünü
burun
geçmişi
kuşak
vakti
dönüştürmek
yükselen
kaldırın
fikrimiz
kaybetmiş
kalkıp
beklentiler
uğraşan
olmadığına
2012
dansçı
askerler
fabrik
sinyalleri
ameliya
konuştuğumuz
azaltmak
ırkçı
parçayı
eğiliminde
belgesel
ilgiliydi
varoluş
büyüklükte
hemşir
başlıca
pişmanlık
aranızda
estetik
britanya
frekans
ogren
tören
oxford
minnettar
beceri
astero
cm
goz
jet
lg
sün
##ele
##ğimi
##ii
##ica
##gon
##ward
##lamam
##iro
##une
##eyf
##bilmesi
hawa
##iyo
anten
gereği
benliğ
tabir
aldığını
hergün
kibar
##likleri
çalışıp
yaşlanma
iyiye
iyilik
doğayı
durak
durur
kaldılar
doları
karşılığında
sığın
tarafına
edemeye
adama
bütünüyle
çalışmasını
##elenmiş
##iyatr
şair
okuduğum
##tıyorlar
anaya
cas
arabaya
karşılaştığımız
##asyonu
olayların
fizy
çıktığında
görebiliyorum
tanıya
ülkelere
bölümünde
öldürül
evrimin
miktarını
kurulmuş
kirlilik
ağırlık
ödev
olasılığı
havayı
geçerken
mühendisliği
hükümetin
içeride
öğrencilere
stanford
ölçekli
gizlice
devreye
gerektiriyor
koşullar
gazeteci
sapta
silin
kalitesi
##kırı
sinema
bağlamda
harikaydı
dağınık
atlantik
şerit
çamur
referans
rüşvet
gsyih
sovyet
ispanyol
3d
eti
lak
my
nik
sm
tsun
ucu
we
öp
##market
##kil
##fel
##vu
##ardı
##izin
##okul
##emesi
##işleri
yapının
##amış
##iyop
##ılda
##mediler
kongo
soruna
geçtim
gündüz
sant
##tiklerini
başladığımızda
bilgisi
diğerlerine
başkaları
konularda
ederseniz
çektim
beyinde
beyindeki
edildiği
çağında
milyondan
191
ağları
ulaştık
paraş
##malıdır
oluşturdu
sayılır
koyul
bıraktım
umuyoruz
bölgenin
bölgeleri
duvarı
geçiren
geçiriyor
şahane
interaktif
erkeklere
paylaşım
biyolog
basla
kelimeleri
dolusu
koruya
istemiyoruz
göndermek
icinde
tanımlamak
götürüyor
##menize
dışarıdan
kuşa
yakalamak
büyümeye
oynaya
##madığınız
çağdaş
mühendisler
özellikler
yıka
bakterilerin
popülasyon
##oft
zekice
##lamazsınız
acayip
nesnelerin
evreni
katılımcı
iğn
enfekte
olmasaydı
gürült
imalat
sevgili
duymuşsunuzdur
piyano
favor
aramızda
antark
cumhuriyet
fiyatı
konsept
patates
sipar
ailen
big
huy
homo
sül
##zaman
##bya
##arsınız
##ill
birimi
##lerime
##izmi
##dığınızda
kaste
##lanın
anon
alb
##biya
entrop
veriye
aykırı
orig
düşünmenizi
yaşıyorum
yüzeyi
çıkmaya
gereksin
eline
tanımı
##ımızdan
sec
##lamaları
##baba
kurdum
kurbağa
özü
hakkinda
konuşması
bağlayan
sistemimiz
yaza
yazıyor
isyan
diyebilirim
gübre
binayı
anlamında
sorunların
bulunmakta
üste
sonuçlara
üreme
2003
2001
##larımda
yürürken
ilginçtir
geliştirmeye
kombin
öncülük
çevremiz
başladığında
sebze
evrendeki
hastalıklara
person
yaşındaydım
ilgilenen
##gah
adımı
büyüdü
haritasını
doğaç
ciddiye
odaklı
yapabilirler
temizlik
harcama
batılı
giyin
##barat
saldırgan
yasası
üzücü
yaratabilir
felci
kaldıra
erişimi
carol
bakanı
çabucak
bilmiyorduk
iğren
peşinden
amacımız
brook
hayatımızın
imaj
klip
olimpiyat
rakip
kahverengi
antarktika
sülf
atan
bri
ica
traf
wikip
yla
##rey
##tte
##ydü
##bik
##hh
bush
##lerseniz
kaide
##tığınızda
baca
##uzu
##iyon
andan
çokça
işine
olalım
arjan
sizlerin
bakarken
evvel
çıkmaz
güne
##eceğimizi
elma
sağladık
dönük
kısal
konuştu
konuşmamı
başkasının
gözlerini
getirip
yazdığı
##layalım
##liğiyle
beklemek
isterler
boyn
uzaklaştır
kaynaklanıyor
fırla
ölüme
inşaa
##cilere
pater
hayırsever
hastalıkların
küreselleş
ışıkları
düşündüğü
davranışlarını
rota
vakt
görüldüğü
cinayet
brun
tanıştır
##meyle
rüzg
başarısızlık
kuralı
başlattık
step
tweet
kuyruğ
dinleyiciler
nesneleri
klav
toprağın
düşündüğünüzde
viet
şempanze
doğuştan
dogru
vericiydi
kumaş
galiba
pamuk
sistematik
wikipedia
aj
asan
cal
fed
geni
kg
lob
led
şiz
##üel
##ud
##ojen
##laka
##labilecek
##larlar
##ildiğini
birşeyi
##eksüel
##eter
görüp
nehri
##ıldığını
##inizdeki
##diğinin
karn
ill
gev
olmalarını
düşünebiliriz
arıyor
çalışmıyor
sizde
yüzen
evlerine
haric
ellerini
duruş
##lemesine
önemini
##ebileceğim
inandır
görünüm
##duğumu
##bileceğiz
arkasına
beyne
ispanya
hareketin
##sınızdır
topluluğun
değiştirir
hızda
fikirlerini
parçalarını
parası
bilgisayarı
düşünüyorsanız
filoz
yarattığımız
sanatsal
okullar
internetten
otoy
yöneten
telefonları
bahsetti
banyo
alıyorsunuz
bağlantısı
solda
götürür
sakat
uzayın
balıklar
görülmemiş
##atura
ilerliyor
uygulamalar
leon
hükümetler
##seydim
cambrid
gerçeğe
zekâ
söylenen
endüstrisi
portr
halihazırda
düğüm
başlamadan
nakli
malzemeleri
aşamasında
hatırlatıyor
hintli
flori
kanıtı
istihbarat
alakası
solucan
rönt
oksitos
vietnam
filozof
cap
elit
fan
ları
win
##ug
##uv
##ty
##tara
##dola
##fre
##ansı
##lediler
##iştir
indi
##tabiliriz
vardık
onar
etnik
alına
##tecek
olduğuydu
enz
geldiğimde
vermeyi
tela
değilsiniz
düşünecek
düşündüler
çalışmamız
bakıyorlar
sordular
##mışlardı
sürüc
ilgisini
##tiğimizi
param
kurma
kalması
okum
doların
köt
çocuklarımız
çocuklarım
##ebilmesi
hepinize
sahipsiniz
başkalarına
gittiler
durumdan
kimliğ
beat
yapıya
##istir
seçimi
üretiyor
noktayı
anlamını
güzelliği
halini
filtre
birbirimizi
kutbu
arabaları
yapıyordum
yaparım
kültürün
##low
filmler
gazı
bağlantılar
solun
buzdola
gidiyorum
şaşırt
hoşuma
canlılar
##ebileceğimizi
goster
başardı
kafata
faydası
##halde
savunu
kapıyı
fırsatlar
gruba
sitesi
salgı
çiğ
kapasitesi
oluşturacak
arılar
micros
metrelik
tutarlı
bildirim
mucize
wall
mobilya
hediy
öğleden
coğrafya
ömr
vasıta
primat
peynir
cambridge
florida
85
alama
kel
kev
şö
##canın
##tının
##ğiniz
##indan
##anızı
birimiz
##imet
##imdir
##izmin
insa
görelim
görmeyi
görülebilir
##ılmaya
##ıldım
herhalde
karo
arasına
olanlardan
yerçek
yerdeki
arg
yüzüne
anlamamız
kullanılmış
mask
diger
sağda
şubat
sahra
##lamasını
genleri
genlerin
##bahar
zorla
özünde
yapabileceği
karşılaya
yönü
önemliydi
ört
üçgen
izn
getiril
rady
yapısal
çekme
hemfik
hareketler
güt
değiştirerek
tutum
edildiğini
hikayelerini
yaklaşımı
bulunmaktadır
2050
toplumlar
birbirini
metod
##memizin
savaşçı
dilin
otuz
kutusu
eğitimin
oranla
çalışanlar
yapıyorsun
hastaları
ağacın
yaptığımızı
hayatımızı
ülkelerdeki
okyanusta
alınmış
öldürücü
yorker
##hammed
misyon
ekibi
aletler
masaya
şehrinde
beceriler
timsah
stratejik
cerrahi
şuradaki
emeklilik
şeffaflık
volkan
bambaş
trajedi
alışkanlık
spektr
opera
ampul
kapitalizm
ebola
ufacık
arjantin
bambaşka
29
aleti
beye
blu
fev
hel
tran
vic
zem
##ıv
##arsanız
##day
##onot
içlerinde
##isy
tadını
gelmeden
geometr
verita
istif
bizlerin
arayan
konsan
arist
yüze
denemeye
yararı
dünyasının
sağdaki
##leşiyor
##tiğimi
kurş
derine
söyleme
dola
duyuyoruz
küçüm
sevdim
görünmeyen
etkilerini
hayattaki
türün
açıklamaya
iseniz
diyebilir
adamla
##ümüze
örnekte
fotoğrafta
hayvanın
okuldan
örneğini
##hia
olsaydınız
oturur
baskın
dikkatinizi
dizisi
konuşmaları
bahsettiğimiz
uğultu
##üyü
##ladığınız
götürmek
üniversitede
ilaçları
alırlar
hedefler
yıldızı
ormanı
düşünceler
satmak
binaların
kanserin
anlayabil
silahları
bulabiliriz
süpermarket
yabani
gözüken
değişiklikleri
söylendi
kavramsal
sürecinde
yetenekleri
yosun
nihai
trend
sezon
uzanan
cezalandır
karıncalar
tekerlek
durdura
astronot
kırıklığına
çelişk
geçtikçe
tesadüf
cazib
arşiv
pantol
güvercin
metabol
gates
kristal
şizof
illüzyon
veritaban
duman
gana
hiyer
jh
jer
lap
lego
nick
phil
sha
tuş
zanne
çır
##ux
##zle
##çık
##çilik
##yak
##drom
##izme
yatay
kaça
saman
##işimi
##deniz
antrop
görecek
bilerek
başbak
olduğun
gelmesini
aracın
ormanın
##ceğimi
##ceğimizi
yaşı
evsiz
doğdum
geçmeden
çıkması
##tiğine
##sist
akan
ölür
ekme
konuşuyorum
konuşuyoruz
##leyebiliriz
kaybo
kişileri
öğreniyoruz
tarama
##osferi
ikili
göründüğü
hayatlarının
senede
teknolojiyle
##muştum
tuttu
bitti
eşdeğer
dinler
oluşturduğu
##üsünü
koyarak
avuç
gezgin
dönüşür
bilgisayarda
birbirimizle
yayılmış
##ogram
##tıyoruz
paylaşa
etkiledi
gelirler
etrafa
haftalık
tepesinde
##lanmıştır
##larınızla
kuzen
davranışlar
ayrılmış
liderleri
hedefi
##erest
saray
ormanda
misaf
demokrasinin
başarmak
karade
yapıldığı
##lerimle
kurumların
##ileştir
kafanız
özelliklerini
etkileşime
girişimciler
site
psikiyatr
edebilirim
masada
çalın
arabası
cevabını
hassa
işletmeler
eksikliği
anahtarı
uçağı
gökyüzüne
romantik
amacım
##lığımızı
taliban
hırs
flor
omurilik
istihdam
kalkınma
işleyiş
mütev
kalmayıp
isviçre
beyefen
deyim
kep
sno
ısır
##lop
##muyorum
##ska
##dün
##vat
##veti
##ville
##ws
##ang
birisini
##ordin
olsam
##ımla
halü
##tap
andır
görüle
bilet
şeyde
##cal
sonun
etmenizi
almadan
aldıkları
##salar
##saydık
olduğunca
amaca
vermem
tema
kadin
olaya
düşünmeliyiz
koordin
gününde
yoluna
##ebiliyorlar
bütçe
mide
olurken
hayatına
sistemlerin
sendrom
bahar
olmaksızın
edilecek
sorunlarla
halle
deneyin
makul
yaşamını
bıraka
afrik
##ogra
mutlaka
sindir
benzersiz
dilini
paylaşma
seksi
havadan
söyleyebiliriz
olsaydım
kürek
yapmalarını
önceydi
##artesi
kitapta
odasına
spons
bağlantıları
baktığınız
okyanusa
ettiklerini
öldürmek
dönemi
yöntemleri
kullanabil
tartışmaya
elektriksel
zenginlik
uzmanları
kaybettik
##usunun
teorik
çapta
anlatacak
kestir
mineral
motoru
bayrak
ucuza
molekülleri
##binlerce
##tüğü
şartlar
akışı
akışını
aydınla
dikkatlice
suriye
tükenmiş
alev
toprağı
diyabet
mamm
zorunlu
tarayıcı
şarj
##oteknoloji
insanoğlunun
santral
paraşüt
microsoft
fevka
halüsin
dinin
fren
fatura
mul
şunun
##cus
##udi
##sün
##çu
##çisi
##yolu
birsey
##ünce
##tığınız
sadak
halı
hasat
etmişti
etiyop
##ilerimiz
eninde
vermeden
aylar
düşünmeyi
yılını
##opat
çıkabilir
profil
protok
başlamıştı
gösteriyorum
##olom
kuruyor
deriz
buradayız
söylemiş
söyledikleri
çocuklarımıza
başkası
duydunuz
doğrusal
kendin
sevdik
göründüğ
izi
izole
gelişti
getirebilir
çıkarma
bulunmak
üstünden
etmektir
takıntı
sorulara
paraya
##malısın
oluşturmaya
sayılar
manşet
bölgeyi
dub
metan
geçirmiş
##bileceklerini
ürkü
sinyali
hayvanı
etrafımızdaki
hissetmek
beşinci
denizin
##törler
videoda
hastaya
görüşü
filmini
newton
karmaşıklık
bağlantıyı
##lamayacak
saklı
aşik
gidiyordu
söylüyordu
azaldı
etmeleri
dayanan
yavaşla
renkleri
avrupalı
büyümüş
ormanları
doğaya
galer
düşünürsünüz
çevirmek
##ustur
kurtarı
süpür
ortamında
çağr
##liliğin
dersler
özelliklere
oynuyor
##tırabiliriz
katıldı
yaşandı
rakamlar
böcekleri
jeff
nöronlar
christ
mahkeme
baloncuk
tıkan
##iğinde
karşın
bakabilirsiniz
yönelt
yürümek
transfer
umudu
travma
cazibe
oluştuğunu
green
esinlen
doğaçlama
haricinde
otoyol
ace
bip
cd
fbi
garaj
hum
lere
neti
pit
##nan
##uel
##ila
##sler
##sis
##çok
##dok
##ers
##ines
birisine
##izör
olgun
kasır
##dus
##esiniz
##cede
##ult
başlığı
sonda
geldiğimiz
önlemek
yanıma
yerle
düşünüp
kullanacak
kullanılması
aslı
geçin
topladık
geneti
general
aktarı
##oth
yaptığına
##letmek
##apur
yetmez
ihtiy
adaları
etkiyi
izlem
eric
getirebiliriz
##bileceğinizi
senden
girmiş
dışa
dışkı
üretmeye
aff
bilimciler
193
2020
dinleyici
parçaların
araştırmak
zorundadır
ailemin
bırakın
toplumların
açılış
erkeğin
##lamıyor
isteriz
savaşmak
kazanıyor
berlin
bilmeniz
sof
olsalar
fırlat
basket
ölçmek
çevrede
vadi
görüşme
fizikçi
yaşındaydı
inceleme
inceledik
engellemek
aşina
olmuştum
sınıfa
azalma
büyüdüğ
iplik
mikroskob
tipi
anlayabilmek
tüketimi
aldığınız
ruanda
makineleri
şansımız
##usuna
dersleri
parkinson
petrolün
katılmak
izleyin
seviyesine
terörizm
şekliyle
kimseye
etkinlik
yayılıyor
öngörü
kalitesini
itibariyle
bakabiliriz
kısacası
mecbur
bulmaca
zafer
zaval
##ptom
lanet
sorabilirsiniz
örtüsü
black
defter
yırtıcı
yahudi
lezzetli
enjekte
sponsor
protokol
dop
diyorsunuz
dilerim
jos
mayı
niş
nsa
national
tiş
zır
çiç
ız
şamp
##udur
##muz
##çının
##bor
##jinal
##erin
##larini
##dat
##ung
##elt
##elson
dediğini
##landım
bası
##emen
göka
##cağından
işimiz
teması
zamanımız
değillerdi
##uther
gerçekliğin
yaşından
##esifik
anlatım
büyükanne
çıkma
##eceğimi
bos
genler
dergi
doy
##olojisi
çocuklarına
##terek
uyk
karşıt
gitmesi
##mazdı
durumla
durumlar
konusuna
sisteminde
oralarda
açıklıyor
açıklaması
moore
mühim
yazın
değiştirme
seçmek
alıştır
güzeldi
sorunlara
yapmakla
resm
sesle
sergi
belirsizlik
hattı
tahıl
isterse
saatlerce
temelli
sing
bilmiyordu
uygulanabilir
etkileye
oranını
kaynaklarını
beynimiz
matt
hanım
hoca
yemen
norveç
giderseniz
taşıyıcı
duyguları
düşündüğümüzde
ilgileniyor
görülür
sınıflandır
gayret
ışığa
oğlan
coş
işlediğini
kağıdı
tony
köyde
semptom
yürüyen
aklınıza
dürtü
bağımlılık
aklımda
##ılırsa
tasvir
harcıyoruz
maymunlar
pencere
enstitü
çoğunuzun
koyarsanız
arapça
yaratıklar
verimlilik
gülüms
çekirde
bayılıyorum
sezgisel
şiddete
palm
bürokra
lüks
çatlak
şaşkın
hiyerarş
fevkalade
31
48
air
cor
caz
lens
nelson
ooh
piz
tuğ
##lilerin
##sili
##hut
##iller
##eyin
dedikleri
olsak
kade
havanın
anıt
bildik
gereç
##bilirsek
vara
başken
ettiniz
gelmedi
vermez
aradım
arayıp
düşünmenin
gerçekleri
yılları
soracak
##yana
sürt
tanz
sağır
seat
fazlasına
kurumu
söylemişti
ekrana
yapacağı
çocuklarımızı
devir
uygul
kendinden
seviyoruz
ihlal
üçü
sub
açıklık
##bileceğimi
çoğunda
çoğumuzun
beyz
mıdır
seçer
seçilmiş
adamların
atın
##emedi
katlı
fikirlere
pekâl
yaşamayı
yaşadıkları
dindar
araştırmayı
bilgisayarları
geçirdiğim
içerir
temelinde
kutunun
geliri
biyol
desteği
anlattığım
spesifik
görevlendir
emir
yarıya
karışım
davranışları
kalanını
kuşk
ipod
cihad
yıldızın
ağırlığı
##lyn
uygulaması
yolculuğu
kalkış
şarkıyı
politikacılar
beklenen
yüzeyinde
##ebilecekleri
psikolog
borsa
mağdur
turuncu
##hoş
salgını
port
yazılımı
aklın
bölgedeki
belirtmek
toplamda
şişe
ebeveynler
delhi
stasi
kenarında
kaybeden
kaliteli
muhafaza
adaptasyon
düşünmüştüm
nerdeyse
irade
parazit
patern
röntgen
gütmeyen
pantolon
pekâlâ
bh
cüz
cola
cent
hopar
muy
pey
rw
rep
rock
sör
çince
##üce
##ciliği
##lini
##lileri
##dildi
##ilip
##ildiğinde
##madığım
##imlerini
veda
##lemeler
##dug
##star
içini
yapmıyoruz
oldugu
##tistik
varmak
gelerek
zamanları
##ceksiniz
##üloz
##laşa
bakıcı
anladı
burayı
bulmayı
##ikasyon
toplayıp
parayla
gösterdim
göstergesi
##memin
##oskop
adası
konuları
olduklarına
kaplum
arkasından
çekimi
altta
alttaki
##icisi
bilime
pekçok
sese
üstlen
servet
araştırması
kabar
filme
açısını
duyacak
metrop
çeşidi
çizel
ünit
erkekleri
bilmeyen
etkileyecek
tarihinin
oturma
gücümüz
beynimizin
anlattığı
cevapları
denizaltı
araçların
haberdar
kısmının
iletişimi
sınırlar
tanımlayan
karmaşıklığı
##abilirim
bağlılık
götüren
ilgilenmeye
mevsim
alırsanız
gerçekleşir
oynamaya
düşünürüz
ödünç
biliniyor
kafatası
yerleştirdik
uzmanlar
gereklidir
lester
yasadışı
sahibim
lisede
karanlıkta
sanatçılar
moleküller
kamusal
mahkem
kurtulmak
analizi
çalıştıkları
cesaretlendir
grön
bahçesi
koloni
hikâyeler
hapishane
takdirde
anlarsınız
savunmasız
birçoğunuz
kliş
gsm
##ektom
##phic
hemşire
yetkil
çimen
mahremiyet
yedek
bangla
whit
iğrenç
brian
solunum
halüsinasyon
ürküt
zavallı
singapur
seattle
beyzbol
42
füzyon
jane
pin
püs
piksel
tü
tum
##ld
##luluk
##use
##ach
##muyoruz
##sunu
##buk
##gay
##paz
birşeye
buğ
detro
olsanız
data
batak
salı
içme
##amıyorum
##iymiş
ansik
##saniz
neander
##tive
enka
geleni
geliyorum
önlem
karide
düşmüş
konut
konusunu
##ğımı
yerdi
yerlerin
##sundan
çalışmam
kullandığım
buralarda
geçtiği
açıldı
elleri
elinden
sansür
tank
pardon
gösterdik
kurucu
kılı
nedenlerden
##lemesini
çocuklarımızın
kaydır
isteği
ikimiz
durumları
alanını
alanlarında
böbr
eğri
getirerek
sistemde
kucuk
senk
ülkesi
hareketsiz
kadınla
kadınlarla
seçtik
sorunlarını
kanunu
üstündeki
190
gelene
##obo
ağust
ailesinin
mantı
teleskob
geçirdik
erkeklerden
uzaklık
katılan
soya
programlar
beyniniz
barda
denizi
çözer
hâli
yarısından
anlaşıl
##mıyordu
mevz
kuşların
kurallara
yukarıdan
yakalaya
ipuç
henry
maddeleri
demokrasiyi
ilerleyen
bireyin
şarkıcı
edeceksiniz
sinirsel
ayıran
molekülü
diyerek
ardında
oynat
katıldım
cihazları
yetiştirmek
medyada
kele
seferde
zorluklar
fiyatları
steven
gecenin
aklımıza
iyileştirmek
anlayışı
başlamalıyız
bozukluğu
irlanda
jack
bilmediğimiz
parçacıklar
gömülü
samimi
efekt
talimat
yatkın
istismar
seçeneği
coğrafi
keşfediyor
fısıl
watson
büyükbabam
asılı
slogan
muayene
işkence
sipariş
vasıtasıyla
kurşun
snow
mayıs
bangladeş
püskür
detroit
ansiklop
böbrek
44
asal
cek
city
hop
leri
rut
up
vat
şili
##cam
##ciye
##ee
##zman
##ydik
##inler
degis
dala
kaos
##lanıyorlar
içindir
##iyseniz
##isiydi
##ollo
##ıltı
vardi
sonlarında
##ıyorduk
##kal
önümüzde
karay
verinin
istir
bizz
olanın
##lıkların
düşünebilir
arın
yaşana
bakma
soruyorum
##uysa
dünyamızı
sürer
##lendiğini
##tıklarını
##tıklarında
tansiyon
sağdu
##ecekti
dönmüş
bilgilerini
ölmek
muam
muhammed
eklemek
korum
##memesi
taraflı
yetim
gitmeyi
gittiğim
yönlü
şeylerde
örüntü
olduklarından
kimler
olursam
bela
beste
hayatlarında
çekerek
çektiğim
isko
hareketini
##ich
seçtim
seçkin
üretil
hikayeye
gördüğünde
fikirle
kızları
eşlik
sıralarda
oradaydı
belirlemek
yayılması
çalışmalarını
içeriye
mutfa
sözleri
şehirdeki
gençlik
paylaşacağım
söyleyerek
merkezli
hissettiğim
gördüğünüzde
ölümün
karşılaşa
##gelo
konuşmadan
hastalara
sınırı
çıktılar
sper
istiyorsun
yaptığımızda
boşal
ifadesi
uzaylı
stok
koşu
gerekirdi
anlaşmaz
anlaşıldı
renkte
gala
yoğunluğu
kemer
hatalar
sırrı
ötesi
panik
çaplı
yenilikler
##ival
##abilen
psikoloji
sokaklarda
2015
formül
uçaklar
websit
yetişkinler
edeceğini
kabile
çöpe
genomu
atmosfere
incelen
arkadaşlarımın
evrimi
durdurmak
duyulan
yapabileceğim
cehen
geldiklerinde
yapılabilecek
cenaz
samim
talih
bonobo
elbise
rande
sopa
bilemiyorum
körfezi
hevesli
gümüş
bruno
asansör
kevin
##ographic
grönland
au
duş
hara
klon
lt
muk
sark
ök
##teydi
##süne
##bra
##fta
##well
##ence
birimizin
##izasyon
##eydim
##tılan
bali
satan
had
içindi
bilinci
gerçi
##old
neleri
varlıklar
##bie
##ileriyle
verdiğiniz
kondom
olmama
yerindeki
##roid
yüzyı
yüzgeç
geçerek
günleri
açacak
sürün
mail
masanın
##tıktan
##tiğimizde
##lamalı
##tikçe
##eceklerini
göstererek
mus
ekledik
çocuklardan
mily
edine
duymaya
bağlamak
inancı
seven
izler
izni
hayatınızda
temmuz
mesle
çektik
israf
girdik
seçme
çıkarır
çıkardığı
hızını
sayılmaz
kızlara
eğitmek
sayısının
müze
bırakır
birbiri
alabiliriz
oyunc
okuyan
sözünü
sinap
2002
ilave
##iyetle
dörtte
araştırmaları
##dakilerin
keşfi
oturdum
komün
komut
kilise
senedir
çiftleş
çözümün
parçasıdır
embr
sebeplerden
nelerdir
deneyimler
robotların
##tılması
##ülemez
ürünlerin
anlaşılması
anlaşılır
bozucu
vakfı
kullanacağım
görüldü
büyümeyi
sağlayabiliriz
dondur
simetri
sıcaklığı
cihazlar
fest
kediler
hamma
ruhu
virüsün
becerik
kelimelerin
hayatınızı
televizyonda
bio
köşede
kimseyi
gittiğinizde
koşullarda
tasarrufu
sürdürülebilirlik
gecik
ticareti
statü
zelanda
mesafede
doğrultu
safha
yaratıyoruz
ironik
meslektaşım
life
meclis
sızıntı
vücudunun
sky
trajik
döngüsü
cisim
şükür
levha
##peten
fedakar
oksitosin
hemfikir
metaboliz
etiyopya
tişört
senkron
bizzat
iskoç
cehenn
350
55
bık
hans
hij
kolom
lek
line
lay
medi
muyuz
pürüz
sy
ster
wol
ısıt
##car
##ciydi
##leket
##tları
##ılacak
##mus
##odu
##fat
##şan
##wer
##labil
##masında
##ekar
yalı
##ont
hası
yapmanızı
##ate
göremeye
göremezsiniz
##bilirsin
başımıza
##sınlar
herşeye
olduğuyla
verelim
ayık
zamanım
##seler
olmadığımız
büyülü
kadarı
##uyorlardı
farkli
denli
##eleriyle
prostat
durun
fazlaca
başlayarak
akar
aksiyon
kalbi
bilge
okun
nedenden
domat
yapamaya
konuşmamın
hepsinden
##melerinin
öğrenmenin
gülüyor
bağdaş
midir
izlemeye
surat
hayattan
yapıda
açıkladı
senenin
yaradığını
hissini
tutma
termin
binası
adamım
afet
bulunduğunu
çalan
dokuna
##ment
görüyorlar
takv
ayrılan
##meliydim
zorundalar
avat
manev
toplumlarda
hayalim
hayalini
öğretmenin
saatler
berber
hayvanlara
yaptıktan
yürür
##metli
##luğunun
denizde
düzensiz
konuşmasını
bahsettiği
karmaşa
mümkündür
çözümleri
güneşten
gezegenimizin
sahiden
varsay
soluk
yarısına
stil
karışımı
yöntemle
çocuğum
format
##box
beslemek
ilerley
memleket
uygulamaları
hatalı
riskleri
faydalan
coca
tarzda
mantıksız
topluluklar
isimlerini
olmayacaktır
kitabını
disk
montaj
koşulları
##lerinizle
kuruluşları
niteli
hukuki
kaydede
mecli
yelpaz
niyetli
kozmik
yaşlandıkça
sığır
rejim
bronx
türkiye
varolan
entellek
world
leonardo
transist
basketbol
festival
64
900
gam
gran
ii
idam
lık
luk
misel
nar
os
pig
ram
roc
sis
sho
tunu
zah
çit
##cım
##uver
##tiş
##ıra
##hid
##dilmiş
##lamıştı
##lersek
##lığınız
##rağı
hatıra
insül
yaptın
##urt
##larıydı
bunca
##ışık
##cağın
##ilerek
eng
##caklar
vermişti
artar
arke
çalışmış
teksas
bakıldığında
iyiler
şekle
açtım
##leşti
fazladır
##ebilirsek
yollardan
aksan
kurut
kılıyor
ortama
ortadaki
ortalıkta
zorlaştır
##ezya
okuyucu
diğerinin
yapacağınız
konuşalım
yaptığın
kayn
alkis
istediğinizi
inandığım
tekniği
küçükken
göründüğünü
kime
kaptan
erim
##bileceğine
müfre
ürettiği
çıkarın
birkaçı
atlet
bitiyor
1930
2030
davrana
deneyelim
ını
korkusu
koydular
tabiat
arkadaşlarının
ekonomiye
##landırmak
herkesle
ürem
sözde
reha
bağlanmış
söyleyebilirsiniz
kaynakların
bazlı
ölçer
dikkatle
ölümsüz
karşılaştığım
anneme
kesiş
kesip
demografik
odasında
aşağıdaki
tahminim
ilişkiyi
istemek
ayakları
icra
varsayalım
laf
meyilli
robotu
boşan
uğramış
çinli
##lanmasına
sarhoş
##duğumuzda
düşünceleri
##igh
verirler
anlayabilirsiniz
eşittir
tüketiciler
lerden
memeli
uzmanlık
apartman
penis
döl
yayınlandı
tavsiy
yapacaklarını
sağlıyorlar
olağandışı
kardeşi
aletleri
izleyiciler
##maktansa
herşeyden
başlarsınız
gerçeğini
çizgili
kişilerle
yarışı
itfa
yemeğe
dokunul
odaklanmak
tedaviyi
fiil
filan
monte
gittiğinde
##burg
yargıç
ezber
sembolü
hayatımızda
dönersek
toprağa
istemezsiniz
kozm
sayfası
insanoğlu
felsefe
bahsederken
hekim
olabileceğine
üyeleri
nispeten
edebiyat
gürültülü
argüman
aristo
çırp
tuğla
hoparlör
ürkütücü
##buki
tunus
00
38
72
aa
ast
cra
eur
hur
hus
kek
maz
pul
phi
tik
tuna
uret
zul
##lülüğ
##ulade
##resi
##reni
##teyiz
##atı
##ıç
##kim
##kton
##çileri
##biye
##dor
##madıkları
##onlar
katar
katal
##iyorduk
inf
##inip
bilmez
##ılmak
##ılmamış
alp
almaları
geldiğimizde
geographic
vermiyor
aradaki
olmamalı
arıyoruz
bakımı
anladınız
evler
evli
kost
koyan
farkede
gerekmez
elimi
boşa
öğüt
gösterdiler
dönecek
ortasına
kalça
bilgeli
##ezi
söylemiyorum
hakkını
yapamazsınız
##mazsak
sevin
sevgil
alanlarını
izledi
türlerinin
ediyorlardı
kupa
temsili
mütte
##sizce
çekin
çekilen
hareketlerini
##istler
##ünüze
##ünüzün
çıkarım
çıkarmaya
herkest
ulaşacak
dinlem
değerinde
danim
dikta
mike
dördü
hatırlamak
kolaydır
fırın
otururken
bazi
kelimesinin
hazırlık
çalıştılar
arabaların
bahsetmiyorum
olduğumuza
genişliğinde
modelini
yemin
vali
tanıdığım
deneyimleri
doktorların
##lanmadı
dayana
kullanabilirsiniz
hedefe
ormanların
başlayacağız
tartışmalar
kaldırıp
tanıştığım
kafasını
yerleştirmek
mimarlar
döş
ayırmak
kafası
mutluluğun
opt
gündelik
karakteri
makinenin
sabahın
feet
bitkileri
##kins
darbe
olmazsa
kanıtlar
adlandırdığımız
dalgalanma
edebiliyoruz
şansınız
kameralar
köşesinde
disney
egemen
bacakları
fenom
seçenekler
##burgh
miche
uçağa
şefkatli
versiyonunu
boğul
parçanın
istenmeyen
isabet
implan
fox
brad
işitme
bedeli
obezite
büyüdükçe
kraliçe
nehrin
hawaii
anayasa
gökada
itfaiye
herkesten
47
clin
dara
kesi
long
otu
payı
rna
suyla
us
ulk
zim
çet
##nel
##lülük
##ğü
##ğiyle
##io
##ötesi
##vana
##lamanız
##enti
##ardım
##ilmesini
birinc
biriyim
##lediğini
##dela
demeye
##ray
##bildik
##sıydı
bilmeden
##bilirdi
##ırın
almamız
##tedir
##ayarak
işinde
işsiz
verilmiş
verebilecek
##ukla
tev
biziz
aralarındaki
yeraltı
yaşıyordu
##önük
yüzme
##yanin
kullanmadan
koç
buluyoruz
geçmeye
çıkıntı
yaramıyor
nasılsa
##lamadan
##lamalıyız
##lıyorsunuz
dönmeye
kaldığını
eksi
hepimize
öğrenmiş
bağlar
sevdikleri
teşki
gözü
gözlerinin
olduklarında
getirme
getirdiler
teknolojisini
##layabilirim
tasarim
mıyım
tutmaya
güçsüz
1900
##mezse
##liğimiz
kararları
koymaya
mantığı
gezdir
açılan
alacağım
geçirir
probleme
başarıyla
savaşan
hayvanlardan
dilde
gelecektir
paylaştığımız
otop
sekoya
somali
kolunu
milyardan
basmak
beyninde
ölümüne
konuşmacı
çevresindeki
bahsettim
durumdayız
görüşlü
alıyordu
robotları
##larınızda
sakın
gizlilik
zarf
anlaşılan
öldürüyor
alırsak
yakalanma
başlıyorum
seçimleri
ipucu
büyümenin
keşfetme
yaratıcılığı
binaları
kuruldu
çağda
kurumları
apollo
öteye
yapabiliyoruz
plaj
çevreleyen
babalar
yapılmıştı
teknikleri
ruhsal
##melidir
isimleri
buldukları
sürecini
sürecinin
köşe
atmosferi
sıfırdan
##lanırken
##digimiz
oğlumun
vatandaşlar
çiçekler
karşımıza
nötr
sebebini
kitlesel
sembolik
brown
düzeltmek
charlie
kütüphane
dünyamızın
çelişki
gölge
harikulade
sorarsanız
titreşim
bulanık
mahrum
mega
rahip
bilimadam
malesef
fantastik
mıknatıs
asteroid
keyf
mız
miy
ss
sara
toy
vek
vit
zan
##not
##losu
##uta
##aya
##mor
##kırım
##bri
##gelen
bugun
yağı
##elle
##div
##lanmayı
satran
habi
inç
##talım
##iyla
##iydiler
anest
##maktı
##ümden
##tion
##ulus
alf
heryer
amatör
işg
verebil
verilerini
verilir
konektom
olmamış
yanda
orjinal
aran
bakılırsa
evlerinde
doğduğum
bulmamız
##lamayan
##başı
yolunun
akımı
bell
söylediğini
milim
öğreniyorlar
duydukları
##lüt
edemezsiniz
bizimk
teşkil
görünebilir
hastayı
gözya
izini
izledik
erdem
rahi
sistemlerini
tutarak
tersini
olabilirim
kanalı
halbuki
çadır
onlari
dokusu
saygın
kıza
yaşadığınız
soruların
koyma
dansı
açısına
arkadaşımın
bölgesine
ekonomiyi
içerisine
tahmini
hastalığına
imha
canına
hayvanlarda
##dükleri
şehirlere
okullarda
paylaşan
yorgun
biyok
inanılmazdı
kolektif
fırça
programın
beynine
hazırlamak
telefonlar
patlaması
demo
doluydu
##arth
görüntüyü
resimlerini
taşları
gönderdi
kronik
yarısının
tesla
gidebil
##mamıştır
lideri
kullanabileceğimiz
sınıfı
keşfetmeye
miktarlarda
maddeyi
dönüştürücü
yükseldi
lardan
silahlar
harcadım
ailelerin
hücrelere
mimarlık
matematikçi
laboratuvarı
fakirlik
yüzeyde
sağlıyoruz
uğraşmak
soykırım
iyileşme
editör
gerçeğin
çizgisi
hissediyorsunuz
teknikler
1998
cevabım
etiketi
sessizce
zorlukları
kuvvetleri
##ılmadık
bomb
başlattı
yeteneklerini
johnson
doğruluk
atıp
hikâyeyi
tutacak
tabanlı
bebeği
kapatmak
dergisi
iskeleti
kurulan
andre
joe
jose
istasyonu
tokuş
biliminsan
yapışkan
yuzde
anlıyorsunuz
matematiğin
çarpışma
diyagram
simetrik
dirençli
ayrıntılı
teyz
dolaylı
ufuk
kahvaltı
döndüğümde
piramid
çeyrek
muhafazakar
kastediyorum
brooklyn
sadakat
tanzanya
rutin
istirid
domates
entellektüel
96
asa
asır
cansız
cıv
dy
fri
gro
hüz
kin
len
mur
pist
ts
west
yusu
zam
çan
##cy
##ğimizi
##ian
##sy
##sünün
##ds
##geler
##vin
##ûmet
##inat
##ira
##arka
##ilet
##organ
##raz
##stal
##lanmasını
##lanıyordu
basıl
satıl
haş
##umi
##ith
##ışma
görmemiş
gördüler
##ılmasını
##ırsa
##mekti
onca
endon
önder
aradı
zamanının
##laşmaya
çalışabilir
kadarını
yılların
bakabil
yüzler
anlayan
anlamanın
##mayalım
astım
asistan
sağlayarak
##leşen
durmadan
##tiğimde
toplar
##bai
kalmıştı
kalori
insanlarin
insanlardır
söyleş
söylediğimde
diğerini
diğerlerini
yapabileceğini
yaptığınızı
##leyebilirsiniz
##usuyla
##masıydı
doğrudur
gitar
ikram
edemeyiz
sevdiğimiz
etkisiz
alandaki
##gie
böceği
gelişiyor
super
suudi
hayatınız
getiriyoruz
motif
##ranın
teknolojisinin
yazdığım
çekmeye
çektiği
##bedi
değiştirmemiz
alışık
bulunma
bulunduğum
bulundukları
atö
oluyorum
##siydi
davul
deneyleri
ulaştım
dinliyor
ayrılır
yaşamlarını
oluşturma
oluşturuyorlar
oluşturulmuş
sayısına
bırakan
birbirleri
haftanın
alabilmek
oyuna
okumayı
dilinde
okuluna
uygulamak
birşeyleri
ettiğinde
solar
gelirli
oranına
pale
kollek
kaynaklanan
olsaydık
programcı
hissettik
düzenlen
tepesine
vaj
sınırsız
hastalıklardan
hükûmet
abart
kullanılarak
ladin
ihtiyaçlarını
doktoru
düşündüğünü
köpr
adıyla
burs
yöntemler
dayanır
düşünürüm
garant
verirken
başlayacağım
görünüyorlar
yıldızları
kopuk
hücrelerinin
öğretmenlerin
laboratuar
zararsız
plast
oynan
karakterler
duvarın
nörolojik
formu
söylenir
okyanuslar
becerileri
kayıtları
deyin
eğilimi
eğilimli
edeceğiniz
detayları
kasım
carl
yeteneğine
oluşturabiliriz
ibm
kullanımını
salonda
konuştuğum
moral
taslak
liman
##iğinin
##amızın
ritüel
acik
istemedim
kullanıldığını
korunma
lou
yapacağımı
heyecanlıyım
balta
durağan
hissedersiniz
tezgah
açıklayacağım
mikroplar
tüylü
reçet
atlanta
korteks
kapsayan
şempanzeler
kaşif
tercüme
yozlaşma
taşınabilir
arkamda
azınlık
taciz
klavy
misafir
sonuncusu
acele
genetiği
kaplumbağa
buğday
ağustos
clinton
habita
yusuf
adem
dom
ela
güz
hima
hong
hmm
kık
ron
rem
##cini
##eğini
##ois
##pal
##wan
##way
##imya
##leği
yasam
##dist
deta
kasıt
bağı
içimizde
##taşı
##uri
##litik
##uzel
##iter
biliyorlardı
benj
insansı
##sav
##saydınız
herney
önündeki
verebiliriz
ayın
kont
olabilmek
sorusunu
asf
koyacak
ellerinden
elimden
elveriş
sicim
partik
derdim
kalmaz
bilgilere
okuyor
yapacağımızı
yaptığında
farklıydı
koro
öğrendi
sahipliği
gülmeler
tarafın
taraftaki
gitmiyor
iktis
inanmaya
ihmal
durumlara
##ift
etkiye
alanlarının
##duğun
türünün
getirmiş
yüküm
yazmayı
yazarken
beyine
tasarladık
tuttur
esp
üretme
adamdı
güçlük
sorunla
adres
bulunmuş
atlat
resep
düzlem
etmekle
sorulan
##meliler
paradok
##mezdi
korktuğ
oluşturduğumuz
manevi
umr
birbirlerinden
##via
##bilecekler
öğretim
temelini
yakınında
polisi
organları
boyunda
paylaşmaya
yürek
videosu
kaynaklara
##luğuna
etrafımızda
ciğer
teknolojiden
öncesinden
yapardınız
kültüre
malum
vaat
vaaz
gönderiyor
gönderme
giderler
reng
filmleri
tanımlar
boyutunda
fizikçiler
uğraşır
buzda
anlaşılıyor
öldüren
büyüte
başlıyorsunuz
vücuda
sars
mesajlar
maddeler
halkının
tartışmalı
kaldırmak
ödemek
endişel
mahv
alışılmadık
şiddetle
amaçları
atalarımız
fırsatları
yiyecekler
oynarken
##tırabilir
görselleştir
başkanlık
öğrencinin
köpekbalığı
ateşi
kavramını
farkettik
cezası
1999
dolaşan
kutuya
yapmıştım
ettirmek
aklına
aklınızda
tırnak
düzeyinde
şahsen
verilerle
telek
egz
performansı
şartları
oğlunun
kartları
##hua
kanunları
sihirbaz
oksij
bulursunuz
isteyecek
mucit
istenen
tuzlu
tecrübeler
yeryüzündeki
biyolojinin
sıkışık
sütun
kümesi
melek
bayılır
dakikalığına
matematiği
kafamda
sokağa
cikar
süreliğine
gidişat
şunları
yaşımdayken
takılıp
içgüdüsel
sabırsız
ameliyatı
anonim
çevremizdeki
stephen
sörf
sperm
transistör
müttefik
alfab
herneyse
ate
cat
cay
chu
dı
dv
ked
mün
oyle
pes
pete
sep
von
yy
öteki
şere
##ıdır
##kun
##kuş
##bc
##bini
##ft
##par
##ily
##ilmek
biriniz
##aklar
##ikleri
deha
deza
sadık
satur
##iyken
anor
anları
##ulur
##ilerinde
geldiğim
aylarca
aradığımız
değildik
arkan
kadarki
sorduğu
##uydum
kullanıp
kullandılar
askı
büyüktür
geçiyoruz
geçtiğini
dünyasını
açma
açabilir
gerekç
prose
değişmez
tanıyorum
sağlamaya
duruyordu
aktive
##ğımızı
kalmayacak
önceleri
yapamayız
milen
öğrenir
edward
##osen
ördek
sevdiğiniz
izlanda
izlerken
rasyon
yapısının
yüklü
teknolojimiz
yaraya
##muşum
altını
tasarlamaya
neresinde
topluluğa
değiştirilmiş
seçmen
esrar
üretilmiş
olmaktır
çıkarıyorlar
edilmişti
##layış
sorunlardan
bulundum
gördüğünü
fikirde
uzunluk
sesimi
zorundaydı
zorundaydık
kabin
koyuyoruz
toplumdaki
yükseklik
bekleyin
arkadaşlarıyla
bölgelere
sıkça
kıskan
alaska
problemini
okulun
okulları
ihtiyacın
otonom
ilginçti
gelirken
tarihe
tarihini
##takım
davranıyor
oturdu
hazırladık
grupların
elektriği
##itasyon
çözüme
engelleri
düşününce
arthur
ortaklık
burdaki
gecede
öldürdü
etmedi
alırız
kullanacağız
ucundan
##ebb
acıyı
binaya
karada
anlayacak
eşitliği
kaldırım
mühendisi
kirliliği
uygulamayı
yayınlanan
gayri
vuruş
farenin
riskini
unutma
gördükleriniz
##seydiniz
pank
kökten
makineyi
politikası
seviyesini
2014
üzüm
yapıyorlardı
öncelikli
yaratabiliriz
çıldır
rastlantı
rahatsızlık
işletim
ziyarete
değerlendirme
düşündüklerini
sorumluluğu
firması
şişir
tıbbın
sinyaller
sektörü
##ladığımızda
balonu
servisi
stady
dengesiz
nakit
##amızda
anlatıyorum
gökyüzünde
avustur
parçacıkları
kampanyası
kıvr
avantajı
sıçan
hayrete
shak
yelken
organizmaların
ayrımcılık
kütüphanesi
##mesiydi
yunanistan
gras
aldatma
reaktör
uzerinde
alexander
ilgilendiren
tibet
alarm
uğruna
huylu
kombinasyon
hassasiyet
neticede
pizza
gsmh
randevu
craig
zimbab
satranç
dezavantaj
37
ig
ida
küme
otistik
puz
şayet
şırın
##üla
##lp
##ular
##ada
##mda
##ker
##idir
##gası
birtakım
##mail
bud
dede
##landık
##landılar
##ese
yapmıyorum
##ligi
##amızı
##amıyoruz
##amıyorlar
andı
görmesi
başlarda
##cas
zamanımızın
##ülür
##laştı
yaşlarda
tekst
kullandığınız
evleri
bulduğu
bulmalıyız
geçelim
çıkarken
dünyayla
sürüş
mala
durgun
haksız
toplayan
toplamaya
yakı
gösterebilir
göstermektedir
derse
##ots
##oto
eklen
##olojinin
çocukla
yaptığınızda
##düğümüz
hepsine
koruyor
öğreniyor
tarafindan
bağlıyor
gitmem
yönünü
şeylerdir
inanmıyorum
##ifor
moz
arkaya
değiştirip
terket
olmakta
çözme
kaçış
çala
dokuyu
katolik
ağzı
dinlen
sıraya
serp
değersiz
korkuyu
##üsünün
müzak
belirler
bırakma
bıraktık
manip
##sina
filtr
yayılma
dudak
çalışmada
çalışmaların
başarıya
problemlere
fotoğrafın
çizer
hatırlaya
katılıyor
modele
yorucu
tarihindeki
fırtın
yengeç
yönetmen
araçlara
tepeye
modelin
plana
planda
koruyan
koruyacak
##ladığında
fah
sınırların
sınırlarını
hastalıktan
ağaca
çölü
pervan
kansere
incelemeye
ülkelerden
götürecek
##larınızdan
düşündüğümü
stk
##mıyordum
##lüğüne
sunduğu
çalışıyorduk
balıkların
pazarı
haritada
enerjisini
virgini
yatırımlar
kafama
fikrinin
leh
180
kemiği
kemoterap
##laştırmak
hataları
##usundan
kalktı
giys
mutluluğu
amaçlar
çapraz
petrolü
oğul
rolünü
çalışırlar
izleyic
sabahı
duvarları
toplulukları
adlandırılır
formda
tonlarca
1995
dolaşıp
çalmak
ödülünü
salgının
indirg
portek
damga
işbirlik
monter
delil
bahsedelim
kullanırlar
zirve
dinleyin
kayboluyor
mekanizması
gemisi
epeyce
şanslıydım
duyusal
endişelendir
gökyüzü
dostu
krater
yapılacağını
balinalar
tuza
sunulan
esneklik
yeryüzünde
iyimserlik
eskisi
bağlamında
arayüzü
nazaran
melo
diplomat
papaz
çayır
calisma
ozel
birebir
beklentisi
küçült
nisan
kâğı
##edersiniz
sömürge
nike
tsunami
rüzgâr
##isyenler
başbakan
sofistik
cüzdan
karides
milyara
insülin
yusufçuk
şeref
saturn
milenyum
puzzle
portekiz
34
43
jf
jes
just
küf
kukla
lü
ped
pusu
reg
shir
tri
time
##ule
##muyorlar
##kini
##çü
##dört
##laf
##ert
##lerinize
##izabet
kata
kavan
kalabilir
##langelo
##espe
##işini
yapti
##tah
##sıdır
##iyen
bilişim
##ırdım
sonbahar
etmeli
##bistan
herzaman
işlenmiş
işyer
kardi
karga
veriliyor
zamandı
olmamızı
olmadıkları
olacağımız
büyülen
##tırlar
bakabilir
soruştur
evime
everest
komedi
##miştik
geçme
elizabet
tanesinin
##ımızla
sağlığını
dururken
hakaret
##lamalarını
gösteriliyor
akın
akust
aktara
kurca
kurduğumuz
dert
kalir
bilgiyle
tümünü
ekin
##lememiz
konuşabil
milo
uyuyor
karşılamak
hepinizi
##oseksüel
yetki
istediğin
gitmemiz
inanıyorlar
##mazdım
içindeydi
sevme
gözlerinizi
konulardan
olduktan
##umuzdan
eğlendir
açıklar
senfon
yazmış
yazdık
girecek
girmeye
girdiler
değiştirebilirsiniz
güçler
##hani
##emedik
resmen
uzunluğu
üstel
üstte
üstteki
sayının
eşiğinde
oyunda
bilgisini
deneyde
ulaşan
ulaşma
parçasının
basitlik
düşünüyorlardı
belirleyen
mandela
foto
gezi
dönüşü
şaşı
sözleş
dileğim
hatırladım
uzaklıkta
ettiğimizde
havacılık
kutb
geliştirilmiş
gelirdi
küre
hissetmeye
telefonunuz
matba
karşılaştıra
videoya
düzenlemek
haberlerde
yazısı
benziyordu
evrene
kitapların
##biliyordum
destekliyor
edinmek
gezegenleri
sebeplerinden
varsayı
küreselleşme
yarısında
rahatlıkla
bölümleri
söylüyoruz
kurallarını
adımlar
saran
çarpma
ormanlar
maddelerin
verirsek
yükseliyor
##ladıkları
tartışmak
yatırımcılar
temizlemek
eğlenc
işaretleri
pazarlık
öğretmenleri
olduğumdan
gördükleri
laboratuvara
alışılmış
tavır
yapacaksınız
aracılığı
dağları
köpekler
olmadığından
formları
uçakta
kuvveti
köyün
dalgaları
becerisi
nesilden
portak
bilinçsiz
vatanda
erişilebilir
dekor
seyaha
kabiliyeti
şahsi
barışı
başlatmak
biçimlendir
zihniyet
bağımsızlık
sonucuna
kullanırız
taşındım
malzemeyi
geçerlidir
##burger
bolca
aydınlık
aydınlanma
dengeyi
##ucusu
eserleri
komplik
malzemelerin
nesnenin
korunmuş
orduya
afrikalılar
metreye
yürümeye
kıvıl
kölelik
keşfedildi
umudum
grafiği
aldat
keşfeder
hatırlatmak
denetim
balıkçılık
mamut
fabrikası
albüm
carolina
ajanda
philip
karadelik
beyefendi
dublör
ihtiyar
zırh
palmiye
neandertal
hijyen
wolf
rehabil
endonezya
elverişli
prosedür
virginia
sofistike
kavanoz
97
adan
biş
dum
duz
düm
ediş
giye
hüs
kun
lp
oo
odun
tram
vik
yiyor
zalim
çob
##nut
##ugh
##rok
##ses
##çıl
##dt
##giz
##şif
##latı
##enha
##akları
##izde
##onans
##lanıyorum
##lanmaları
baban
##bilmemiz
iniyor
##uza
##ish
##ath
etmeyin
tadı
##alır
vermeliyiz
istiyorlardı
kadından
olmalarına
##uth
yerlerine
düşünseniz
##ceğine
dünyan
soruyorlar
yüzleri
##üyorum
kullanmış
çıkıyorlar
günümüzün
sürecek
##eceğinizi
maça
propa
##tiğinizde
parlayan
##ebilirdi
böylesi
##diyorlar
bilgilerin
özdeş
söylem
kendisiyle
konuşuyorlar
karşılığı
öğrenebiliriz
aza
azar
##mazsanız
kimlerin
kaptır
erit
olurum
##duğuna
getiriyorlar
sistemimizin
ülkem
##icilik
tutup
çevren
üretir
ürettik
ürettiğimiz
binler
çıkarsa
çıkardığımız
##berk
süregelen
bilimler
biter
bittiğinde
fikirlerden
düzeni
192
göreceli
ulaşabilir
dinleyen
paralarını
##malılar
##mezsek
eğitimde
bırakarak
bırakacak
dikdört
filip
bekliyoruz
açılır
yaymak
arkadaşlık
arkadaşlarımız
bölgeden
projeleri
şirin
tahm
kırp
ünifor
kazanır
kazandık
bilmiyorlar
soyun
kontrollü
##metik
libya
gelirsek
biyosfer
biyologlar
calist
yönetmek
kesit
düzene
düzenleyen
çalışanı
yapardım
yazıp
kültürler
görüntüsünü
yemeye
kullanıma
kullanılacak
boyutları
meyv
testler
gidebilirsiniz
derinlemesine
seyler
ettikçe
ilgileniyorum
canlıları
ayrıldı
hizmetler
gerçekleşmesi
yağış
sarma
çarpan
ucuna
başarmış
karavan
odaklanmış
yapabilirsin
silahı
harcadık
edecektir
lew
keman
olduğunuzda
yiyecekleri
##mayacaksınız
gündeme
plaka
birleştiren
makinası
babasının
farkındayım
soyu
çizgiyi
dalgalar
##dekiler
eylemi
ziyan
yoksulluğu
edebilen
zorluklarla
şansını
##ahh
130
organizasyonu
mahkemeye
karşılaştırma
müşteriler
olmamıza
güreş
hafifçe
potansiyelini
atmosferik
bulutlar
harcıyor
arkadaşlarımla
şanslıyız
muhase
dostum
ışını
dereceye
makinalar
mantarlar
bulunabilir
kablolar
saçmalık
kıvrım
kazanacak
fransızca
tokyo
bono
##que
müdürü
bölünmüş
foie
kuramı
stüdy
tayland
ekonomistler
retina
içinizden
konseyi
imparatorluk
nathan
kolej
personel
okumuş
şizofreni
ansiklopedi
kolombiya
michelangelo
benjamin
tekstil
elizabeth
52
bru
cip
chan
fda
iron
lüb
mt
mri
media
nü
nek
nün
pc
staj
syl
ur
yog
çark
çör
özer
şak
##cü
##cıl
##lının
##uka
##mu
##bit
##get
##vatif
##erg
##inyum
##lerinizin
vefat
yama
##eyken
##dif
##ras
kafes
##landi
##bildi
##bildiği
##bildiğini
##biliyordu
içimde
haw
hamam
inden
inip
yapmıştı
##üret
bildikleri
başlaması
taba
tazman
tasav
aldır
gelme
gelmektedir
geldiğine
önse
karam
tex
istila
zamanını
zamanlarında
##cekler
yerlerini
düşünmem
yılından
soruyla
soracağım
##oper
##opia
##üyordu
asil
koler
farke
dünyalar
açtık
##lendiği
hayalet
elimizden
masal
sier
##leşmeye
##tiğinin
benimsem
başlayınca
gösteriş
dönme
##ğımızın
dersin
kaldığı
bilgimiz
bilgili
öldüğünü
nedenlerinden
dolandır
çocuktan
önemsem
##ebiliyorsunuz
sıy
gülme
azalan
tarafındaki
yetkin
gitmeden
ikinc
edebileceği
edebileceğimiz
olurduk
hayatınızın
amca
yapısına
orayı
tembel
seneler
tasarlandı
tasarladığımız
gelebilecek
noktanın
çevrenin
çıkarta
hikayemi
kanyon
attım
ulaşmaya
ulaşması
serin
araştırmanın
##üsüz
aileye
düşünüyorsun
uçmak
muhbir
arkadaşlarına
söylerdi
##lamıyorum
istersek
hayvanat
##dükten
yeğen
benzerlik
organı
paylaşılan
ayrıcalık
edenler
##lemeleri
geliştirdi
geliştiriyoruz
kesint
oturt
gücünden
beyninizin
yapmadı
etrafı
anlattık
hissetme
yönetici
araçlarla
olmayanlar
videolar
patojen
biliriz
olayda
bahsettik
nesl
olduğumuzdan
##ladığınızda
norden
faiz
güneşe
gidersek
nata
lastik
yaşındayım
incele
inceledim
gideceğiz
ışıklar
seyr
##lüğün
davranışını
kalanlar
ayrıştır
etmede
yukarıdaki
sarf
sarsı
büyümesini
keşfettiğimiz
doğadan
##cker
değişimler
hâlde
yerleştirilmiş
idar
hücrelerine
mimarinin
maliyetini
maliyetleri
havay
dahilinde
ceset
##lonun
dalgıç
bebeklerin
kurtarmaya
numarası
yüzeyinin
yararına
kökeni
gücüyle
bitkinin
işlevi
başlarlar
hamburger
edebilirler
fonu
sürecine
olmayacaktı
jeolojik
yapmamıza
kitabında
##üğü
5000
arazide
meşru
şişman
140
gazeteciler
itici
##digini
yayılır
direnci
bileşeni
oluşturabilir
keşifler
nitelendir
tutkum
irti
jac
nöbet
bilmediği
pencereden
dergisinde
parçacıkların
derecelendir
karşıyayız
kütlesi
balinaların
fonksiyonu
hissettiriyor
empat
profesörü
mülteciler
çerçeve
dünyamızda
sergilen
piyango
dayanıklılık
dehşete
gülümsem
itiraz
sürüklen
yöneticisi
kurtulan
stresli
aramızdaki
vücudumuzun
skor
linux
venüs
imkânsız
yanılsa
operatör
yarasalar
dizilim
hektar
ömrü
düzinelerce
otoriter
mülkiyet
aygıt
fakült
iklimi
spektrum
floresan
kasırga
joshua
muydunuz
tüberk
danimarka
diktatör
heryerde
dvd
lübnan
98
atılmış
earth
frak
guzel
hür
kle
mw
nami
ova
suş
stu
tüt
uk
yüce
şık
##ciyim
##lor
##ulasyon
##au
##ain
##beş
##hc
##hol
##diliyor
##gam
##gimiz
##gön
##irdi
##enk
##ilmis
##del
##des
##lıdır
##iklik
##yatür
olg
olman
olmanızı
kası
balk
##bildim
sata
içecek
içlerinden
##iyorsun
ine
intik
##ure
##urlar
nepal
##tic
##ırıl
başını
başınıza
etmen
etmeliyim
tad
gidi
##ıyorsun
endek
gelis
geldiklerini
gelmiştir
vereceğiz
telaş
teza
arabistan
konumda
değillerdir
oranın
çalışın
yaşını
yaşıma
kadardır
evdeki
harman
güneye
günah
açtığı
elime
değişmesi
sağlayıcı
##leşir
haklar
yakalıyor
üzeri
benims
başlamamız
böyleydi
gösterin
gösteril
göstermeme
döndüğünü
bellek
özlem
doaa
eks
konuşacak
önemse
##leyic
farklılıkları
sahipleri
yetmiş
istediğimizi
bazılarına
##tular
gözün
gelişimin
hayatlar
amy
türünü
açıklayan
moma
yarayacak
ülkemiz
dışarda
dışişleri
kadınlardan
tutu
tered
olmaktı
adamlarının
##berry
kanlı
çözmemiz
kaçan
çalar
##emediği
etmekti
yaşadığını
ağların
güvensiz
parçaya
parçacı
sıralar
sonuçların
korkuyorum
korkarım
oluşturul
oluşturarak
sayıyı
daniel
açısıyla
bilgisayarla
birbirlerinin
yarattım
alacağız
geçiriyoruz
tahri
maria
çizmek
ünü
berke
rea
organlar
kutlama
##çılar
araştırmada
oranının
analitik
oturmuş
kürtaj
dizileri
ölümden
karşılaştık
videoları
cibin
annesinin
keser
devletlerin
kültürünün
modeline
görüntülerin
aşağıdan
olmayacağını
gönderil
göreve
görevini
görevimiz
ağac
çare
##hild
düşündüğümde
şaşırtan
burdan
hikayelerin
bozulmuş
geleceğimiz
yağlı
##emezler
sınıfın
keşfetti
düşüncelerini
labar
verirsiniz
kuzeydoğu
defasında
yapabilirsek
anlayabiliriz
kopenha
##liliğini
anneleri
apa
ağırlığında
gerekliydi
işlemci
ötek
kimyager
şekline
mutluluğ
dalgası
etkileşimi
yıkan
yıkım
keçi
dağlar
seviyesinin
adlandırdığım
olmadığınız
hissediyoruz
minyatür
yaşantı
çaldı
ekranın
dokunma
uyumsuz
titiz
bankacı
kumar
##pagos
düşündükleri
##layacaktır
söylerler
toplamından
##tüğünü
direniş
seçenekleri
kullanımının
3000
hele
düğmeye
tasarımcıların
atılan
bahçesinde
kalbine
aktarmak
döküman
kısıtlama
mahallede
proteinler
sıkıca
iskele
duygusunu
toler
dunyanin
konuşacağız
kurtaracak
vücudunuzun
masrafları
tapın
antikor
olanağı
sorabiliriz
etmektedir
yiyen
felçli
ross
düştüğünü
çığlık
ergenlik
rezerv
alçakgön
prensibi
ihraç
yüksele
origami
hırslı
dopamin
enkaz
mevzu
karayip
galapagos
avatar
manevra
daral
gözyaş
hüzün
kasıtlı
rasyonel
pankre
mozart
lewis
özerk
tazmanya
tüberküloz
tereddü
berkeley
kopenhag
alçakgönül
46
54
bara
fli
jar
kuyu
lara
nem
wk
yüc
##cor
##con
##com
##rr
##ama
##my
##bes
##bara
##bro
##ool
##dhi
##ffer
##göz
##vator
##wor
##lacağını
##iner
##ilmaz
##aklı
##untu
yale
yahut
##digi
##dığına
dedek
dalı
kao
##ette
##cev
iner
##liye
bunalım
sonunu
insanlarının
almıştı
##saydım
önünden
işlere
vermenin
verebilirim
tebr
##ğındaki
zamanların
olmamıştı
olmadıklarını
değilmiş
düşünebil
düşünülen
düşünülüyor
bakmamız
anladığım
##mayacağımız
##eşit
##rus
günümüzdeki
sürüm
ilgisiz
##diklerinde
masam
prof
##tana
sağla
uzayı
##tikten
üzerimde
parla
parca
partiler
##baç
benimki
yollarda
yolsuz
böyledir
akran
akbaba
kuruş
döneme
##ınıp
kalor
muka
muse
söylediğimiz
nedenleri
##olojist
##olojiyi
##ture
milis
öğrenmeyi
öğrenmemiz
duyuyorsunuz
tarafsız
istediğinde
gitmedi
bazılarımız
edeme
teşebb
ihan
etkisinin
alanındaki
konudan
izledim
##eliğine
ediyorsanız
kub
sende
teknolojide
yazarlar
power
ishal
tasarlama
ülkemizde
nerden
gelelim
güdü
termo
olmaktadır
çıkardım
sorununu
yaklaşıyor
hall
doksan
##emedim
pekin
taksi
eşleştir
dinledim
dinlerken
##melisin
sertif
ailede
##geleri
bıraktığı
toplumumuz
demekti
açılardan
projem
içerisindeki
şirketlere
başarıyı
örnekle
istersem
okudu
kırıcı
kazandığı
##tıyorum
bilmiyorsunuz
hatırlarsanız
ilaca
yürüme
ettiğimde
gelirse
kolaylaş
merkezleri
merkezindeki
yığını
programına
programını
yalın
anlatma
hissettiğini
dikkatimizi
yöneticiler
ölümleri
mekân
olaydan
hindu
çifte
durumdalar
ilişkilerini
resimlerin
hisseden
bandı
rengini
görebildiğiniz
hücreye
hücresel
nairo
sokmak
law
alınması
arttıkça
yapanlar
hoşnut
dışarıdaki
canlıların
kuşu
yöntemlerle
azaltma
çocuğunu
##tuğunu
pazara
hedefleri
büyümesi
mesajları
keşfettiler
yemekleri
karalama
larva
tanıştık
işaretler
kopar
harcaya
annelerin
edecekler
lee
fareler
##laştırılmış
yolculuğun
riskler
unutun
alışkın
bulabilmek
ışığında
politikacıların
fincan
numun
yüzeyin
kökleri
hastaneler
içeriğin
çevreci
aşılar
başlarken
darb
ihtimalleri
turist
görmedim
hissediyordum
kavramlar
uçakları
virüsler
dolaşım
arabayla
laboratuvarımda
endüstrisinin
kalacağız
strat
ebay
portre
ayağı
kimyasallar
nöronların
barışçıl
yönlendiren
duyarız
johnny
1984
bahsedeyim
saldırıya
kullanırsanız
objeleri
iddialı
birikim
arıların
kullanımına
salonu
##darip
doğruysa
iyileştirme
ıslık
incit
başarabiliriz
tasarımcıları
olmalarıdır
nakle
fabrikada
tepkiler
arttırıyor
cümleyi
adaletsiz
yürüdüm
görünüşü
boşlukta
boğaz
isteyeceğim
derecesi
manzar
##lığımızın
rekabetçi
petro
bağırsak
tümörü
verimsiz
mirası
hayranı
##ladelp
hırsız
boyuta
oluştururlar
vücuduna
##bilimci
bambu
gandhi
kızılötesi
barındıran
##intili
reçete
kökenli
duyduğumda
büyükannem
harcanan
neşe
neşeli
sıtmanın
heyecanlandıran
dibinde
tartışa
paradigma
lakin
yerçekimi
kaybolan
takıntılı
aşikar
ızdıra
bhutan
miselyum
husus
philadelp
kollektif
asfalt
partikül
chuck
kalirsa
portakal
sylvia
tasavvur
sierra
nairobi
aaa
bok
fem
fış
ful
fal
luther
ohi
ple
sus
tet
vita
vene
vizör
âşık
##üse
##chan
##ciliğin
##liyorlardı
##zil
##dra
##şek
buton
##ort
##leriz
kalıyorlar
##landir
##lanabil
balığın
bayıl
basıyor
##emiyorum
##emiyorlar
yapmamızı
##sıra
ang
##aton
bildiğini
bilmemiz
varil
etmiştim
talk
insancıl
als
almanız
işlemek
işime
aracını
olmadığım
değilsin
düşünmeden
arar
yılının
bakmayı
anlamış
##opa
koşa
kovan
##enix
denedi
yaralı
harfi
açmaya
elden
madal
bodr
değişmeye
değişmedi
uzuv
paran
benimse
gösteriyorlar
kurmayı
aynıdır
kalkan
kaldığım
söylemiştim
doug
köye
başkalarını
başkalarıyla
duydu
tamamının
gitmesini
inanma
##mazsın
olduğuma
adamış
kapının
ederse
best
hayatlarımızı
amcam
##enizin
ediyorduk
kahire
yükü
teknolojilere
şela
##muşlar
çekiş
giriyoruz
neresi
topluyor
diyeceğim
değiştiriyoruz
terimi
üretiyoruz
üretici
##duktan
güçlerini
hızının
bulunmuyor
hallet
bitco
gördüğümüzde
milyonda
öyleydi
sorulardan
deneyime
parasını
kabuğ
koyduğumuz
avlanma
bırakalım
dönüşümü
bilgisayarlara
oyuncağı
çeşid
problemlerin
saatten
çizimler
savaşlar
yediğimiz
dilimi
paylaşıyorlar
uyguladık
uygulana
tasarımları
geliştiril
geliştirildi
biyom
oranlarını
##dakinin
kaynaklardan
oturmak
yeniliğin
yapmadım
etrafına
kendimden
hissettiğimiz
barbar
karşılaştığı
komisyon
civarı
annenin
kesil
kesme
konuşmada
olaylara
yazılar
tepede
iletken
benzemiyor
beyinleri
planları
tahminler
resimdeki
spr
banliy
1500
görevler
görevleri
peru
lama
inceleyerek
baktılar
götürdük
artmaya
koştur
##cher
liderlerin
##gaç
yüzyıllar
yüzyıllardır
yakaladı
##ebileceğine
hedefimiz
çarpıştır
doğasını
dönüştüren
yaratıcılığın
##iger
değişimleri
silahların
eğlencel
kirlet
tehlikeye
tehlikede
kafasının
ruhani
yayınladı
hapist
leopar
vurdu
hatası
öğretmenlere
babamla
mahvet
yuv
giysi
kapıya
##mayacaktır
yasalar
birleştirerek
katılmaya
izleyerek
sefere
duvarlar
ateşe
mağar
mele
meca
düşünceyi
sayfaya
üzüntü
160
analog
jeo
askerleri
söylerken
duyarsınız
biçimleri
yetenekler
egit
sektöründe
rüzgarın
çalıştıklarını
geçişi
çıkaracak
notlar
tasarıma
tutkuyla
arkadaşlarımdan
zincirinin
tepkisi
delice
şuraya
karşınızda
##ektedir
jama
muhalif
kocam
loj
lobi
##trasyon
sebebiyet
altyapıyı
istatistikleri
istatistiksel
kriter
yatakta
meslektaşlarım
android
aktiviteler
etmemize
hayranlık
kırıklığı
bazılarınızın
şüpheci
muzdarip
havuzu
tapir
galon
seleksiyon
çakış
yaratılış
ustalık
anlatırken
memeliler
jones
kongr
kilometrelik
çözünürlüklü
tropikal
hamilelik
ikilem
favorim
gereksinim
second
kötülük
metropol
ipuçları
püskürt
hammadde
senkronize
cıvık
kıkır
anormal
kâğıt
propaganda
texas
fraktal
fışkır
ohio
banliyö
450
bif
coz
dj
ej
imal
klik
kaka
mm
mos
muydu
miydik
pho
sinin
wa
wi
zede
##luyorlar
##rol
##ıf
##ğinizi
##kiler
##sup
##çeşit
##ydiler
##bö
##hret
##dini
##dunun
##dince
##ena
##ende
biriydim
##imdi
##lerler
##izik
##unta
##lıların
##eyerek
demiştir
daya
kale
kainat
##duru
##esans
##okor
##cela
yapmamı
yapmalısınız
##ursa
##liydi
görk
şeyse
##ümdeki
##tist
##tici
varım
varyasyon
başlandı
##cağının
sonlandır
etan
almanın
iştir
işimizi
karım
karsi
gezer
tef
tester
##arada
araş
##ever
yang
yanınızda
yerlerinden
##laşması
büyür
arıyorum
çalışıyorlardı
##rof
yılındaki
yüzünün
##opher
iyiyiz
kullanın
kullanmanın
evrak
##mişlerdi
doğduğu
doğayla
buluyorlar
dener
deniyoruz
çıkınca
##cia
sigar
santa
öğlen
durdum
##lamasına
topladım
yakla
yakış
yokken
başlamıştım
akıyor
kurduğum
##diyoruz
##ğımızda
bilgelik
muson
okurken
dolardı
ekvator
##ebildik
öğrenim
oluşumu
ikti
şeylerdi
inanmayın
kendimizin
tekne
kimisi
kapita
##ekkur
senelik
yaramadı
mücev
beyler
iskan
güle
tutsak
sorunlu
kansas
çözüle
atmaya
atarak
bilimle
kaçmak
bittiği
##right
katet
saydam
ağlıyor
ağab
parçadan
##malıydım
sayıdaki
kararını
ailesine
basitleştir
belirtiler
uçuyor
filler
bekliyorlar
arkadaşının
duracak
kısımda
oyunların
şöyleydi
geçirmeye
şirketinin
öğretmeni
erkeklerle
yakınlarda
sözler
berrak
bilmiyorlardı
sanatlar
okuldaki
internetteki
paylaşımı
uzaklara
birşeylerin
katılır
##çılık
geliştirdiğimiz
araştırmalara
videonun
kaynaklarının
yığ
cahil
gruplara
ölçen
çalıştıra
kendimin
beşeri
komit
müzikal
yapıyorduk
çevrili
yazılan
sebz
modellerini
olmalıyım
taşım
ayaklı
emma
birleşimi
hayatımıza
neyle
deneyimle
deneyimleyen
yoludur
ülkelerinin
okyanu
aşan
doktorun
testleri
tesekkur
arttığını
ortaklaşa
birisidir
bakarsınız
köpeği
rahatla
ilgilendiğimiz
ayrımı
kuralların
yatırımı
etmelerini
tablosu
renklendir
suçu
gerçekleşecek
gerçekleştiği
demokrat
gama
uygunsuz
başardım
meydanı
##cıklar
kireç
harcamak
makinelerin
kaybettim
hapiste
anlamayın
karbonu
olduğumda
annemi
etkileşimde
etkileşimin
karakteristik
öğrencilerim
yetiştiril
babama
görmediğimiz
zekanın
kodun
okyanusların
düşüncenin
köylü
şehrinin
üzül
##bati
1997
baskısı
felse
nesiller
yetişkinlerin
yaşıyordum
ücreti
suyunu
belirtileri
gittiğimizde
ülken
saldırısı
kuruluşu
objeler
yansıtan
koyalım
uçağın
tarımsal
kanunlar
raporu
ordusu
bölgelerine
kerten
buluruz
kıyısında
ayrıldım
hangisini
walter
karikatürist
birlikt
tost
mira
yapımcısı
kurbanı
umursam
lezbiy
yunuslar
birçoğumuz
vücudunu
tezsler
yürüyüşe
yoksulluktan
senary
tayf
deneyeceğim
tesadüfen
yapmazsak
bilincin
cris
yanlız
danışmanlık
efsanevi
çorap
şunlar
rehberlik
alaycı
hesabı
ivme
cilt
dahaki
sorduğumda
güvenin
etkilediğini
sünger
sms
çiğn
şöhret
örtüş
helyum
geometrik
pitts
cazip
sürtün
zahmet
kostüm
miydiniz
zannet
andrew
telekom
matbaa
rehabilitasyon
tezah
philadelphia
phoenix
86
ağını
alamaz
cy
ceket
che
fla
jor
ky
pl
rez
river
shan
##cok
##leki
##luyum
##ılı
##olar
##dney
##gren
##laj
##anlı
##ilin
##ilep
##ektüel
##ake
##elisiniz
dediğinde
##ony
##onya
katr
##etta
##lans
batır
satıyor
safi
##ump
yapmamış
##athan
görmeden
##sani
neokor
##ıldık
etmeyen
etmesine
etmemizi
almalıyız
encela
kibir
öneri
##ayt
işlerde
işlerine
işlerden
vermesini
aydan
tedir
##see
yanılma
çalışkan
çalışabil
yaşarlar
yaşayıp
yaşamanın
anlamam
anlatıl
anlamalıyız
kullanması
kullandıklarını
aslen
evimde
koso
bulduğunuz
çıkmasını
çıkmıştı
yarık
harry
dünyasından
gününü
açın
eller
ellerine
elmas
değiştiği
sahara
parf
gösterim
gösteriyoruz
göstermiştir
akvar
kurdular
kısır
kaldığımız
kalmasını
kalbin
zorlama
zorluğu
zorlayıcı
insanlardı
oklah
ekle
ekledim
ekleyerek
çocuklarınız
konuşmuyor
öneme
devleti
uydular
öğrenen
öğrenecek
##osh
istediğinizde
bağları
yönlerini
seviyorlar
göründü
kaplanmış
kapsül
ederdim
sular
hayatındaki
türümüzün
modif
sente
yazmıştı
çekecek
##layabilmek
tasarla
hissine
dışından
tutucu
üretebil
üretimin
edilmemiş
edildiğinde
hikayede
yapmaktır
bulunması
çağına
dokunuyor
fikirlerle
takli
kızart
dinam
parçasına
sıralama
unun
##meliydi
paraları
oluşturulan
##liğimizi
##lamaktır
belirley
belirleyici
toplumları
toplumumuzun
##edin
beklerken
birbirimizin
yarattılar
hayaller
ekonomide
ekonomisine
##landırılmış
şirkette
öğreten
öğretmeye
öğretiyoruz
örnektir
saate
sosy
kazanmış
hayvanlarla
ilahi
uygulanan
katıla
ettiğimizi
soz
##lemede
tarihteki
##hidi
oturduk
etrafımda
ölçülebilir
haftason
değişikliğinin
kesilmiş
demiyorum
düzenek
bilirler
yazıları
iletmek
uğult
norm
ilişkiye
istemeye
gönderdik
görevim
gezegenimiz
emlak
görebilmek
görebilecek
bahsedil
tanımlıyor
tanımak
boyutlarda
bağlantıya
engelleyen
bakarız
köpeğ
##mıyorsunuz
ahş
ahtap
##lüğünü
kuşları
ayrış
vakası
##gas
forum
dayanışma
suçlama
besleyen
ipi
ipad
##emezsin
oynadığı
olsunlar
##cks
##cky
dönüştürüyor
nüfuz
ödüyor
mekaniği
bireyleri
başlayabilirsiniz
algılayıcı
tüketic
aldığınızda
şansım
kaybetmek
penn
maliyetinin
vuran
havlu
sırr
sanata
kafayı
##tığımızı
çapındaki
etkileşimli
yiyeceklerin
yararlana
yapabilen
yapabildiğimiz
oynar
köklü
yetiştirme
girişimcilik
liseden
ateşli
formunda
sabun
yaşanmış
kişilerden
yumruk
motorlu
sıfıra
kalabalı
devreler
olabilmesi
edeceğimiz
yanısıra
##brit
carne
katkısı
yorumlar
delikler
çatışmalar
denemeler
çizgide
aklımı
vatandaşları
ideoloj
etkilenen
konuştuğu
talebi
doğruyu
düğün
bulutu
gelişimini
tasarımcısı
komplo
kalbinde
deliğin
1975
severler
severiz
ayakkabılar
cema
kariyerimin
jason
##altında
boğuş
kaydetmek
göğs
yapılabileceğini
iranlı
tuzak
yörünge
teşhisi
yapabilecekleri
depolama
biyoçeşit
yüzleşmek
kışın
kışkır
biyolojide
çeliş
pişirme
işçilerin
omurga
hortum
başvuru
saniyenin
##bilimciler
galaksilerin
yuzden
litre
slaytta
yaratılan
yanlısı
bedel
aranızdan
pref
çorba
çeşitliliğe
kolaydı
sıtmaya
derinliklerine
boylece
sıçrama
içinizde
ömürlü
##ctus
görevlisi
entelektüel
görüntünün
kraliç
şeridi
kumandalı
abartılı
##ıldayan
beatbox
şaşırttı
konsantrasyon
koordinasyon
christopher
şampiyon
whitopia
doğrultusunda
tahminimce
alpha
anestezi
joseph
atöly
egzotik
işbirlikçi
monterey
akustik
vatandaşı
bişey
muhasebe
natasha
apaçık
tereddüt
venedik
mücevher
crispr
enceladus
tedirgin
kosova
58
68
cüret
diyorlardı
gon
hub
iade
jill
les
nab
she
ty
ydi
##n1
##cili
##cesine
##ela
##resif
##ast
##zyon
##bot
##ose
##dön
##dina
##git
##şası
##war
##irdim
##larinda
##ardi
##illa
birilerini
##demi
##yatif
olustur
daimi
kac
kaset
##dul
##lanmanın
bati
##esa
##bildiğimiz
gölü
içimdeki
haham
##umla
inci
yapınca
yapmıyorlar
##hai
anın
##ism
bildiğimizi
benliğin
##ırtı
etmiyorum
etmiyoruz
etmelisiniz
tabe
##inizm
almadı
##say
##alıp
gelistir
##kala
işinin
karlı
karton
verisi
vermemiz
vermeyen
düştük
zamankinden
olmadık
olmayış
olaydı
olamayacak
kenne
##ülmesi
düşünmeniz
çalışmalıyız
bakıyordu
sorul
yüzünde
yüzbinlerce
anlamamıza
##manin
##tent
kullandığını
evlerini
büyüktü
doğar
geçit
geçmesi
geçiyordu
geçtiğinde
açlıktan
hayalg
ilgim
sifon
prova
proton
duruyorum
duruyorlar
##tiğinizi
##vali
##çap
toplayıcı
genin
fazlasının
##meyeceğini
yollara
yolumuz
gösterme
akıcı
kurucusu
öldüğü
##oton
ekleme
konuşul
##melere
öğrenebilir
sahiptim
tarafını
ikon
içindeyiz
sevk
seviş
görünecek
kapsıyor
izleri
izlerini
gelişmeye
gelişmenin
ederdi
beach
getirilmiş
yapıların
birazını
sence
teknolojilerle
yaratılmış
mesleki
ülkesinde
değiştirdik
seçti
üretecek
çıkardılar
alım
##ınızla
yaklaşan
çözecek
atma
bilimci
bitmiş
katmak
milyona
seslen
eşleş
##layıcılar
görece
ulaşıyor
hücum
parçalardan
makya
yaşamları
universit
paragraf
kötüydü
eğitil
oluşturup
##lamaktan
##üsüne
belirten
bırakmaya
bıraktılar
uçarken
bekledim
birbirinin
çalışmadan
kitaba
alabilecek
alabiliyor
geçirdiği
geçirmez
şirkete
kırk
savaşları
ürüne
##düklerini
paylaştı
ihtiyacını
kontrolünü
tasarımlar
dairesel
orantılı
##ıcısı
destekli
merkezde
programlanabilir
anlatın
hissettiği
barsak
haftalar
tanecik
değişikliğini
meksik
##acaktır
##acaksınız
kesik
düzenley
düzenledik
haberlere
müzikle
çevremizde
neslin
fiziğin
olduğumuzda
plankton
ilişkinin
çiftleşme
gezegene
gazze
ağacının
tura
boyutunu
deneyimini
boşalt
gerekiyorsa
ülkelerinde
hindistanda
##miyordum
kimseler
rahatça
bölümünün
suni
geçmişin
öldürür
vakıf
haritalar
büyümek
cins
oynamayı
yemekler
##ladıktan
biliyorsunuzdur
larry
yapılmasını
tanışmak
uzmanların
fikrinden
sinirli
trip
takımının
işlemler
tavşan
kaynağını
söylemekten
pano
##zaj
olduğunuza
ardına
yapabiliyorlar
birleştirmek
birleştirip
makineye
uğraşıyoruz
kardeşler
feci
camdan
seferber
ilerlemeye
krizinin
turing
çizgileri
söyleniyor
hissediyorlar
##lesinde
okyanusları
imkanları
sayfaları
1996
ekranı
mücadelesi
epilep
endüstrisinde
mayın
sahneyi
bağışık
alakalıdır
kutuları
tedavisinde
yaşıyorsanız
biçimini
organizasyonlar
bisiklete
müşterek
##diginiz
düzelte
telsiz
1989
beslenen
yayılım
kuruluşlar
eyaleti
objeyi
kopyasını
genomik
ideolojik
arıları
koyabilirsiniz
grubuna
mensup
maymunların
nesnel
haklıydı
suret
yürüte
bilmediğim
artırılmış
kralı
ailelerine
mektubu
eleştiri
kavrayış
suçlular
betim
gazetede
düşündüğünüzü
vida
yeryüzünün
eşyaları
çiftçilerin
cumartesi
omz
kategori
saniyelik
##mese
liberya
galaksiler
agresif
diplomasi
pratikte
elektroman
kılmak
tecavüze
kullanabilirim
otorite
entegra
şifreleme
venez
sergile
spektro
oluştuğu
##tiyseniz
kullanılabilecek
yurttaş
uzerine
##grama
ölçeğinde
öfkeli
anlatılan
julia
kuraklık
alıkoy
okuyup
origam
konsantre
mütevazı
kepler
doyur
kuşkusuz
harap
meditasyon
bağdaştır
milimetre
istiridye
dylan
vajina
himalaya
avusturya
kıvılcım
bruce
tolerans
stratosfer
ejder
lezbiyen
kennedy
aur
bre
bran
cn
clar
ey
email
fiş
gine
glik
gab
guc
jüp
lord
lhc
muyum
ozon
pili
plak
rev
rup
sci
tüf
una
usha
yin
yiyorlar
zü
çn
ütop
##run
##miy
##mesin
##çh
##ysak
##bs
##beli
##oj
##feti
##gur
##vo
##vey
##wart
##ernik
birarada
bircok
bum
degi
dediğimde
##tılıyor
içki
içgör
içimizdeki
inatçı
##tali
##uruz
##has
antar
##isiyim
görmenin
görmedi
bilek
##üşü
##sana
benle
##ırsam
##casına
sonlarına
alç
alınır
almasını
##saur
gelse
gelenin
düşme
kontra
zamanımı
##selerdi
olmamak
##ğımın
yanan
yanıp
gerçekliğe
##ceğinizi
çalışmakta
yaşları
##row
tekil
yıllarında
sizlerden
bakmalıyız
soruyoruz
sormalıyız
anladığımız
anlamanız
anlayıp
evan
evlerin
evinden
geçeceğim
yardim
sürmek
elin
ellerinizi
max
bow
değişecek
##lular
şekillerini
sağladılar
##sic
uzlaş
toplanan
yakin
yokol
paramız
gösterg
kurs
kuruyoruz
aynıydı
döndüler
kılar
zorlaş
diğerleriyle
ekliyoruz
yapamam
çocuklarda
çocuktum
konuşarak
konuşuyordum
yaptıra
mill
##ebiliyorum
öğrendiler
öğrenebilirsiniz
başkasına
duyuyordum
yetisi
yönleri
edeyim
inanilmaz
sevdiğini
durumdur
alanlardan
alanlarından
kimliği
kaplayan
olurlarsa
sistemlerinin
mercek
yazıyorum
##sizin
girdiği
dışad
hareketinin
##ics
gübr
seçici
üretti
üretiliyor
alışı
anlamıyorum
hikayesinin
yaklaştır
katarak
milyonun
görüyorsun
dinlemeye
makro
ayrılık
yaşamda
zorundasın
korkuyor
korkunun
oluşturdular
oluştururken
olmasıyla
sayıların
##üsün
müziğe
bırakıyorum
bırakacağım
muhak
muhta
yükseklikte
dikiş
arkadaşlarını
yaratarak
yaratmanın
ekonomisini
tahliye
şirketlerinin
aşaması
problemle
##lamıyoruz
çizdim
##ılmıştım
kazanmaya
kazandım
polisin
hatırlar
birşeydi
ettiğimi
tasarımda
eğitimini
yorul
tarihine
orang
kolları
kesinlik
##higan
merkezinden
bask
cad
yalvar
etraftaki
etrafınızda
hazırda
hazırlanmış
hazırladım
kendimle
bariyer
yönetil
araçlardan
telefonunu
telefonunuzu
ölümle
habersiz
çalışanlarının
fiziği
genişliği
modelinin
tedx
olmalısın
desteklem
istemeyen
taşlar
istiyorsan
gönderilen
parçasıydı
birleşim
taşıdı
tanıyan
##üste
baktığı
baktığında
hücreden
ifadeyle
çinliler
aşkı
kuzeye
artarak
##kele
üniversiteden
anlaşılabilir
iletişimin
hoşuna
hoşlanma
sunan
sunul
geçmişteki
çalışıyorsunuz
kuşun
##tuğu
yavaşlat
yakalan
yakalama
büyüdüğü
büyüdüğünü
pazartesi
sarmal
besley
sınıftan
oynama
düşünürdüm
veririz
enerjisiyle
ilerliyoruz
dona
ortamlarda
kiri
kirlili
kopernik
##vetli
idrak
endişeli
trol
olasılıkları
matematikçiler
unutul
unutmayacağım
teoriler
tavana
şeklindeki
giydir
cesit
ışığını
süperilet
atalarımızın
##emeyeceği
kapıları
paneli
bebekleri
kokusu
yapacaklar
kurtardı
yaşlılar
çalışırız
medyayı
aşıların
coun
sokaktaki
ilerledikçe
toplulukların
##sünüzdür
bloğu
##hoven
adlandırılıyor
2013
minim
##ologların
medikal
1994
eyleme
körlük
öneriyorum
sanatçıların
sanatçısı
rakamları
uyanık
buluşlar
şangay
televizyonu
##maktadırlar
tedaviye
edeceği
detaylar
şahı
başlattım
gibiyiz
ebeveynleri
çöplük
yeteneğini
kullanırken
objektif
grafikler
reklamı
bacaklarını
vatandaşların
hafife
bolluk
etmişler
kullanıcıları
ıssız
michigan
örneğidir
uzanıyor
uzanıp
kemikleri
atılım
stratejisi
irk
şanslıyım
yürüdüğ
uçurum
avustu
artırmak
romant
hesaplamalar
derecelik
müslümanlar
paketi
duyguyu
ötede
ayrılmak
sahiptirler
çekilip
faktörler
yapabileceklerini
kavraya
kanadalı
araştırmacıların
amanda
kıyafetler
somon
keşfedilmemiş
platformu
ferom
yaptırmak
dinlediğiniz
büyütmek
kalınlığında
high
kurtula
hatırlattı
canavarı
nitelikte
cumhuriyeti
lokanta
astronomi
konsep
panthe
bulacaksınız
mutfakta
minicik
ajansı
santimetre
eroin
erozyon
tabakası
simülasyonu
yılımı
kastettiğim
uyuşmaz
aydınlatma
başlangıcından
bilimadamı
##chie
dusunuyor
güveni
hemşireler
minnettarım
sovyetler
şempanzelerin
telafi
victor
sendromu
gülümseme
bataklık
teleskobu
fısılda
dalai
muamele
korumanın
becerikli
skype
alkislar
müfredat
adanmış
dikdörtgen
kolera
namibya
labaratu
ihanet
bitcoin
lojistik
kapitalist
oklahoma
ahşap
ahtapot
elektromanyetik
dışadönük
56
61
91
atıldı
bj
ere
efen
heter
iten
iri
sb
wright
ydı
yör
zer
zip
ım
şam
##adi
##zak
##mıyorlardı
##king
##iğine
##ow
##dinin
##fur
##pon
##eratür
but
bulamaya
##lersiniz
##izma
##dalg
##eytin
##eliler
##dıman
##dıracak
dediğine
##ethoven
##ızdan
##emiyoruz
##emiyordu
##bildir
içmek
yapmalıyım
yaptınız
##tacağım
##oluk
##üminyum
##medy
başba
başındaki
onbinlerce
insanlığa
allen
albert
alüminyum
##bia
gelmem
##ayir
##ayız
ilintili
verebilirsiniz
veriyorsunuz
aydır
düşkün
aradığım
aracının
arayarak
olmadığımı
değilseniz
artacak
##rojen
bakmanız
sormamız
yüzyüz
##mayacağınız
kullanmamız
kullanılma
ash
evinize
kotu
geçebilir
geçtiler
çıkıyordu
çıkabil
harit
süresini
##elerimiz
değişebilir
tanıklık
sağol
sağlaması
şuur
durduk
duruyoruz
##örü
uzlaşma
toplandı
kurup
ortasındaki
derhal
öldüğünde
söylemeyi
okuna
nedense
nedenlerle
kendisinden
eksp
yapamayacak
kişiliğ
hepsinde
sahiptik
gülünç
yönlerden
ikisine
edebiliyorsunuz
inandığımız
bizimki
görünmeye
gözde
gözlü
gözlerimi
##abayt
hayvana
edersin
eğim
beethoven
türünden
getirmeyi
##enize
ras
sistemlere
sistemlerine
açıktı
bunlari
yazıyordu
arkadan
olacakları
çektir
çekiyorum
beyinden
girmeden
hareketle
hareketlilik
değiştirmeyi
üretic
üreticiler
ürettikleri
noktasını
güzelce
olabilirdim
bilimcisi
biteni
seslerin
sayın
takas
kazara
##siyeti
##ğınıza
##obik
sorusuna
güvenle
deneyimin
ulaşır
ulaşmış
araştırdım
##malıydık
değerlere
korkmuş
oluşturuyoruz
sayıya
kabus
aileme
oradayken
koymuş
belirledik
sök
umumi
filiz
açılıyor
biliyorsanız
geçirecek
marang
marcus
problemimiz
yakınlık
yedim
yedik
yaptıklarına
dilleri
hatırlarsınız
uzaklarda
birşeyin
ayrıcalıklı
havalandırma
listem
örneğ
##lığındaki
biyoteknoloji
##dakine
##dakilere
kollarını
kaynaktan
##luğundan
beynini
##inceye
etrafını
etrafından
ölçebil
anlatarak
gördüğünüzü
denizana
##künün
kesişim
yaparsam
başladığınızda
hastalarının
koruması
vaad
istemiyorlar
güneşi
taşra
istiyorduk
giderse
gidersiniz
hücreyi
hücreli
sebepler
taşıyı
karmaşıktır
tanıtım
##malarıdır
lagos
engelliyor
baktığım
robotlara
boşver
duygularını
aşın
tesisi
gideceğim
alındığında
ışıkla
artması
ürünlerini
diril
koşan
anlaşmaya
ilaçlara
geçmişten
kalanına
dönemin
dönemlerde
##lacaktır
azalta
vaktim
tabu
tablet
bakışı
##boş
haritaya
haritayı
ormana
düşüncelerin
sağlayabilirsiniz
satmaya
zenci
dönüştürme
yaptığımda
garson
başarının
başardılar
algısı
yatırımcı
aldığında
başladıklarında
idrar
fikriniz
leone
185
havuç
unuttum
teoride
bitirdim
bitireceğim
bulacağız
bulabileceğiniz
şeklimizi
kafamı
hükümetinin
fakirler
final
kapılar
kapıdan
olmadığıdır
petrolden
yüzeyine
bakterileri
cihazın
kest
saçları
sitesine
yapılmıştır
ilerlemeler
borc
meseleler
uçakların
listesinde
cezayir
1991
bayrağı
netic
##tukları
yemeğinde
isimler
ekrandaki
yaratabilirsiniz
ödüller
nesile
uyanıp
şansa
işbirliğine
topraktan
devrimin
piyasada
##duğunuzu
kurabiye
jeffer
araziyi
yanıtı
monit
japonca
vaziyet
##meyecektir
kurtuluş
imkansızdır
kısımları
##ladığımızı
taşındı
kapasite
kapasitesini
aklımızda
vatandaşlık
çıkarabiliriz
verilmesi
salondaki
numaraları
menfa
utangaç
incelik
uçuşu
cesareti
polimer
eyaletler
kayboldu
polisler
yakıtlar
evril
nesneyi
şüpheli
tırmanış
kullanıldığı
dönüşümlü
tuvalete
bakacağız
bebeğim
oyuncuları
ailelerinin
kaydettik
büyüklüğünü
broş
kütleçek
fırsatımız
kazalar
eleştirmen
ekosistemin
istendi
okuyacağım
döviz
kusurlu
buzulların
verimliliği
ailemle
sızdır
gold
dükk
guven
işçileri
açıklayayım
saniyeliğine
satılan
ayrımcı
sayfayı
konferansta
zirveye
lityum
literatür
işletmelerin
ağzına
barındırıyor
bürün
terapi
link
tesadüfi
pomp
huzurlu
dağılımı
gözetim
memelilerin
günümüze
ödenek
pix
vasıf
isminde
kalitede
azıcık
mumbai
ultrason
ifşa
modül
bronz
vurgulamak
eşitsizliğin
görüntülen
kıymetli
seyreder
buzdolab
dolap
sindirim
mammografi
büyüdüğüm
coşk
başkent
arındır
yüzyıla
niteliğinde
tiksin
implant
elastik
##osentez
shakespe
melodi
petrole
tetk
bodrum
melez
yaklasik
iskandina
pittsburgh
carnegie
makyaj
ejderha
glikoz
ushahidi
kiribati
pantheon
marangoz
iskandinav
74
adi
barak
cur
cher
dim
gey
ita
iter
jc
jong
nesi
rog
shar
teli
yle
##ceye
##rının
##tmak
##av
##ılarak
##zan
##kine
##sol
##yık
##yumu
##bine
##dral
##geri
##goz
##ansa
##arsak
##ilmez
bucak
budist
##orna
vej
##izona
##elli
##eliyim
dean
oldunuz
##etti
##lanmıyor
##oksi
##emden
##ımsı
##ımdır
##bilmeleri
içlerine
inen
inde
indek
yaptik
yaptim
##tas
##lidir
##iyak
##tie
##tica
insanlığı
gius
almam
enfor
engin
geldikleri
geldiğinizde
önünüzde
##ayi
işı
işiniz
##caktır
veriyordu
vermelerini
tech
konsey
olmadığımızı
oreg
gerçekle
arizona
yüzlerini
anlaması
##all
kullanmıyor
kullanıyordu
evinin
evlerde
koda
dünyasındaki
açılmış
sürdüğü
##yonun
elimize
elleriyle
ellerimi
eldiven
##elerim
şimdiyse
boyan
sağlığa
sağlamış
##leşmesi
haklarının
##sterdam
topuk
benimsen
##lıyorlardı
##sell
yolların
yoldur
gösterip
göstermiş
gösteriyordu
gösterebilirim
kurarak
##ometre
derne
kalmadan
tümörün
özüm
özgeç
öznel
ölmeden
hiçkim
söylememe
##otter
##lemiz
konuşabilir
devin
karşısına
sığına
tamamına
isteğim
durumdaki
adaleti
gözünde
alanlarına
üçe
konudaki
kimliğini
hayatlarımız
ambe
ambu
amsterdam
türe
getirmemiz
sistemiyle
##bileceğin
##bileceğimize
çoğuna
yaralanma
müh
yazdır
arkadaki
çekmiş
tasarladı
##leştiren
geribildir
değiştirmeliyiz
bugünden
çıkarları
çıkararak
güçlen
güçtür
adli
birkaçını
yaklaşa
atla
onlarin
dokusunun
##hire
görüyordum
takma
taktik
kızar
eşimin
yaşamakta
202
ağda
ulaşmayı
maksim
sırayla
serisi
##malıydı
değere
değerlerin
değerlerini
sonuçlarına
oluşturdum
oluşturduğunu
##üsünde
oradaydım
koyduğum
toplumla
toplumumuzda
açıları
arkadaşların
arkadaşımı
yaratmayı
bölgesinin
kısma
kısmi
ekonomimiz
ekonomisinin
çalışmalara
çalışmalarına
alabileceğiniz
hatt
erkeği
başarısı
marg
öğretme
problemlerden
örneklerden
img
kırmak
sosyo
canım
yakınlarında
yakınlaştır
ürper
kazanma
sanatları
yaptıklarının
okullara
uygulamanın
uzaktaki
edene
kontrolden
bağlanıyor
eğitimine
geliştirdim
söyleyip
gelirin
desteğ
gücümüzü
yapmadığı
ölçüsü
arabadan
beşte
dikkati
hantal
patladı
haberleş
haberleşme
dereceden
çalışanların
çevril
bahsetmiş
genişliyor
kitaptan
odadan
korusun
maldiv
norman
amerikanın
resimlere
ayaklanma
band
bangal
gönderir
görüşe
emily
tanımlaya
götürüp
duyguların
sakal
saklamak
beraberce
##tifak
ışıkta
organizmaları
direksiyon
uzaydan
koşmak
anlaşması
sundu
çalışıyorsanız
öldürüldü
##strong
yöntemin
yöntemini
çocuğunun
vakf
vakum
tablonun
hizmetlerini
##boy
çarpı
##emezdim
mesajını
hesaplamak
düşünürler
güneydoğu
mekanda
ilerlem
ilerlet
departman
simg
ağaçlardan
kaldırarak
özgürleştir
ortamlar
mühendi
##sky
kurumun
zenginliği
mevcuttur
harcamaları
kapağı
batıda
hücrelerle
hücrelerden
uygulamalı
maliyetle
işlemleri
kafe
parkın
dişli
kurtaran
yüzeysel
##mayacaklar
gündem
plase
yabancılar
yasaları
projelerin
birleştirme
gözükür
sabahları
ceph
cephe
çevredeki
medyaya
saçlı
siteleri
psiko
sokaklarında
toplulukta
kanıtları
olmadığında
masaüst
çizginin
farketti
semp
motorsik
1993
yemeğine
dokunmatik
indirgen
bankacılık
edebilme
aldıklarını
şansına
##off
pahasına
arkadaşımla
kutular
kutuda
frans
jean
seviyelerde
sonucudur
üretimini
kimyasalları
nörona
bombası
##lanırlar
maske
düşünmekten
delir
girişimi
##tüğümüz
maymunun
gecesi
kartpo
kullanıcıların
galaksinin
kampı
dengeli
partiye
direktör
kompoz
aktarma
vermeer
şefkatin
ayakkabıları
ceha
gökyüzünün
katedral
atıkları
şekillendiren
metrekar
prenses
4000
jener
öyküler
ısınmanın
memnunum
memnuniyet
hayatımızdaki
çıkışı
olmamı
fonksiyonel
çıkagel
hangisinin
hissettiren
okuyabilirsiniz
algoritmalar
kelimelerle
yapımcı
sahada
sineğin
yeryüzü
mcdon
göremiyor
göremiyorum
umud
özetle
kocası
sergiler
materyalleri
pozisyonda
çiftçilere
tohumları
akademisi
akademisyen
onurlandır
lamb
geçtikten
grafiğe
kazandırdı
konferansı
yayıldığını
travmatik
sensörler
arkadaşlarıma
reçine
hakimiyet
kasabada
benzetme
hill
retin
doldura
jonathan
arayışı
school
diliminde
şebeke
müsaade
##olitik
değinmek
sürat
dibine
piramit
varoş
tartışı
çözülmesi
koltuğu
çürüm
havaalanı
ihrac
casus
cassini
silindir
sürücüsüz
vicdan
jerry
laptop
mütevazi
bosna
peygam
sağduyu
cenaze
layık
işgücü
##imyasal
fahiş
varsayılan
hijyenik
düşünsenize
karamsar
gidişa
parlamen
milisan
eğlenceliydi
görkemli
iktidar
hubble
jüpiter
başbaşa
yüzyüze
jefferson
pixar
shakespeare
giussani
oregon
maksimum
aust
bün
binde
blo
cet
ebedi
fg
fis
food
hoc
hos
joy
pur
tir
tun
tarıma
usul
zap
çil
şaman
şika
##cine
##cımız
##che
##til
##ace
##ılamaz
##mut
##mül
##ymiş
##ysam
##bul
##dileri
##je
##jo
##wat
##lagel
##lamıştım
##ani
##iliyordu
birisiyle
bulaştır
bulamazsınız
buranın
##ledikleri
##unt
yayan
##dış
demet
oluna
##lanıyoruz
bacağı
satar
haç
yapamıyor
##ligin
##liath
##amet
bunlarda
andaki
andy
anlıyorlar
görmenizi
bilecek
bilemezsiniz
olduysa
##makar
bendim
varmaya
##cap
sony
sonrak
etmiyorlar
almıyor
##tech
##ilerimizi
##sıntı
önlen
işlen
karmakar
ilç
verebilmek
kaderi
düşmek
düştüm
araca
konv
konumuz
kontak
zamanlardı
##ininin
yanıyor
olanlarla
olacağımızı
##laşan
gerçektir
arda
arıyorlar
ararken
##rov
kadardı
yıldön
bakir
soran
asp
evimin
evinizin
evinizde
komedy
büyükbaba
doğuyor
doğduğunda
geçiyorlar
yarayıp
açmış
açımdan
sürgün
##eceğinden
santig
sağladığını
##tiğe
##lamama
yokmuş
fazlaydı
başlatan
gösterisi
dönerek
dönüyoruz
kısı
derlerdi
söylediğinde
söylediklerini
diğerinde
dodo
konuşup
kaydını
devri
öğrendiği
öğrendikleri
duyarlar
duyduğunuzda
oluşa
gitmeniz
gittiğimiz
gitmesine
bazılarında
inanış
kendileriyle
##mazsa
sevil
ihtiş
##ifer
##iflu
tarımın
gözlerim
migu
alanından
oldukca
izliyoruz
haykır
getirmesi
radar
sisteminden
sistemimizi
##türn
##timore
yüklen
senesinde
özelliğini
yazarak
yazıldı
mesel
girdiğinde
girdiğimde
altının
ülkemde
tamiflu
değiştirmiş
tutuş
seçilen
seçtiğimiz
üretiyorlar
çıkarlar
noktaların
noktalarını
noktalardan
##berto
güzelliğin
aferin
bulunduk
biliminin
katli
kızla
kızımın
##siyum
eşliğinde
güvenliğini
ayrılıyor
##meliydik
seramik
korkuyla
hiçbirimiz
aileden
ailelere
müziğ
belirliyor
avuka
bırakıl
bırakırlar
uçsuz
bekliyorum
açılıp
bilgisayarlarla
hayallerini
oyunlarını
oyunlarının
oyuncusu
##vari
geçiriyorlar
öğretilen
problemlerini
imz
istersen
çizmeye
canlandıra
savaşmaya
sözlerini
sinsi
##tıyorsunuz
gençken
gençlere
yaptıklarında
diller
diliyorum
boylu
paylaşıyoruz
paylaştığı
afrikada
birşeydir
otlak
seksen
kutuyu
örneğim
meseleyi
geliştirdiği
pasa
halat
amerikada
davranan
kelimeyle
yapmayın
hazırladı
grupta
çalıştığına
araçtır
araçlarını
telefonun
haftalarca
matr
##ging
cia
patlak
kesmek
keseli
elektriğin
kısmından
bahsetmiştim
yazıya
tepeden
benzeyecek
planlar
planlaması
görüntüye
yemeyi
edinme
sprey
taşınır
gezegenimizde
filmlerin
bahseden
tuval
boyutlar
las
engelliler
götürdüm
tesir
##ülebilen
gidiyorsunuz
koşucu
üniversitesinde
anlaşılmaz
iletişimde
hoşçak
rahatlık
rahatlat
risd
##lanmasından
##chu
##chus
sunumu
ilgilenmek
roy
azaldığını
geleceğim
yüzyıldan
büyüğü
gerçekleştiğini
haritaları
haritasına
seçimlerin
besliyor
besleyici
mikrodalg
doğadaki
goliath
görürseniz
çeviri
bilinmez
kuzeybatı
yükselişi
##ladıklarını
başlayabilir
simon
yapılmamış
tüketicilerin
özgürce
rekab
temizleme
kafasında
yerleştirdim
harcadı
harcadığımız
kaybetme
hapset
takımımız
havası
kalkül
##hall
matematikte
teorisini
proteini
mühendisleri
şeklimiz
şeklinin
kaynaş
kamerayı
##gari
savur
politikaları
finlandi
parkta
kapısı
kapısını
kokle
numune
yaşlıların
##ebileceklerini
##ilirken
karakterleri
gözükmüyor
aletin
cami
keder
kestik
keith
aşısı
farkındayız
mantıksal
psikoloj
ilerlemek
mağaz
ihtimalini
ihtimaliniz
krizin
adlandırdığı
zekası
2016
kodlama
metreden
düşüncem
düşünceli
sayfalar
yoksulluğun
ölçeklendir
porn
aldıktan
yazılımın
##oyak
jest
aklında
köşesine
edeceğimizi
bölgelerin
sıfırsız
çılgınlık
kasvetli
gibiydim
seyircilerin
gazetecilik
dallas
eylemleri
sektörde
delikli
saldırılar
grafikte
eksiksiz
bacaklar
çıkarabilir
akışına
verilecek
state
kullanıcılar
##afiyet
mısırlı
grubunda
menü
##ulmuştu
aşkım
dengede
harcıyorlar
harcamış
mekanizmaları
denediler
hikâyesi
hikâyenin
yerleşik
1973
ayakkabısı
anlatıyordu
muhale
kiminle
altıncı
sorumlusu
karıştırıcı
kaydedilmiş
##altına
dergisinin
kraliyet
peşine
görünüşte
tabloyu
katmanı
öyküsü
büyüklüğündeki
gerektiğinde
izlediğimiz
trilyonlarca
merhametin
faktörü
dövüş
tuvaletler
islami
yapımında
kurbanları
kanatları
mcc
düşüşü
eşyaların
sırtında
ağrısı
lambası
konservasyon
penguenler
elektrot
sunacağım
demiryolu
tutuluyor
benzediği
yaprakları
uyuya
1945
genişletmek
yunusların
isteyerek
bmw
nuf
herbiri
heyecanlandırıyor
özenle
rönesans
360
metabolik
söndür
white
tercüman
logo
hamuru
mucizevi
istikrarlı
sorumluluğunu
hyb
tsunam
aileniz
entropi
kombinasyonu
sülfür
hayırseverlik
kuyruğu
telaff
istifa
jersey
samanyolu
rwanda
yaşanabilir
yetimhan
talihsiz
komünist
hasıla
##hidrat
otura
bilimadamları
toyota
louis
uğraşırken
ateist
şırınga
kargaşa
wolfram
çoban
derecelendirme
kıkırdak
tezahü
entegrasyon
degistir
antartika
avusturalya
margaret
bangalore
kartpostal
şikago
santigrat
miguel
hoşçakal
41
53
78
94
binden
cog
edu
gw
gil
husu
iq
isek
ivan
jr
jel
kak
kıldı
mili
oc
peri
solo
vinci
vikip
wir
yıp
zara
zeytin
çın
üş
üne
şev
##ülem
##naz
##cha
##ciyi
##ea
##ldır
##ua
##rin
##rit
##mstrong
##kon
##ice
##bü
##barı
##hran
##own
##dine
##gham
##pson
##xon
##eron
##larsak
##ilemez
##ory
##delen
##eld
deep
kask
##duz
göçe
satürn
inmek
##hay
##uzun
##amıyordu
##iyesi
##iyeli
##isha
görmeyen
şeyim
bense
değine
değnek
##ılmasına
one
onk
taham
##sachus
##imizdir
##ilerimden
gelmekte
geldiniz
##diğiyle
karara
karesi
verdiğinde
vereceğini
zamanlara
zamanlardan
yanarda
olandan
olamayacağını
##cektir
##laşmanın
gerçeklikte
arma
arsa
artik
arıt
armstrong
##ipo
bakır
sormuş
ilete
anladılar
anlamadan
kullanmalıyız
kullanıyorsunuz
asim
everg
koord
şeklin
bulmakta
yarının
nasıldı
sibir
dioksit
diego
##lup
sandığımız
sahtek
##side
toplaya
kurduğu
döneceğim
kıdem
ortağım
ortalarında
kalka
zorladı
zorluyor
gerçektende
muta
söylemez
söylemiyor
söylediğine
diğerinden
nedensel
ilkokul
dolarla
dolanan
ekliyor
milliyet
##leydi
##reği
##ebildiği
sahiplen
sahipseniz
küçülüyor
tamamlamak
tamamlanmış
##memeye
doğrusunu
gitsin
yönünden
kendinizin
içindeler
içindedir
içindeyken
sevdi
görünümü
etkisine
gözardı
miami
konulara
kaplama
ameri
##enizde
yapılanma
ediyorsun
açıkcası
yaratıldı
yazabilir
isken
island
girda
girdiğinizde
girerken
hemde
hiss
dışar
##ico
topluyorlar
değiştirdim
değiştirdiğini
##unuzdaki
espr
üretebiliriz
çıkarmayı
çıkarıyoruz
edilmek
edildim
##ganın
sorunum
##ümüzden
afro
hızında
çözebiliriz
atlama
atlas
çağın
dokunun
doküman
sesimizi
düzeyi
kazası
eşik
eşinin
oylama
sorularla
güvence
güvensizlik
dinledik
araştırmamız
ailesini
ailesinden
ailelerini
koyuyorlar
danny
basittir
toplumdan
uçup
yüzdesi
fotosentez
bekar
arkadaşlarınız
yarattığını
projesinin
projelerden
mete
metot
çalışmalardan
alabama
mikron
kambo
##tıcısı
aşamaya
çizimi
savaşların
sözlü
bilmenizi
ref
paylaşıyor
ettiğine
etkilemek
sekret
south
geliştiren
söyleyebil
söyleyemem
salla
yorumu
tarihten
yinede
videosunu
past
olsalardı
basarak
hazırım
hazırlıklı
yönetiyor
telefona
karşılaşma
karşılaşıyoruz
değişikliğine
annesine
kesmeye
düzenlenmiş
konuşmalarını
çalışanlarına
kilolu
kültürleri
kitaplarını
destekley
destekleyecek
tahminen
fas
fasul
çözümlere
gönderdim
gönderiyorlar
emer
sebepleri
taşımaya
hayatımdaki
tanıdığınız
boyutuna
lav
inceley
engelley
deneyimdi
deneyimlerini
akılda
testini
alınıyor
ürünlere
stro
koşarak
koştu
dakikadan
##chel
mevs
ayrılma
etmediği
##gali
yüzyıldaki
tıpta
adımda
büyütür
görmekten
çarptı
yetişen
nüfusa
çevirir
çevirdiler
bilindik
##ustu
ilerlemeyi
başarılıydı
muhteşemdi
anlayacağınız
aittir
yıldıza
tanıştığımda
pazarlar
yerleştirme
yerleştirip
harcayarak
ağırlıklı
tatlım
sürdürmek
kişiselleştirilmiş
kemiğ
fareleri
dağıtılmış
babamı
şarkılar
gördüklerini
teoriyi
süreçler
amaçla
##suç
kapılarını
dişleri
beklenmeyen
fırsatını
karakterin
içeriden
kardeşimin
şaşırtıcıydı
kanıtlamak
turizm
masaüstü
çizgisini
saniyeler
ruhunu
düşünceye
gözlemlemek
listede
listesini
tenis
##mayanlar
itti
ittifak
gıdık
dolaşırken
arabam
cevabın
yoksulluğa
##yalılar
sahnenin
titus
ücra
bedeni
bedenim
parmaklarını
standard
terörle
sürecinden
yapmışlar
##lanamaz
tedaviler
firmalar
arazinin
massachus
##dows
bisikleti
zihni
zihnimde
yabancıların
pahalıya
imkansızdı
1986
bakımdan
girişi
çatışmaya
kaynağıdır
oluşturabilirsiniz
yansıtıyor
servise
salonunda
notları
russell
utandır
kenarına
##ucuydu
kayalık
kaybolur
geminin
deliğe
nanopat
acc
dürüstçe
olanakları
adaletsizlik
yapabileceğimi
yapabileceğinizi
domuzun
tabanı
atıklar
afrikalıların
azaltmaya
boşluklar
istatistikler
jenn
##lass
degildir
doldurmak
canlandırmak
uzaklaşmak
gömül
barınak
juan
ulaşabiliriz
kanallar
fırsata
olamazdı
gözüküyordu
dövme
baltimore
çerçevesinde
çalıştırmak
kanatlı
cesurca
lezyon
hissederiz
biyolojiyi
özetlemek
belgeler
vücudunda
princ
beklediğimiz
mektuplar
klitor
yöneticileri
##point
##istimal
sandalyeye
bıyık
yatağı
yatağa
kalemi
satışa
uyarıcı
uykuya
yaşlanmayı
yayılmasını
inekler
depresif
little
tapına
üretkenlik
karşılıklılık
numarayı
sensörleri
gandi
sigortası
unsuru
yetkili
mahkumlar
keyifli
hapishanede
alakasız
dakikayı
efsane
zorunl
şükran
ogret
arşimet
macar
ölçeği
çığır
pisa
unuta
nazikçe
##gisay
çözünürlükte
hackerlar
ultrav
iflas
düzenlemeler
anımsayan
magaz
başlangıcında
##tigimiz
kaçakçı
kıtlık
tanıtmak
iğneyi
cumhuriyetçi
icadı
trafiği
vaktimiz
nakliye
enzim
yerçekim
göründüğüne
kurtarıcı
nişan
kılıç
kelebek
snowden
samimiyet
embriy
embriyo
show
##ight
fenomeni
birincil
fried
habitat
hawking
sarsıcı
intikam
mukav
felsefi
cemaat
meksikalı
orangutan
menfaat
bucaksız
plasebo
mcdonald
parlamento
büny
karmakarışık
finlandiya
tezahürat
vikipedi
tahammül
everglade
koordine
sibirya
kamboç
nanopatch
alamazsınız
baraj
ciz
cemiyet
diler
hz
hg
hok
iba
jan
jay
job
key
ket
mırıl
nba
oec
plüt
rey
romo
sher
vız
vura
woo
zo
züm
zero
üf
##ew
##luyorum
##luyoruz
##uu
##ute
##uliyet
##ılıp
##ılıyordu
##km
##ky
##kes
##keli
##ida
##ysan
##olan
##osta
##fli
##ginde
##erji
##anıza
##larinin
##arit
##arbon
vegas
yatar
yasinda
##eydik
des
demem
dediklerini
##rah
day
dağa
daydım
dayat
##tılır
##lanmadan
##bilgisay
salak
sapan
satıldı
içen
hacim
intel
içinse
yapi
yapman
##ursunuz
##amık
görmemiz
görmesini
görmemiştim
değmemiş
##tia
varan
varlığına
##ırt
##cağında
sonuncu
onyıl
gidince
almıştım
aldığımda
##sap
ender
gelmeyecek
önlenebilir
kariz
verilerine
verdiğinizde
aralar
zamanımızı
yanlarında
yanımızda
yerlerdir
##tırsanız
düşünmemiştim
çalışırım
##rovir
tekme
yıldaki
sizsiniz
bakmanızı
sorarak
iyiyim
asi
evim
evlili
##mişimdir
farkla
farkları
geçim
çıkmasına
harici
gündü
günüydü
ellerindeki
mada
programa
dick
santra
sağlanan
##leşmenin
durmaya
hakiki
##lamadı
üzerlerinde
##bağ
##bage
##ebilirsin
yollarından
gösterge
kurg
kurar
kurmuş
kıla
kalbe
kalmıştım
konuşuyordu
kayd
başkaldır
##memeli
oluşu
oluşmasına
yönleriyle
ikisinden
edemem
edemeyecek
inandım
inanıyordu
içindeydim
durumlarla
adayı
etkisiyle
gözlerine
migren
konuların
böle
erte
gelişmesi
suistimal
hayatlarına
türlerini
getirin
sistemindeki
##larımızdaki
mov
yazması
çektiğimiz
hisleri
hareketlerin
##leştiriyor
kadınlarda
tutuyordu
seçin
seçiyor
esir
üretmeyi
vardılar
noktadır
edilip
hikayelere
güzeldir
attığımız
##emediğimiz
katta
fikirdi
sesim
takmak
kızamık
##siyete
##cular
güvenmek
ulaştığı
ulaştıra
parçalarının
paradan
parasal
değerin
korktum
hiçbirini
kabuğu
aileyi
müziğini
belirlen
belirleyecek
bırakmış
bırakıyorlar
##sindeki
fildiş
birbirimizden
arkadaşlarımı
yaratmış
bölgesindeki
projesine
metodu
alacağınız
##ogen
##elenen
aşamalı
öğretir
öğretiyor
çeşitleri
canlının
##ılmıştır
kazanım
sanatçının
##talin
etkilem
##lığınızı
geliştirecek
geliştirdiler
orantı
##dakileri
deste
oturum
kelimeye
beynimizde
etrafınıza
etrafınızdaki
hazırız
grupla
ölçüt
çalıştığınız
hissettikleri
hissettiğimi
cevaplamak
denizlerde
araçlarının
telefonla
telefonda
ölümlerin
##küntü
komutan
konuşmama
çevresini
çevresine
çevrilmiş
çevremizi
kilogram
beyinle
beyinlerinin
beyinlerimiz
güçlüdür
kültürünü
genişleme
genişleyen
modellere
tedbir
olmalılar
çıktığınızda
spir
görüşleri
görüşmeye
görüşlerini
görüşmeler
gezegenlerde
gezegenimizdeki
birleşme
yaptığımıza
taşıyabilir
kullanılıyordu
perak
tanıyacak
fiziki
duygusuna
aşmak
doktorum
alınarak
gidiyordum
derinliği
babbage
hoşgel
hoşgör
kalanında
ettikten
öldürme
öldürmeye
dönemine
hükümete
kurallarına
liderlerinin
forma
vericidir
görülmüş
yaşayanlar
cihaza
demokrasiye
galeri
gary
gardi
##ustaki
enerjik
enerjisinin
odaklanma
tartışmanın
algılamak
yapabilirseniz
yapılma
anlayabilir
ağaçlara
ortamın
tehlikesi
hâlinde
zenginleş
anneann
##dinamik
uygulamada
ayırma
189
188
vurul
fareye
fareyi
havza
havalim
çoğunluğunu
teorisinin
buyur
süreçleri
anlamakla
bulacağım
giymek
mutluydu
kameranın
fakirlikten
umutsuzluk
özelliklerinden
koktey
diyemezsiniz
doludur
yapabildik
oynuyorlar
roll
hastanesi
içeriğini
öğrencilerinin
festi
çevreden
cameron
öğrencim
babaları
lisa
tarzını
dağların
köpekbalık
darpa
adlandırıyorum
zekayı
okyanuslarda
düşüncesini
köyü
dalgaların
dalgalarını
semt
yarışması
ithal
netfli
çalmaya
epide
##field
kalabilmek
indirmek
damarı
parmakları
zorlukların
yürüyüp
kameraya
aklını
köşedeki
##ress
molekülün
bombar
montana
kabileler
toplamı
organizasyonun
karşılaştırıldığında
müşterileri
ebeveynlik
dalları
##rontal
bağımlısı
delikleri
stewart
çabalıyor
ısıyı
ayarlamak
gecir
bulunuyorlar
aklımdan
malzemesi
düşürmek
ideo
ticaretin
öngörülebilir
küra
konuştuğumuzda
##ratch
doğruluğ
atmosferin
grubunun
heh
anlayışa
kahramanı
kahramanlar
otomasyon
eyaletinde
uzantı
bahçede
nakil
büyüyünce
şiiri
şiirsel
zincirinde
tepkileri
arttırmak
stratejiler
kulaklık
nanoteknoloji
şefkati
silip
şüphelen
verecektir
istemedi
vazgeçmek
görmüşsünüzdür
korunan
gökyüzünü
duyabilirsiniz
oyuncuların
akademi
kıtalar
etiketleme
koyarsınız
koyarsak
çıkarılan
işlevini
içerikli
yaratıkların
##layabiliyoruz
puanı
mültecilerin
kavrama
nehirler
özgüven
varlıklı
sahası
donanımı
trafikte
kurtarabilir
kapsamında
flört
göremiyorsunuz
scratch
nijeryalı
isaac
##ülmüştü
gribi
birçoğunuzun
sıkıntılı
muhafız
yörüngesinde
##mayacağımı
prensipleri
ölçümler
değişkenlik
örgütsel
üstünlük
basama
sira
yirm
kozmetik
teröristler
grace
hasarlı
vücudumuzda
kafamın
1940
sokağın
reddedil
çakıl
bileşenleri
sözcükler
parmağı
latince
bulamadım
dağılımını
oluşumunu
çeşitliliğin
frekan
water
dinozorların
uyandıran
yaradılış
colum
başlangıcıydı
yedinci
düştüğü
bükül
uygarlık
manada
titanik
inceliyor
istesem
julian
karısı
kaybedecek
aracımız
warren
arabanız
dikenli
williams
yükseğe
ispanyolca
boynuz
küreselleşmenin
windows
izninizle
blue
afrikanın
şampiy
duyacaksınız
klişe
sinaps
cehennem
steril
pigment
europa
zulüm
optimize
teşkilat
piramidin
kıskanç
komplike
viktor
çörek
önsez
tapınak
hüzünlü
pankreas
powerpoint
mağaranın
etanol
okyanustan
prefrontal
##saurus
feromon
haritanın
tetkik
itaat
özgeçmiş
maldivler
motorsiklet
telaffuz
yanardağ
iskender
meteor
massachuset
oecd
plütokra
festivali
netflix
39
76
83
84
aime
ağının
aero
by
bren
bbc
füz
gh
hyun
jür
kın
nam
nap
oak
püf
razı
sn
sının
stor
stere
squ
tenek
tof
##niz
##cca
##lock
##rarı
##rorna
##aç
##ğu
##ks
##kınız
##kâr
##sb
##sse
##sip
##söz
##çiliği
##yesi
##bt
##boz
##hre
##fan
##giniz
##şak
##vek
##lağı
##larina
##ilebilecek
bulamaz
vesil
##lestir
yam
yaydı
##die
deşif
kase
##eton
##etleri
##dut
##dura
##stur
##landıkları
bağın
balığının
##eman
##emdeki
##bilsin
##bilmeniz
##iyorsa
indim
indus
içindek
##ato
görmemizi
billy
bilhas
başpar
##cagim
onara
onarım
taa
insanda
##salardı
gelmeyi
gelmemiz
önümde
##ayın
##ayak
##aydın
geom
veriyle
vermeniz
verdiniz
vermedi
vermeyecek
ayının
düşecek
düşmüştü
aralığında
##unup
konul
zamanlarını
##liklerini
düşünebiliyor
düşündünüz
arit
artıra
kadarının
soruldu
yüzüyor
##yangoz
anlamayı
iyon
##ders
evliliği
evliliğin
kos
kob
buralar
bulmanın
harlem
açıyoruz
açlığın
sürek
sürerken
##lenmeye
##iliğini
ella
elindeki
##elerdeki
mama
mahat
madem
değişmek
sanıyor
tanrının
sex
durma
durduğu
##tiğinden
##vas
topun
topladı
paranız
başlata
başlayın
akı
##diyorsunuz
kıç
kıtanın
##omik
ortağı
ortasından
ortadoğu
kalmıştır
kalmamıştı
kalsiyum
##tüst
ölme
ölmüştü
söylemedi
nedenim
ilkesi
##otu
ekledi
kötüm
hakkınızda
konuşmamız
yaptığının
yaptığından
millik
devlete
öğreniyorsunuz
edince
azalır
oluşmaya
oluşmasını
hakkındadır
hakkındaydı
yetin
bağlama
inandı
inanmıyor
kendimizden
##mazdık
teknisyen
sevmek
sevinç
durumdu
gözlerinde
gözünden
üçünü
konuma
konularla
kapıl
kapsar
izah
eri
gelişir
beck
suları
amba
türlerine
getirilen
sistemden
seneye
teknolojilerini
yaratıp
bunlarin
yazında
çekiliyor
çekerken
girin
##layabilecek
tasarladım
##leştiril
baharı
değiştirebil
değiştirebilecek
tutmayı
seçiyoruz
termal
edilme
birkac
adresi
yaklaştı
yaklaşıyoruz
kanep
çözmüş
çözülebilir
bilimde
bilimden
bilimleri
gördüğümü
##emeleri
katında
fikirden
fikirlerimizi
uzunca
##mene
taka
takılan
kazın
gelenler
dave
güvenliğe
##çeleri
ulaşıp
parçalarından
parçasından
makal
unda
sereb
parasız
ailesiyle
##uğun
müzede
basitti
düşünüyorduk
toplumunda
yüksekliği
dönüşebilir
umduğum
bilgisayardan
alacağı
mikrorna
geçirme
içersinde
hastalığını
marş
marul
mario
fotoğrafa
genelindeki
kırıntı
hazn
bilmes
sanatta
paylaşarak
otizme
sook
havai
eğitimle
geliştirir
geliştiriyor
salyangoz
##banisha
davranmak
bazında
yapmamak
##ilmiştim
gruplarının
gruplarla
hissetti
beşi
denizden
telefonlarının
matka
paten
patlat
konuşmaların
bahsetmeye
kiloluk
benzeye
home
planlanmış
görüntülerini
durumdayım
desteklenen
vaiz
ilişkilerin
sınırlandır
resimden
istemiyordum
spik
##latin
güneşli
enerjiden
gönderen
gönderildi
görüşüm
görevde
görebileceğimiz
yapmayacağım
icer
tanımladığımız
news
periy
tanısı
neyden
inceleyen
inceledi
boşluğa
duygularımızı
saklanan
ifadeleri
teste
gideceğini
hizli
organizmanın
##miyorsunuz
elec
derinlere
uzaysal
anlaşmalar
anlaşıla
dakikaya
ahmak
sunduk
davranışların
rod
kuşat
geleceğimizi
yakalanmış
yakalanan
yakalayıp
hedeflere
besleme
görülme
çarpıyor
iptal
oynata
doğasının
maddesel
dönüştürül
binada
##bonac
görürler
görürüm
çeviriyor
değişimini
yükselir
yükselmesi
enerjiyle
depart
yiyeceği
yiyeceğin
yoğunluğunu
şarkının
vermekten
algısal
##ıncaya
yapılmasına
kaldırıyor
yıldızdan
kopru
mevcuttu
kaybettiğimiz
ağırlığını
penç
##olas
ayırdım
yayınlanmış
takımlar
olasılığını
olasılıklar
tanrıya
ortalaması
anlamadığımız
şarkıları
faydaları
yudum
bulacağınız
giyen
kamerası
fakirlerin
savunuyor
politikalar
politikaya
politikasını
dişiler
opsiyon
panbanisha
özelliklerine
kokain
yüzeyini
sağlıyordu
plaz
bakterinin
karaktere
karakterize
içeriğe
makinesine
öğrencilerime
mücadeleye
anlatabilir
lazımdı
izleyelim
110
kehan
kesti
babalarının
ofiste
değişikliklerin
çekiç
edison
borcu
##tığımı
nöroloji
##bucks
yaşandığı
uçakla
tonu
tennes
sayfada
motorları
gordug
gökkuş
ölçeklenebilir
populasyon
rüzgara
uyandım
bedenin
tortu
devriminin
kameraları
bahsediyordu
fibonac
##ılmasının
ücretli
detaylarını
belirteyim
##lanırız
şahes
savunmak
traş
gibiyim
sonucun
kurtuldu
saplan
tehditleri
kısımlarında
sektörün
bağımlılığı
delikanlı
plastikler
kullanırsınız
ayarlanmış
bileşenler
bulunuyorum
uydusu
niteliği
nitrojen
akışkan
verildiği
salonuna
etkilendim
çökmüş
küba
konuştuğunu
alacaktır
alacaksınız
dokuları
aşkımın
grev
partisi
bilmiyorsanız
gemileri
markete
korkutuyor
deliği
eziyet
ritm
ritmi
cümlenin
karşınıza
dürüstlük
hidrok
müdaha
yürüdü
yürüdük
kariyerim
toplantıda
toplantısı
milletvek
artırıyor
kitlesi
heyecanlıydım
dipteki
mercanların
degildi
büyüklüğüne
##ülüyordu
kanalları
kanalizasyon
yavrusu
bulunacak
şehirlerdeki
zevkli
fonksiyonları
düzeltme
##ovir
ibaretti
sevgiyi
kıvrı
petri
faktörleri
depresyonda
buzulun
düşünmüyoruz
mezuniyet
soyutlama
vakada
göremeyiz
pişirmek
##ememiş
gülümse
operasyonu
kategoriye
muzik
ölçümleri
6000
yöneticilerin
vizyonu
bıça
vücudunuzda
zirvesinde
aldatıcı
galile
sivrisinekler
gövdesi
tiyatrosu
yapıştırıcı
döngüsünü
hızlandırmak
dusunce
##velt
gerilim
esnada
salınımı
koleksiyonu
refahı
işitsel
sibersuç
girerim
otomotiv
medeniyetin
bulgular
finansman
şükürler
göremediğimiz
görmüyorum
maviye
fiyata
saglik
astronomik
colle
özenli
eksende
beklersiniz
kromozomu
belgeleri
alice
müsait
takılı
inceliyoruz
bulabildiğim
umutsuzca
wilson
zıttı
que
makaleyi
banknot
sığınma
sığınak
fizyolojik
basladi
basladim
##zamanlı
inandırıcı
volkanik
zemine
şizofren
hallede
mammogram
portland
anlaşılmıyor
fedakarlık
sydney
akarsu
engeli
üremesini
tevaz
rahibe
paleont
domin
uzunlukta
kemoterapi
barack
teşebbüs
sigarayı
jordan
rezonans
neokortek
kalabalığın
suretiyle
science
züraf
muhtaç
broşür
roger
hiçkimse
geribildirim
fransis
cehalet
peygamber
princeton
ultraviy
everglades
ibadet
fildişi
massachusetts
aimee
deşifre
bilhassa
kötümser
tennessee
fibonacci
59
77
89
aşır
aura
cp
cre
dü
dk
dana
ee
eme
flüt
got
gulus
hı
jp
jaz
kili
küs
kusu
lor
liz
mb
miydim
oka
play
prim
rn
rg
rezil
suz
sında
sul
sri
susuz
tüzel
vu
women
yiyoruz
çu
çete
##nar
##ef
##efen
##ulacak
##ril
##riz
##tz
##ttı
##adı
##ms
##ion
##sor
##sisi
##çinin
##bbet
##oları
##dd
##dson
##fin
##gir
##lalar
##latör
##ertu
##lary
##arya
##aryen
buf
##ekim
##ekare
##lediğim
##dez
##iks
deb
deme
demesi
dedem
olu
oluver
daim
kalıyoruz
##tıyla
##etmek
##stop
##landıktan
bale
##ess
##embe
göbe
sala
##umdaki
##taydı
##lide
##amıyordum
##iyeri
anlığına
bilebilir
bilmesi
bildiklerini
değmez
##bilirdim
etmemiş
etmeme
aldınız
almıştır
endu
##oğa
gelmesine
işinden
işlerinin
işimde
işimin
karelik
ilti
bül
vermeleri
ayin
aralarından
##kide
zamanlarının
olmalarının
olmamasına
yanmış
olanla
olaca
olabileceğiniz
olamazsınız
##uto
orle
ornek
yerimiz
##tırız
yaşarken
##rome
tekli
bakmayın
yüzündeki
##oph
kultur
iyiliği
sonraları
evimiz
kobra
##mişiz
##mişsinizdir
##zervatif
farklar
bulduğunu
deniliyor
çıkmadan
çıkmıştır
dünyam
gündür
günlerinde
açgöz
gerekeni
süreyi
##lenmişti
elimdeki
sifta
değişmiş
dibe
sanıyordum
tanesinden
##000
sağladığımız
sağlanması
sağlığımız
şuanda
öğün
haklarına
##sie
##vada
##vador
topları
toplanmış
üzerlerine
üzerimize
genc
yoluydu
gösterebil
göstermem
göstermeyi
göstermiyor
göstereceğiz
gösterildiği
dönüyorlar
döndüğünde
kıp
kıyım
kılacak
derseniz
bilginiz
bilgilerle
ölmeye
öldüğ
öldükten
söylemesi
hakkımızda
##lemem
çocuklarıyla
konuşun
konuşmaktan
konuşulan
farklılığı
koruy
öğrenmesi
öğrenirken
sahiplerinin
duymayı
oluşuyordu
yetisine
gitmez
gitmeleri
gitmiştim
yönlere
ikilik
edemiyorum
edemiyoruz
kendimizle
küçükler
sevmem
sevmez
görünmesi
gözlerimizi
konudur
##gia
gelişmeyi
gelişime
##trif
sue
rais
##saret
sensin
senatör
çoğalt
yaramayacak
yaramadığını
isk
girme
girdiğini
girerek
##layabiliyor
hisler
topluyoruz
bahis
kadındı
değiştirmesi
değiştirdiler
##unuzla
üretime
binmek
noktalarda
adamlardan
ediliyordu
edilmesine
edilemeyen
güçlerin
hikayemiz
hikayelerden
sorundur
yapmaktı
olabilirsin
yardımın
yardımsever
attık
atlayıp
kaçtı
çağının
bittikten
##emediğim
katlan
milyonu
üstünü
görüyordu
takılmış
kızdır
kızının
kızlarla
eşzamanlı
yaşadılar
1920
geleneğ
204
oydu
güvenen
dinleri
dinlerin
parçalarına
yaşamının
paralar
kötüdür
araştıran
araştırmam
korkuyoruz
korkuyordum
eğitmen
oluşturuldu
sayılara
kararlarını
ailemiz
ailemi
müzesinde
müzisyenler
koyduğu
belirleme
avı
avlu
bırakıyoruz
toplumunun
yüksekliğinde
dönüşmüş
bilgisayarlı
ekonomiler
projeyle
çalışmalarının
hatları
harikalar
söylerim
geçiriyorum
geçirirler
##vig
kampa
içeriyordu
şirketle
şirketlerine
hastalığının
hastalığından
kişidir
maraton
örneklerini
örneklerinden
fotoğrafların
fotoğraftaki
okuduk
savaşla
ürdün
hazine
##tıyordu
şehirden
şehirlerimiz
gençleri
yaptıklarımız
gelecekler
okulunda
uygulaya
ettiğinizde
etkilemiş
ayrıcalığına
havalandır
söyleyecektir
sallanan
pav
dolayısı
keşfin
anas
oturduğu
yenmek
yenilebilir
yeniliği
yeniliğe
merkezini
bassem
beynimin
yapmasına
arabalardan
yönetilen
cevapladı
denizlere
haftadan
değişikliğe
##künden
komuta
anneniz
patla
patenti
kesimi
önceli
elektriğe
hastadan
beyinler
evrenler
kültürümüzün
olduğumuzun
kitaplarında
odaları
odayı
çiftlikte
çözümlerin
ayaklarını
görüşmek
görüşmesi
görevliler
gezegenimizi
emsal
hücresinin
yaptığımızın
tanımını
takiben
değildirler
##abilirler
boyutların
laik
deneyimli
robotlarla
heyecanı
götüreceğim
doktorlara
kuzu
gidebiliriz
organizatör
arttığı
##mamıştık
koşuştur
zararı
babanın
köpük
köpeğin
köpeğim
dakikalar
bölümün
##cho
davranışa
söylüyorlardı
geceleyin
dönemli
roose
etmedim
tıpa
alırdı
##ebileceğiz
##ebileceğimi
suçlar
kullanabileceği
mikroorgan
sınıflarda
ucunu
cinsten
oynadı
oynayabilir
düşüncelerimizi
##ckr
dönüştürebiliriz
gaga
##cağımıza
değişimdir
yükselmeye
ilerler
viral
kanserden
simge
brok
tanışma
##skar
kopr
uzmanlaş
edecekti
şanslar
kaybettiği
ödevi
ayırmaya
ayırarak
ayırıp
yayınlamak
hapı
zamanlardaki
187
186
vurmak
##laştırma
öğretmenim
sırları
faydalana
unuttuğ
buyrun
süreçten
giyer
kafeter
ışığına
hükümetleri
sebebidir
diyordum
kamerayla
şefi
##emeyeceğini
bebeklere
kokusunu
yapacakları
yapacaksın
annemle
beklenti
yapabilme
öğrencilerine
gözükebilir
gerçekleştiren
gerçekleştirdik
anlatabilirim
feda
bitkisel
camı
cooper
lisan
dağılmış
psikopat
duvarların
sokaklar
sokakları
darfur
seviyesinden
##meyelim
kodunu
kodlamayı
ruhunun
çalışmakla
imkanlar
listeyi
listenin
sayfasında
sivri
virüsleri
motorlar
itiş
itiyor
bayram
networ
yemeğin
piyade
zamanıdır
laboratuvarında
öneriyor
önermek
başarısızlığa
rakamlara
porno
edebiliyorlar
bağışı
yürüyerek
kuracak
böceklerin
yetişkinlere
üretiminde
söylerdim
moleküllerin
yanılıyor
hayatıma
kastım
yönlendiriyor
mahallenin
çalıştığımı
itibarı
saplantı
performansın
yeteneğe
besleniyor
şartlarda
olmamızın
sağlayacaktır
reklamlar
uyduları
malzemenin
yapıldığında
koyabiliriz
##bury
stabil
çöktü
dreyf
notu
kampüs
atmosferdeki
ıslah
kenarındaki
dengesini
başlamalı
altyapının
saygılı
artışını
eserin
besinleri
cezaev
severdim
nanometre
suriyeli
yarımkür
katılımcılar
istemediği
bulaşan
görmüştü
görmüştüm
tabandan
tabanına
proteinleri
pencereler
kaydediyor
oyuncular
zekaya
açıklamalar
tutarsız
canlandırma
mektub
sorgulama
sorgulamaya
kıyaslama
yavruları
parçalı
olmamın
harfler
çıkacağını
anlarız
uyuşturuc
johan
kazanacağız
sıvıyı
biyoen
aktiviteyi
varlıklarını
keşfedil
olmanıza
hissederek
cerrahlar
hıristiyan
toksin
kurtarabiliriz
boncuk
sıkışıp
tahtaya
tahtası
hikâyeleri
materyaller
çiftçilik
sıkıntısı
cümleler
caddesi
sineklerin
sunuyoruz
dosyası
sirket
ekibimiz
##tımızda
satılıyor
ilgiliyim
konserve
çıtır
tayvan
arktik
sağlamalıyız
eğrinin
eğrisi
güçlendirmek
##leyebiliyoruz
antren
venter
kilisesi
nitelikli
ozgur
defin
parmağını
imkânı
yanılgı
gözlerinizin
şifreli
dolduran
fıs
yürüyordum
prezervatif
aslanlar
yurtdış
rosetta
çeşitliliğini
memuru
olacağımı
derinliklerinde
penguenleri
penguenlerin
ışınları
donanımlı
starbucks
filistinli
ekseninde
olimpik
sıkıştırılmış
exp
yapamazsın
logarit
topluluğunun
düşündürdü
şeria
##lığımı
karıncanın
muhafazak
istemişti
istemiştim
özgürlüğünü
lgbt
sünnet
favorilerimden
sülfit
görünümlü
buzdolabı
kafatasının
peynirli
afrikan
kestirme
aşikâr
iplikç
mikroskobik
alıştırma
hanımefen
çekirdeği
başkenti
central
repertu
##oskopi
lesterland
hâlihazırda
sürüngen
metabolizma
iskoçya
grand
infaz
keyfini
sarah
detaya
umrumda
sepet
rastlantısal
idaho
jesse
kunduz
kesintisiz
idaresi
jacqu
flickr
yücelt
şelale
tefek
kertenkele
gonder
içgörü
süperiletken
erectus
zipcar
geyik
cetvel
mikrodalga
koklear
wired
perakende
gardiyan
mahatma
serebral
hidrokarbon
ultraviyole
gulusmeler
kusura
siftable
roosevelt
kafeterya
dreyfus
57
62
aley
ağına
cc
cu
calı
clay
efor
ego
fur
fol
fro
hp
holog
hondu
iw
jir
kisi
linc
linda
odan
pij
rin
sik
sum
seye
skan
sulu
tos
ub
viy
who
yosunu
öder
##üj
##nor
##nal
##linin
##asta
##alist
##ıcının
##ılıyorlar
##zen
##kak
##keni
##kana
##sir
##çları
##binde
##bus
##banın
##hara
##oid
##dora
##jik
##gli
##galı
##genin
##şe
##win
##lamanızı
##eret
##erana
##and
##illeri
##iliyorlar
birler
birgün
##maca
##lex
##unk
##yalist
deger
dediğimi
kalıyorum
katran
bayanın
bayım
##okulu
sac
saydı
saçı
içed
indik
yapana
yapsak
##talk
##tagon
##iyüz
bunal
anna
##itz
görmekte
görmeniz
göreceğimiz
gördün
##oln
şeyimiz
neil
nezle
nezak
##tiçi
varlığın
varlıkları
başlarım
başlamaz
##cast
taahh
##sama
##teceğim
iştah
kargo
illa
büf
zamandaki
##tirler
yanları
##cekleri
arıyordum
##ceğe
##roy
düny
sorumuz
sorduğumuz
ileti
##mayacağımızı
##alının
##küp
##kütle
kullanmakta
kullanmaktan
sonrasına
evini
evlerinden
evimizde
##iyeler
bulması
buluyorsunuz
denebilir
geçmişti
çıkı
harek
günlerce
açarak
açlığı
açtılar
sürenin
ilgimizi
##iliğine
maçı
botan
bots
pros
##lus
sehir
durması
durdular
##ınacak
topladığımız
yakındaki
üzerin
üzerime
##lıyordum
yolladı
gösterebiliriz
göstermeden
akdeniz
dönmesini
döndüğü
ortası
ortaokul
##tüsü
bilgin
özünü
ölüyorlar
söylemenin
##olojiye
hakkına
hakkımda
yapamadığı
miller
uyuma
öğrenirler
öğrenirsiniz
güldür
aziz
azdan
oluşması
##lüler
isteğimiz
gitmenin
gitmişti
yönüyle
inanır
inanırım
inanamıyorum
kendilerinden
taran
tarımı
alanım
alandan
alanlardaki
kimileri
erdir
eriyen
olurdunuz
bütünleş
sulak
sualtı
sustur
getireceğiz
##diğimden
sistemimizde
##nec
kup
açıktır
açıklığa
açıklayabilir
tember
tempor
##bileceğinden
yaramayacağını
yarayabilir
yazının
mesuliyet
çekiyorlar
çekilir
beyan
giriyorlar
girmeyeceğim
hareketlerinin
##istim
##bee
##leştirdi
değiştiril
seçerek
üreticileri
çıkarmış
çıkarmanın
çıkartıyor
çıkarıldı
çıkartıp
güçlerinin
##bera
sorunlarının
sorunsuz
affet
yardımlar
##lımız
atmış
attığı
atladım
##vania
kaçı
kaçıp
bitene
bitmeyen
dokuma
##rix
fikirli
##mentasyon
##lukla
geleneği
deneyden
deneylerde
dinledi
devamı
##kett
##melen
seroton
değerdir
değerlerinin
##onomik
zorundadırlar
sonuçlardan
korkak
korkusuz
sayısında
##liğim
##liğimi
müzenin
##gedan
avuc
toplumlara
gezen
açıcı
yaratın
projeden
çalışmalarım
biliyordur
##landıran
geçirdiler
kambur
içermeyen
şirketim
öğretil
öğrettik
öğrettiler
örneklerde
imge
isterdiniz
saatin
çizerek
geliyorsa
kıran
canını
savaşında
savaşıyor
yakınlarındaki
sözlüğü
bert
sanatla
dileğ
rex
paylaşmayı
uygulan
uygulayıcı
sağlıksız
havadaki
eğitimden
geliştirilen
söyleyemez
oranlarda
oranlarına
pasta
keşfeden
kaynaklarına
oturarak
oturuyordum
kürenin
programların
beynindeki
beyninizde
etraflarındaki
gruptan
ölçmeye
anlatmayı
anlatmama
arabasını
barry
araçlarımız
telefonlarını
telefonuna
haftaya
karşılaştıkları
teknolojidir
haberlerin
önceye
olaylardan
##hry
genişle
genişlete
##head
görüntüde
kitaplarda
kitaptaki
odam
durumdaydı
##üyüm
##lanmıştım
seneden
tedtalk
destekler
desteklen
destekleyici
çiftliği
istemeyiz
edindim
edindiğimiz
istiyorsam
göndermeye
##maktaydı
filmlerde
yanlışlıkla
çarşa
çarşam
çöm
bahsedilen
taşıyarak
tanımlamaya
tanımladık
alıyordum
kreş
soldan
engelleyecek
deneyimim
yarıçap
akılları
uğraşa
ihtiyaçlarına
götürdüğ
aşçı
ışıklı
elemanı
uzaylılar
üniversiteler
üniversitesinden
adıma
karışmış
geceler
öldürdüğü
kuşku
azaltacak
çocuğunuz
hizmetini
hizmetlerine
hizmetlerinde
yakalayan
yakalandı
yakaladık
görmekle
hedefin
sarka
sarsıntı
haritalandır
seçimlerini
büyümekte
mesajım
sağlayabilecek
missis
maddeye
binalara
nüfusunu
veririm
karaya
ciddiyet
halkla
başlayayım
tartışmayı
kanserinin
kanserojen
simgesi
larını
kaldırmaya
ortamdaki
başladıktan
125
kurumlara
kurumlarının
##ileşmiş
pazarda
kendisidir
yerleştiriyoruz
batıya
makineden
makinelere
fikrimi
ödedik
ayırıyor
ayırdık
yayınladık
1800
tanrılar
işlemini
karbonhidrat
yeşile
unutmuş
gördüklerinde
proteinin
mühendislerin
kafka
kaynağımız
diyorsun
süperkütle
##liğindeki
savcı
politikaların
kapıcının
bekleniyor
diyar
yüzeydeki
yararlan
oynuyorum
bulmaktı
hastanenin
bakterilere
uğraşmaya
uğraştığımız
öğrencilerle
kardeşlerim
katılın
mücadelenin
anlatamam
gittikleri
nedenidir
başkanları
bitkilerden
cohen
siteye
sitesinde
farkındalar
değişikliklere
psikologlar
başlarız
başlarsak
duvarlara
darmada
krizini
meseleleri
##ülerek
turn
turş
edebilirdi
olmadığının
formlar
yaşanıyor
uçaktan
gözlemlediğimiz
heykeli
bayra
gökdelen
çalmayı
baskıcı
çılg
yoksullar
dokunuş
sahnesi
potansiye
gitmekten
kumsal
bedeninin
vücuttaki
erişmek
değerlendirmeye
erkenden
firmanın
nöronları
##lanırdı
barışın
yönlendirme
biçiminde
koşullara
zihnin
zihnimizde
ebeveynlerin
verilerden
çabalar
kağıttan
eylemler
1982
1985
sapi
yaklaşımımız
performansını
tehlikelidir
kanaat
taşınıyor
taşındık
kopyası
hipok
yapayım
kapasitesine
bulunuyordu
denemede
reklamları
kartlar
koyacağım
etkilenmiş
mesafeyi
kaçırma
grubunu
menfez
düğme
düğmesi
tutkusu
bulutların
gelişimine
gelişimsel
yolculukta
inançları
yaratıyorlar
kalırsınız
gemisinin
kalbim
kalbinin
şiirin
korkutan
dökül
tepkim
irde
gururla
karıncaların
yaşayabilir
sure
basıncı
yerlerdeki
müdahe
1968
enflasyon
muhabbet
uçurt
kaçınmak
kravat
patlamalar
tükenme
boşlukları
israilli
atomlar
düşmanı
sorgulamak
koyarız
aciliyet
kütlesinin
materyali
yavrularını
markalar
markası
hissedebilirsiniz
kabloları
hissettirir
mültecilere
depresyona
ofisimde
karikatürler
performanslı
verimlili
varlıkların
konumunu
avantajları
ferag
slaytı
toksik
heykeller
yaptırım
römor
çalışabiliriz
dünyamızdaki
etmemi
yörüngeye
isveçli
mikropları
göçmenler
lang
yellow
ekibinin
sandalyeler
bütçesi
sayfanın
sayfalık
vücudunuzdaki
bedavaya
kazandırmak
varsayımsal
masraflarını
tesisat
papa
volt
kaybına
çantası
kalıpları
enfeksiyonu
tayin
kullanabilirler
çatışmaların
sivrisinekleri
teleskoplar
bekliyordum
vücudumuzdaki
köprüler
reddede
calisan
ümitsiz
doğuşu
##orado
dakikam
doğuruyor
taşımacılığı
yolculuğum
bedelini
dizilimini
elektronlar
isteyip
zorunluluk
##larindan
aktörler
dinozorlar
göremediğiniz
görmüyoruz
hakikat
lokal
picas
yahudiler
##scar
tanınan
kaybediyoruz
molalar
manas
bilgilendirme
anatomi
süslü
mikrofonu
kulesi
topluluğuna
yılımızı
gerginlik
bitişik
phot
övün
övgü
alıko
seyrediyor
soğutma
salınımları
kuşağı
popülasyonu
kısalt
konuştular
rüzgarı
klavye
##uddin
cape
savunucu
küçüms
kafanızda
deyimiyle
çağrıştır
tıkanıklık
sondaj
blackberry
bilmeyenler
salıver
jackson
efektler
pürüzsüz
meclisi
##rayna
basmakalıp
zarfında
biyoküt
murray
iktisatçı
mahvol
yakıtı
müzaker
müzakere
manipüle
lütu
pusula
alışılmışın
binlercesi
tahminde
gösterişli
dolandırıcı
ikincil
havayolu
hürmet
ukrayna
reagan
cibinlik
##changing
madalya
yanlızca
akvaryum
penns
konsepti
heteroseksüel
cheryl
derneği
gidişatı
ihtişam
meselenin
eduardo
reflek
friedman
kamboçya
madaga
movember
square
geometri
departmanı
orleans
raisuddin
lincoln
tembererana
çarşamba
süperkütleli
feragat
picasso
82
bt
bini
dg
eee
fm
fra
hün
hım
holo
hob
huc
hitler
ilerde
iliği
ks
kb
kgs
mba
ow
oya
ody
ooo
pana
remi
sın
sob
tör
tesel
trak
uu
uv
uran
vis
ww
wis
wood
zil
zep
zana
zatür
çita
şundan
##nis
##cle
##ces
##cesini
##ciliğe
##zir
##zya
##mart
##kur
##kinin
##kanın
##sünde
##ydın
##beler
##doğ
##ju
##fl
##fiye
##geni
##vis
##ving
##vete
##ery
##erkil
##anası
##arsa
birak
birde
##aktiv
##leriydi
##lemez
##ünikasyon
##yazı
##ella
##elin
deg
desi
demin
detek
kasıl
kaslar
##eto
##stone
##stij
##emeyi
##emiyordum
göbek
sao
satıyorlar
hatir
##umann
##urla
##uripo
##lia
anlarda
anth
##ather
görmem
bilemem
neumann
##ümle
##bilirdik
başları
başlarını
onarı
etek
ettiyseniz
gidil
aln
almayan
almalarını
##sadı
hersey
gelmeyen
geldin
geliyorlardı
önleme
işti
işlerinde
geiger
vermiştim
vermiştir
verilmişti
##uke
düşüp
arastir
konfor
konumu
zamanlama
zamanından
zamanımın
yanımıza
olandır
##utnik
ort
orkide
##cığı
##tırken
gerçeklikle
ardu
arta
arıcı
yaşlanan
tekton
yıllara
bakmakta
sorgul
yüzlü
yüzümü
##opolitik
asgari
evre
evimize
kot
kosta
büyükler
bulmam
geçiyorum
çıkmayı
çıkmadı
açtığını
##düs
sürmeye
##elerce
maj
sandı
santrif
şekillerin
şekillen
sağlığınız
durmuş
hakem
##sion
##ocu
##çağ
topa
toplayarak
yakmak
yakının
##tikal
üzerini
genlere
parka
##bao
##ebilirdim
yolumu
kurmamız
kuresel
kurarken
derste
dersten
zorlan
zorlamak
zorlayan
buradalar
insanlari
söylesem
söylemedim
nedenler
ilke
ekoloji
ekleyin
##lemeli
yapama
yapabiliyorsunuz
yapacağınızı
çocuklarımın
##termal
kayma
uyurken
uydunun
karşılığını
farklılaş
##ebildi
duymadan
duyuyorlar
duyduğunu
gülen
azdır
edebileceğini
inanarak
durumlardan
##sallık
veyahut
gözlerle
gözenek
izola
hayir
bütünsel
##trans
sura
suların
sudaki
##duğundan
hayatınıza
amig
ambar
amino
türünde
getirirler
sistemli
sistemlerimiz
kudüs
açıklayacak
özelleşmiş
müteş
yazarım
arkasını
olacaksın
olacaklarını
olacaktım
çekiyordu
çekmeyi
çekmenin
altmış
##layacağını
tasarlanan
ülkemizin
##becca
##leştirir
bahçı
değiştiriyorlar
tutmuş
tutarken
tutunuyor
tutula
seçimin
seçebiliriz
üretebilir
vardığım
vardığımda
noktasından
adamlarını
ediliyorlar
edilmesini
güçle
güçten
##layım
sorunlarına
adlandıra
yaklaşırken
hıza
bulunmaya
kanım
kanca
kanzi
kanarya
çözüldü
attılar
atlayış
biliminde
bilimcileri
çağa
çatal
çalarken
bitmez
dokusuna
resmet
takla
takıyor
kızkar
birçokları
dinlemeyi
makar
##mezseniz
sonuçlandı
kararların
avcılar
uçmaya
açılacak
yaymaya
yayını
hayalleri
neredey
projelere
projeksiyon
çalışmasına
harikadır
geçirip
içerisinden
şirketlerden
başarısını
##egal
problemlerle
##lamıyorlar
fotoğraflara
imle
isterlerse
saatini
okuyacak
ünite
bertie
##düksiyon
yeğ
yedir
gerekenler
benzerleri
reed
rebecca
okullardan
hatırlayan
hatırlamıyorum
ilavet
paylaşabil
##diğinize
etkileme
sekans
kontrolsüz
sağlıkla
ligi
örneğe
araştırmaların
tarihç
biyop
koltu
kaynaklandığını
bazda
merkeze
merkezinin
merkezlerine
gücümüzün
beyninize
yapmayan
arabada
hissetmiştim
hissettiğiniz
barbara
dikkatimi
denizler
denizdeki
denizanası
teknolojideki
kesen
kesimden
konuşmasında
##vela
yalnızlık
olayını
yapardı
yaparsa
çevresinden
robota
çifti
yazıyı
##hrin
tepedeki
hastalarına
howard
house
evrenimiz
uğur
kültürde
modelleme
odalarında
yemiş
destekç
destekledi
norma
ilişkisini
sınırlama
sınırlarının
çıktığımda
resimlerden
hissedilen
edinburgh
sputnik
taşıyoruz
gönderdiği
gönderdiler
gideriz
görebilen
görebileceği
filmden
birleşerek
nasi
taşıdığı
taşıyacak
tanımlanmış
##etrik
periyo
varsayar
tanıdı
tanıdığı
tanıdığımız
boyutlara
bağlantıda
bağlantıların
krem
solly
deneyimlemek
akılcı
hindist
uğradı
heyecanla
ülkelerine
ingilter
ifadesini
aşin
hiza
buzdan
ürünlerinin
derinlikte
dirse
##mamışlardı
üniversitenin
şaşırmıştım
anlaştık
##mıyorsun
bölüme
karışıklık
canlısı
azalması
azaltıyor
çocuğumuz
çocuğuna
##landırabilir
##memiştir
dayanılmaz
büyüğ
##ebileceğinizi
renklerde
yağma
kullanabiliyoruz
sarıl
sarılmış
sarsıl
sistemidir
oynadım
keşfettiğim
ormanlarda
yemekten
misli
dönüştürmeye
yaratıcılığa
binalardan
binalarda
yetişmiş
çeviren
güneyde
güneyinde
enerjili
ilerlerken
virgin
almakla
donat
anlayabiliyoruz
süpriz
yıldızlardan
ortamına
kiriş
kirleti
pazarın
yerleştirdiler
idari
fikriyle
tatile
sürdürüyor
mimarisi
endişeler
hapsol
leo
kemir
çoğunluğun
ötesindeki
faydalarını
mahmut
unutuyoruz
teoriye
teorisine
kaynağa
hükümetlerin
süperstar
ekibin
##emeyeceğim
dişlerini
yüzeyinden
fırsatlara
soğu
yapabildiği
##tırabilirsiniz
çalışırsak
bakteriyi
yasalara
project
karakterini
makinesini
makinesinin
öğrencilerimin
katıldığı
gerçekleştirdi
gerçekleştirecek
yetiştiriyoruz
cogu
babasına
ofisi
ofisine
işlediği
liseye
psikoterap
köpekleri
sokaklara
sokaktan
ilerledi
kıyamet
##meydi
yaratmaktı
kodlar
tonluk
düşünceyle
listesine
virüslerin
sempat
ittir
becerilerini
1992
gıdanın
yemeğini
sekizinci
mücadelede
eylemin
körük
felcini
ölçeklerde
rastladım
sahnesinde
rakamın
odaklandık
buluşma
buluştur
edilmiştir
kayıtlarını
zorluklara
zorluklardan
tığ
devrime
televizyonun
piyasalar
kurabil
deyip
##kınlık
yazılımlar
böceklere
jeoter
kitabım
kitabının
kitabımı
##lenmiştir
değerlendirmek
aklından
aklınızdan
seviyelerine
köşeye
kereste
üretiminin
belirtti
belirttiğim
nöronun
diski
kasları
##lanırsa
mezunu
yönlendirdi
burdayım
seyircinin
sonucunu
çabaları
dahice
##lerinizden
telgraf
yaklaşımla
yaklaşımlar
tehditler
çatışmaları
ayılar
ayıları
kullanırsak
taşınmak
##ylvania
bileşik
gerektiğidir
yansıması
yansıtıcı
topluca
düşürüyor
ekiple
nitekim
çıkaracağım
arzusu
kulağı
bolt
numaralar
konuştuğumda
trenler
morina
doğruydu
yanaş
kahramanları
dedikodu
ayakkab
bisikletler
tutkun
polonya
dengesi
sağlarız
mekanizmalar
##medikal
eserler
pilleri
fabrikalar
besinler
1976
mutlulukla
hukukun
öykünün
durdurmaya
katılımı
istemedik
görmüştür
anlatıyorlar
domuzlar
uçurtma
uçurumun
gökyüzündeki
geldikçe
bebeğe
hatırlatır
sıvının
kalıt
kalıtım
kalıbı
şekillendirir
bulursanız
kıyıya
kıyısı
##lash
kaydettim
yalancı
müslümanların
gömlek
gömülmüş
kıyaslandığında
yumurtalarını
broad
durdurabilir
evlenmek
evlenmezse
##lamıştık
yataktan
fırsatım
bakıyordum
dönerken
gerektiğinin
yaşadığımızı
manzarası
ibarettir
eleştirel
rick
lifi
hidrotermal
istekleri
kavramak
yurtiçi
buzullar
komşuları
gönüllüler
transferi
tecrübesi
tarifi
mağaralar
yapımcıları
çağırdı
kıyafetleri
sorumlulukları
eskim
heykeltra
sözcüğü
korelasyon
biyolojisi
çalışacağız
farklılıkların
tohumlar
guardi
paulo
prize
sinekler
sunuyorlar
klibi
grafiğin
tüysüz
batman
battan
sandalyede
yatağın
kuramsal
vücudunuza
konferansın
diplomatik
konuşuyorlardı
yayılmaya
tutulur
seçeneğiniz
egzersizi
galois
##başkan
arkadaşıma
terapist
1947
uluslu
rand
örtüsünün
alışkanlıkları
aralıksız
esnaf
damlası
##mous
bilincinde
kilisede
sözcükleri
cumhurbaşkan
dunyadaki
tahrir
hudson
usturla
doğurgan
prestij
rosling
merdivenlerden
jonas
kapsayıcı
sıtmayı
yaşarsınız
başlamıştık
resifleri
##ness
nörobilim
içinizdeki
düştüğünde
cömertlik
reformu
yonet
yaşındakiler
homoseksüel
tanımadığım
yaşlarındayken
öncüleri
hipotezi
orgaz
rezervasyon
anatomik
disiplinler
eşitsizliği
izlenim
tuttuğu
kliniğe
desenler
varoluşsal
edemeyeceğimiz
##feld
1918
icad
kuyruğunu
caltech
antropoloji
kadinlar
mikroskobu
bürokratik
hiyerarşik
uyguluyoruz
mantığın
sağduy
anlaşmazlık
yüzgeçli
oyuncunun
müfreda
boşanma
mazeret
katalizör
foxo
kesici
teşkilatı
erdemli
demode
biliminsanları
basılmış
konteyn
espri
reseptör
kedinin
zimbabve
kardiy
senfoni
ajandası
filipinler
nektar
stajyer
##holm
endeksi
karayipler
alçakgönüllü
sertifika
yuvası
mecazi
egitim
birliktelik
telekomünikasyon
kyoto
pluripo
olmayışı
cnn
alışılagel
vejet
topuklu
sempati
ihracat
kalkülüs
değineceğim
arıtma
jennifer
keyfi
mırıldan
stereo
ambalaj
kehanet
galileo
rng
honduras
nezaket
taahhüt
çömlek
potansiyele
lütuf
pennsylvania
izolasyon
kızkardeş
ilaveten
jeotermal
guardian
pluripotent
49
67
73
71
bark
cle
clo
chen
cham
child
dp
dine
gap
h5
hw
hir
hul
huş
hot
isi
kiz
klü
malı
nemli
ode
oscar
pok
pür
pick
rd
rab
rizik
til
tul
tod
zım
zıv
çiv
üm
şur
##non
##cınız
##ciliğ
##eing
##luy
##luydu
##luyuz
##rük
##ğlak
##more
##misti
##kına
##sım
##sus
##she
##yüm
##ymous
##huş
##obi
##dler
##ges
##pp
##plan
##şembe
##âh
##andan
##ilme
##illo
bireye
birinizin
birimleri
bularak
buck
##ektör
##izdeki
##dale
##lıydı
##iklet
##yağı
yatı
##elisin
##dilar
##onları
##onto
##rahim
olm
daf
daydı
dağının
kalıyordu
##lanmis
basında
bacağını
##esh
##okond
##okimyasal
saint
yapamıyoruz
yapboz
##amıza
anlardan
anarş
##ito
göremeyecek
benki
değir
##ıkları
vardir
varmadan
başım
##cağa
sonundaki
etmelerine
alfa
aldığımızda
alınıp
altüst
##sayı
kibera
geldiğin
önleyici
işinizi
verdiklerini
vermektedir
vermemek
##uklar
teçh
bizce
düşmeye
kona
konf
##dirici
##sex
yanlis
olabileceğimiz
olacağından
kenet
kentu
##ülsiyon
büyüle
arter
archie
çalışmaktan
çalışmıyoruz
sorduğunuzda
yüzmeyi
yüzüme
anlamamızı
##mando
##alo
kulüp
kullanmaları
kullanıyorlardı
evlere
evlendir
doğumu
burasi
farkını
farked
şekeri
geçmeyi
geçeceğiz
çıkın
çıkmanın
hararet
günlerini
günlüğüne
günaydın
açıyorsunuz
ilginizi
elim
ellerimle
mau
map
master
mach
progeri
değişmişti
diana
sandık
sağlanıyor
sef
sefa
sefil
##lamadım
faks
gencin
paro
yolladık
gösterdiğimiz
gösterdiğini
gösterilmiş
akut
akıp
##omu
##ücünün
derinin
dernek
dergide
kaldir
zorlaşıyor
insanlarız
ölüler
öldüler
musa
muğlak
söylemesini
söylediğimi
##leyeceğim
karşıma
farklılar
kişiyim
korunuyor
öğrenebil
başkasını
sığa
duymaz
taraması
tamamlayıcı
azot
tarafları
yetmiyor
istedigim
edebileceğim
teknenin
sevmiyor
adada
gözünün
gözümü
gözüyle
alanla
##guay
erdi
geliştiğini
gelişmeleri
edersem
##eliğin
susan
getirebil
getirmenin
getirmişti
getirdiğinizde
yapılara
kucağında
açıkca
modüler
yüklüyor
özelliğe
bunlardı
insanlarına
şema
arkalarında
girebilir
girmemiş
girmesine
hareketine
##isten
##leştirilmesi
bahane
mıydınız
değiştirdiği
değiştirmenin
tutuyorum
seçmiş
terbiye
üretebilirsiniz
vardığımız
noktalara
noktamız
adamının
edilmez
##layınca
güzelliğini
adr
adının
yaklaşıma
yaklaştıkça
afiş
yardımına
bulunmayan
çözüyor
atladı
attığım
kaçının
gördüğün
##riel
katlama
katlana
katlanarak
oluyordum
takın
takdim
takıldı
takıma
kızken
##luktan
tekrarlayan
tekrarlanan
davayı
bilgisine
ağlara
ağlamaya
ulaşımı
parçalanmış
ayrılıp
sırası
sırasını
ının
sonuçlarının
sonuçlarından
korkma
eğitilmiş
sayısından
##liğiniz
kabl
koyuyorsunuz
boyuna
bırakmalıyız
manyet
mantarı
uçar
uçura
yüksektir
dönüşen
dönüşmesi
umar
filo
bekledik
açığı
arkadaşınız
hayalin
bölgesinden
ekonomimizin
projesini
metni
çalışmalarda
##lendirme
mutant
problemine
örneklem
imf
istersin
saatleri
saatlerde
okumaları
çizimleri
temelden
kırdı
kırılma
kırbaç
yakındı
hayvanlarını
##ferans
benzerdi
dille
internetle
yürün
katılıyorum
kutusuna
tasarımla
tasarımcının
gelirleri
kaynaklarla
davrandığını
fırına
oturduğum
oturduğunuz
oturuyordu
yenileş
merkezlerinde
##luğundaki
programının
programlarının
programlanmış
yapmama
etraflarında
etrafımdaki
ölçüyor
ölçerek
ölçümü
ölçülen
anlatmanın
barbie
araçlarına
diziler
diziyi
matris
karşılaştı
##lerimizdeki
daktil
cila
patr
düzenlemeye
öncüsü
konuşmalara
çalışanlara
##oze
##ozo
müziksel
yaparsın
çevreyle
devletlerde
benziyorlar
beyinsap
kültürden
kültürlerin
kültürümüz
planımız
kitapçı
karmaş
##biliyorduk
odama
odağı
olmayacağı
north
fast
ilişkisel
çiftler
sınırının
edindiğim
space
ulusa
görüşünü
emr
filmdeki
##manızın
hücrede
hastalıkla
yapmayacak
kavuştur
birleştiği
tanımladığı
perşembe
lah
labir
incelerken
engellen
hâlen
gidebilecek
buzlu
dirsek
şaşırdım
gizemi
zarara
anlaşa
ilaçlarını
##lanmasının
bölümde
bölümüne
##chell
sundum
öldürecek
öldürülen
dönemlerinde
bozan
roots
yöntemlerini
azaldığı
çocuğunuzun
merakı
geleceğiz
fortun
dayanmaktadır
adımları
yakalamaya
başlıyordu
suçluluk
gerçekleşmesini
kullanabilecek
kullanabileceğiniz
##emezdi
oynadığını
oynayacak
mesajlarını
hesapları
evrimini
miktardaki
verirdi
çevirip
çevirdik
çevirmeye
değişiminin
mekanı
deposu
bireylere
yoğunlaştır
kurtlar
##disinde
simüle
yapılmadı
kaldırdı
kurumlarda
mutlular
kapata
kapağını
idol
makinelerini
edeceklerini
pentagon
sinirleri
sürdürülemez
başlangıcını
treni
kemeri
vurduğu
öğretmenlik
işlemin
babamdan
ötesini
mahsül
yulaf
süreçtir
tedaviden
giyilebilir
kaynağın
kaynağına
kaynağının
süperbilgisay
fakirliğin
atacak
atasöz
dişinin
pandora
yüzeyden
çocuklarınızı
ardındaki
yapabildiğim
yapabildikleri
oynuyoruz
oynayarak
bulmaktır
hastanelerde
çalışırsınız
saldırmak
yasama
karakterlerin
birleştirmeye
birleştirici
uğraşıyor
öğrencilerimiz
gerçekleştirmeye
izleyip
aşıları
aşılama
öğrenciyi
yeniliklerin
sitenin
babasını
motos
ofisinde
tarzında
dağcı
mantıkla
başlarsanız
köpeklerin
ilerlemiş
ilerledik
krizden
##hoo
hamle
görmedik
edebilirsin
masaj
çizgiye
çizgisel
kağıda
kağıdın
kavramının
imkanımız
dolaşmak
çalgı
doğuya
sessizliği
indirip
odaklana
odaklanmalıyız
kaldırabilir
vücutta
toronto
kayıtsız
zorlukla
işbirliğinin
vatansever
toprakları
kurabiliriz
ayağını
##lanabilecek
ettiren
teşvikler
teşvikleri
aklınızı
tedavisine
yaşıyorduk
şeklidir
firsat
söylerseniz
##couver
bölgelerinden
şahin
christi
maslow
duyarsız
yeteneklere
organizasyonların
fikirlerinizi
karşılaştırırsanız
ebeveynlerim
kağıtları
yorumlama
1983
delilik
saptan
170
bakımcı
bakımını
yeteneğimiz
etkinliği
sinyallerini
beslenmesi
delikten
yazarları
kuruluşların
kuruluşlarının
cern
taşınması
ısırı
olmamızdır
oluşturabilecek
reklamcılık
oğlumuz
bacaklarım
keşifleri
malzemelerle
ibrahim
birikimi
standartlarını
##eğinden
çöker
çökert
etmişsinizdir
kullanıcısı
doğrult
atmosferde
kaçırmış
tasarı
kenarda
alacaklar
dokuya
eyaletin
eyalette
partinin
uyaran
inançlar
naklet
eserlerini
etkileşimler
duruyordum
stratejileri
yerleşmiş
hukukçu
olabilecekleri
haklısınız
durdurma
üyelerinin
istemediler
duyura
tırmanıyor
jaws
1965
yumurt
hatırladığım
iddiaya
fosfor
rice
tekerleği
makaleler
otobiy
boğa
ışıl
istatistiklere
isteyebilirsiniz
atomların
katmanları
bombalar
gömle
ısınmaya
durdurup
ulaşabiliyor
hikayesidir
manzaraya
ekosistemi
empoze
bağırdı
erişimleri
##nova
yenilenmiş
gazeteler
gazeteyi
çölde
yattı
eskiye
eskisinden
kapsamı
koreograf
sıkışıklık
etmemek
olmamasıydı
tecrübeleri
farelerin
alışverişi
servisleri
klima
kamyonet
ekibim
yatağında
medeniyeti
agnes
denklemin
konferansında
##ect
yuzy
anketler
zirvede
zirvenin
düşünmüştük
seçeneğimiz
tabakaları
atıyoruz
graham
ganj
gando
mürette
konuşuruz
eğriler
selüloz
devrelerin
etkilerinden
terapisi
lind
ekonomistlerin
##ılacağını
hızlandırılmış
iskeletin
kiliseye
blair
hillary
bilemeyiz
yanlıştır
aynaya
bulmuşlar
tahrik
notalar
notaları
çubuğu
çıkartmak
soyley
kabiliyetine
ustası
yükseltmek
yolculuğuna
fısk
gözetleme
dizilimi
harcandı
kapitalizmi
posteri
nuh
çıktıktan
schwar
franklin
puanları
tanınmış
biçimidir
mumkun
çocukluğumdan
uydurma
tercüm
dağıtmak
dinazorlar
burnunu
fuar
fuhuş
düşünüldüğünde
panelleri
temelidir
çubukları
kulübü
inancım
konseri
santimetr
gümrük
gözlükleri
çaresizce
demokrasiler
kastetmiyorum
hollandalı
hicbir
izliyordum
ekleyelim
kıymet
abartı
vancouver
lambaları
muayen
okuyarak
eczan
koleji
uğruyor
ırkçılık
tabiri
edemeyeceğiniz
öpücük
koyulduk
yıkama
anonymous
ajans
fanat
fantez
enzimler
savunucusu
hediyesi
ömrünü
cazibeli
zannediyorum
kuzenim
psikiyatrist
esinlenerek
kasırgası
çiçeğin
ızgara
basılı
coşku
çatlaklar
şaşkınlık
çizelg
mahkemede
çimento
kelep
keşfediyoruz
dondurma
takvim
varsayımı
pigmentasyon
kaynayan
tevrat
tssb
önderlik
plastiği
güzer
ronald
paradoks
bayılırım
arkansas
unutmamalıyız
zimbabwe
fırtınası
endişelendiren
küfür
karşılaştıralım
cips
ironi
yogun
yamaç
sıyrı
dedektör
tebrikler
lawren
ızdırap
feminizm
vitamini
bayıldım
biyomim
cozum
testere
yakışıklı
katrina
parfüm
aurora
fişek
baskının
şahıs
monitör
kütleçekim
dükkân
jonglör
kompozisyon
jeneratör
komedyen
pasapor
santrali
hoşgeldiniz
bombardıman
aerodinamik
oakland
tofu
vesile
gökkuşa
saplantılı
endustr
tıpatıp
logaritmik
aleyh
ubuntu
temporal
çarşaf
mississip
hipokamp
müdahele
manastır
panama
teselli
bahçıvan
alışılagelmiş
h5n1
riziko
teçhiz
fortune
66
650
ax
agil
acık
adanın
boğu
binip
cla
chur
dc
gut
glen
hc
ili
idim
jami
kine
lö
lip
nol
nut
nazi
pep
rom
roz
sco
stalin
slide
ther
uma
usa
uber
wik
wit
what
zk
ıv
şof
##übe
##nell
##cunun
##eci
##este
##ue
##tp
##teme
##afi
##sbol
##bl
##oit
##olis
##ddi
##gl
##ginin
##perest
##ves
##vaz
##xico
##last
##labilen
##lamamıza
##ladığımı
##inle
##malara
##orn
##das
##dayken
##yam
##yatı
yahoo
##eyan
##eller
deter
##ontan
kaşı
##lankton
baha
bacağım
bach
##celeri
##bildiler
##bilece
hah
##umines
inorgan
inşası
anını
angel
anılan
##isim
##atları
##itenin
##itri
görel
göremez
görebilirim
görmelisiniz
bilmeye
bilince
bileti
bilmeliyiz
billie
bilbao
çokpo
gerisi
gergedan
##ümines
##ılmayacak
varıyor
varıyoruz
başının
etsin
etmiştir
etmiyordu
insandı
gig
alçı
almakta
aldın
endi
gelmeleri
işid
işlerle
işteki
işsizlik
vereceksiniz
ayet
ayri
tebeş
istan
kadara
düşmesi
aralığı
aradılar
yanyana
olayım
kenarı
kenyalı
ordan
yerkür
düşünmez
artıracak
artist
##ceğinden
çalışalım
yaşlar
yaşat
yaştaki
bakin
bakımda
bakire
yüzer
anladığı
kulübe
kullanalım
koali
büyükel
buralara
buradakiler
geçmez
günümde
açmayı
gereklilik
sürüp
sürdük
##yonu
mao
sig
boeing
##tansiy
tanesine
sağdan
sahile
seg
sean
seans
toptan
genlerini
gösterimi
göstermesi
gösterildi
gösterirler
gösterebilmek
kurmanın
##reti
belle
kısıl
##omi
ortalamanın
ortaçağ
dersini
kalmaları
kalmaktan
##tüler
insanlardaki
ölmesi
hiçlik
söylemeden
okuyu
ilkbahar
dos
down
kökünden
hakkımız
yapamayacağı
çocuklarınızın
kaygan
devral
uyut
##redi
kişide
kişiydi
##melerinde
koruna
başkalarından
duymuyor
duyunca
##lett
oluşacak
yetisini
isteğini
doğrulama
yönelim
yönteme
ikisinde
inanca
inaniyorum
inanırlar
##mazlık
seve
sevmeyi
sevmiyorum
##tımızı
görünmek
adalar
adamak
etkinin
etkilerinin
gözlerin
gözlere
gözünü
gözenekli
böceğin
izlemeyi
izafiyet
haydut
eriy
sulama
sularda
hayatla
getirildi
rag
sistemle
sisteminiz
sistemlerle
sistemlerinde
tempo
##bileceğimden
yaramayan
yaramadığı
yazdılar
yazacak
yazabil
yazıyordum
olacaklardır
çekebilir
çekilmişti
beysbol
islık
girdiğim
##layabileceğimiz
tasarlıyor
tasarlarken
ülkesine
ülkemin
##unuzdan
tuttum
tutkal
seçip
seçildi
terimleri
üreticisi
vardığında
çıkarması
çıkartacak
noktasının
adamdan
adamlarına
edilmeyen
edilebilen
edilemeyecek
hikayeden
hikayeyle
##gane
sorununun
yaklaşımın
halindeki
çözmenin
atak
atlata
dokusunu
##emeden
öyledir
eşimle
eşleştirme
yaşadıklarını
tekrarlama
##cup
##ğınızın
güvenini
güvenliğin
ulaştığında
yaşamla
yaşamlarında
paravan
araştırdık
ında
eğitici
oluşturmuş
oluşturuluyor
oluşturulması
sayılarla
sayılabilir
##lamakta
hiçbirinin
kararlaştır
oradalar
dansın
belirte
toplumlardaki
##sing
##edilmiş
uçarak
uçtuk
yüksekte
umul
umarak
bekliyordu
arkadaşına
bölgelerini
bölgelerden
projemiz
çalışmasında
çalışmalarında
alamıyor
oyunlarda
##landırıyor
geçirdikleri
geçirdikten
içerisi
içerdiği
tahran
tahsis
başarıdır
öğretecek
##lambaç
fotoğrafım
isterdi
geliyorsunuz
temelleri
kırılmış
intern
üremesi
sözleşme
bern
bereket
yegane
sanatının
benzerlikler
okulların
hatırlama
boydan
paylaştık
uygulayarak
uygularsanız
ettiğin
ettiğinizi
seksüel
##forma
##forshe
kutsan
kutlamak
kutucu
kutusunu
bağlanan
bağlanma
örneğine
örneğinde
eğitimim
eğitimsel
geliştirmiş
elektir
biyof
daireleri
milyarda
milyarlık
anaokul
oturuyorum
programda
programlarına
hazırlan
gruplardan
hissettiklerini
bilgiden
yönetimin
denizalt
ölümler
değişikliğiyle
mekana
annesini
##geliyor
##acaklar
düzende
düzenini
haberim
haberini
haberlerim
##veland
yeterlilik
bilirim
yapıyormuş
kısmındaki
bahsetmiyoruz
başladığınız
##ıldız
devletlere
hobi
houst
evrenimizin
güçlüydü
kültürlerde
kültüründe
kültürüne
modelde
planım
##heim
kitaplardan
korumamız
destekle
vaha
vaft
tahminleri
tahminlere
çözümünü
spontan
taşıyorum
taşıyorlar
gönderip
göndererek
gönderiliyor
giderdi
parçasıyız
ulusun
renge
görebiliyordum
filminde
hastalıklı
hastalıklarla
gazları
takibi
tanığı
soktuğ
bağlıyız
fizikte
laur
incelem
incelediler
##henk
deneyiminin
uğraşı
ihtiyaçlar
okyanustaki
saklama
ifadelerini
aşının
alınma
alınmıştı
yuksek
artmış
##kefel
bakarsam
uzaydaki
stone
stock
üniversitelerde
ilaçlarla
bölümler
sunar
burk
kalanları
çalışıyorsun
öldürülüyor
##bolik
dönemden
dönemdeki
dönemindeki
rose
azaltır
liderliğin
tabur
##landıracak
dayandır
yavaşlama
renklerin
sarfet
seçimlerinde
besbel
çarpar
etmeyecek
sınıflandırma
yaşayanların
mesajlaşma
mükem
ormanlara
doğasında
maddelerden
dönüştürdük
yaratıcısı
çevirdi
çevirmen
kuzeyde
yükselte
ilerlemenin
vermekle
vermektir
algıları
kanserli
donduru
beyazlar
simüla
simpson
yapabilirdik
yapılmalı
anlayabileceği
ağaçtan
tüketen
tüketiyoruz
tükettiğimiz
düşüktü
kaldırma
özgürlüğe
lerdeki
silahla
silahlarla
yıldızlı
ortamları
eğlenmek
zenginler
kafasına
harcadılar
harcayıp
ailelerinden
kapatıyor
uzmanlaşmış
sinirler
sinirbilim
hücrelerde
sürdürebilir
trump
takımları
1850
vurur
vurup
##laştırıyor
havva
gelenekleri
dağıtıl
anlamalarını
kalkıyor
kalktım
sırlarını
karbonat
bitirdiğimde
2500
bulalım
ışığının
hükümetten
mutluydum
atalarının
umutlu
politikada
oprah
kokuyu
yapacaktır
yapacaktım
çapı
kurtarıyor
olduğunuzdan
yiyeceklerini
##mayacaklarını
hastaneleri
çalışırsanız
##ilirdi
karanlığa
makinayı
öğrencilerden
gözüktüğü
kırmızıyla
kardeşleri
gittiklerini
izleyebilirsiniz
izleyicilerin
yetiştiric
bitkin
bitkilere
camia
sahibinin
yenilikç
girişimler
marshall
costa
siteler
sitesini
off
işlemeye
lisansı
tarzımızı
dağcılar
duvarda
ateşin
topluluklara
görmediği
kıyafeti
edebilirdik
##meyip
öncekinden
masası
çizgisine
formlarının
minnes
kavramları
ruhun
mexico
gözlemledik
gördüğümüzü
şehrine
itha
cezbe
cezbedi
netra
isimsiz
dolaşıyor
çalma
doğura
sonsuzluk
eposta
baskıyı
yaratabilmek
dokunmaya
dokunarak
endüstrisini
tercihler
korkularımız
hasarı
kumun
buluşların
kaldıracak
edebiliyorum
bedenimi
vücutları
kayıtlar
rahatsızlıkları
terörizme
yağmurun
işbirliğini
alakalıydı
devriminden
piyasaların
1600
kutudan
kutucuk
gerektirecek
kitabından
tehdidi
##lanacağını
yetişkinliğe
aklının
tedavinin
biber
köşesi
köşesindeki
çocuklarıma
üretimine
firmasının
gıdaları
askerin
istediğimizde
değiştirmekle
söylersem
kimyasalların
belirtisi
belirtilerini
kitleye
gittiğiniz
yönlendirir
vazif
kamuoyu
biçimlerini
şişme
şişesi
şişenin
savunan
karşılaştırın
müşterilerin
müşterilere
fiyatlar
fiyatını
carter
yabancılarla
kurtulmuş
saptır
saldırıları
stein
young
##tüğünde
şartlı
yazarın
çalıştıktan
taşınan
çabası
kopyalama
grafikleri
genomunu
geceyi
aklımız
aklımızı
uydura
şiirler
bacaklı
yansıyan
almadım
düşürür
düşürecek
biriken
birikint
koyacağız
akışının
standartları
mesafeler
potansiyeline
##eğinin
mitokond
mitchell
dinleyic
morf
dokuzuncu
kampta
atmosferden
russ
ısmar
heforshe
menzil
kenarları
kahramanım
tutkuyu
değerlidir
uzanır
uyarlanabilir
kalırlar
kalırız
gemiyi
koloninin
kolonisi
malzemeden
hikâyesini
boyamak
çiçekleri
tepkiyi
1972
nesneye
haklılar
haklısın
şefkatle
karşımda
kalitesinin
cebir
kullanılmaya
kullanılmayan
dönüşümün
krediler
nöral
üniversitedeki
serbestçe
balinanın
mahallelerde
avustral
hatırlamamız
kaydeder
kaydedip
semboller
altyapısı
tabloları
amacını
katmanlı
doldurur
doldurulmuş
ameliyattan
öyküyü
çerno
uzaklaşıp
yumurtaları
brow
mantarları
çıkarılacak
ulaşabilmek
kazaları
ayrıldıktan
balinaları
düzeltmeye
##ovalı
izlemiş
izlediğini
profesyoneller
hangilerinin
ilişkilerde
sevginin
merhametli
jour
samuel
algoritmaları
algoritmik
kölelikten
kilitli
kutuplaşma
depresyonun
düşündüğümüzü
düşündüğümüzden
ziyafet
aktivitesi
georgia
konuşabiliriz
gazetesinde
gazetelerde
kanatlarını
istasyonları
platformlar
iyimserim
bloklar
bonica
umudun
metalleri
arayüzleri
çiftçileri
yaratırlar
patentini
yörüngede
##dırabilir
mikropların
sırtını
olduguna
gölgesi
peç
örümceğin
avukatlar
sürüklüyor
sürüyorum
kalacaklar
konuşuyorduk
sunacak
anketi
zirvesine
atıyorum
papaya
tüpü
deneyebilirsiniz
maaşlı
yapraklar
bekliyorsunuz
anımsat
unsurları
alışkanlıklar
gerilla
kazandıracak
kesiminde
manzaralar
orkest
bileşenlerin
görebilirsin
bilemiyoruz
bulmuşlardı
##ampar
dunyayi
şifreler
swe
doğurdu
toparlamak
partide
eliyle
bulabilirsek
bezi
diyecektir
otelde
memurları
sermayeye
sermayesi
maryland
müteahh
liberaller
özendir
otoriteye
jimmy
mutasyona
şaşkına
homur
homini
çalıyordu
düşünülür
buharlaş
ivmelen
sütü
küpü
##ülüğü
erotik
chap
oluşmuştur
rekoru
sabırlı
basınçlı
mizahın
nich
nicelik
kalıntıları
mezarlık
istikrarsız
alıkoya
malezya
kavuştu
##teyken
arabanızı
kıtlığı
sorumluluğumuz
koridorda
alarmı
kaybedersiniz
fakültesi
okuyun
ecza
feth
fetüs
iklimin
dansçılar
kibarca
koyuldum
##hhhh
bacağın
tanıştırmak
indiana
alınacak
kelly
misyonu
dolab
tuşa
zanneder
##denizle
ekmeği
psikiyatrik
çalınmış
andıran
multi
umuduyla
affedersiniz
josh
çiçeğe
peyzaj
lisedeyken
augu
öküz
öksür
hadron
leke
lineer
worldchanging
luke
rockefel
shoots
dalgalanmalar
kontrat
stadyum
durgunluk
seyahati
umudumuz
dümdüz
tabağı
seyrede
ekseni
tebrik
akbabalar
çeşidini
komisyonu
##untain
##oshop
sırrını
biyoçeşitlilik
beatboxing
cüretkar
gabriel
tüfek
county
minimum
sağolun
ambulans
retinanın
milisaniye
##watt
katliam
avukatı
muhalefet
armağan
sahtekar
embriyonik
karizmatik
kokteyl
doğruluğunu
story
makalenin
##ovirüs
bıçağı
tevazu
iltiha
bülten
network
antrenman
holografik
içedönük
darmadağın
sapiens
photoshop
madagaskar
töreni
arduino
kanımca
kentucky
kablolu
güzergah
lawrence
agile
ıvır
inorganik
çokpotansiy
koalisyon
houston
vaftiz
çernobil
rockefeller
63
87
88
93
92
aer
abi
acın
aidi
bc
cir
dul
dre
ddt
eman
fta
flu
günkü
gog
glass
hun
imam
leş
lyn
np
nil
niyeti
odul
pik
pır
pip
potter
ral
rüt
rift
sl
seyi
sinden
skala
tk
tül
ula
uca
ulas
çem
çıt
öbek
ılım
ısının
##culuk
##eu
##eda
##lünün
##lilere
##ulabilir
##uch
##rip
##tuş
##tunuz
##tina
##ting
##ata
##aşırı
##ğimizin
##zy
##zem
##mesindeki
##kisi
##ider
##çer
##ydu
##yeri
##binin
##bran
##oda
##ddet
##ding
##jeni
##filli
##öl
##ömen
##gunun
##ptik
##pus
##şş
##şömen
##vekk
##wana
##12
##laha
##lacağı
##irik
##engiz
##ary
##arch
birle
birilerine
birliğine
biriyseniz
buen
bulanmış
##imda
##dad
##dele
##lılık
##lıman
yaver
yasanın
##eyt
##elti
##dit
demeyi
desem
##rasyon
oliver
kalarak
kaşık
kayanın
katıyor
##stine
bav
balığını
##oke
##cegi
##cegim
##ımları
gölet
saul
##umen
yapil
yapra
yapsam
##lilar
##liyim
##uzdur
##iyenin
anton
##itra
görerek
görgü
bileyim
gerisinde
gereğinden
nec
nevada
##ümünü
değdi
değecek
##tiyaz
##ticut
varana
varlığından
##inebilir
##inecek
insanız
alta
aldim
algın
almasına
almıyoruz
herbie
enlem
##oğun
kick
kibrit
geldiğimizi
öndeki
işimize
kareler
geçek
vermeli
vereceği
vermiyoruz
ayıp
aradan
arayın
arasinda
olmadım
olmasi
yandaş
olamaya
yerlerindeki
##cılara
düşünmesi
düşünmeleri
düşüneceksiniz
düşünenler
gerçeklerin
arıza
çalışmanız
çalışmıyorum
tekab
yıllardan
bakınız
bakmaları
bakmadan
sormayı
soralım
soruydu
yüzün
yüzmek
anlamasını
anlamadı
anladığınız
anlayarak
##oplankton
##küler
iyileri
kullanmıyorlar
sonrada
evel
komando
farkın
şeklim
bulmaları
bulmada
denis
harold
açımı
açılması
açımızı
sürüsü
##lenmek
##eceğin
elinin
elinize
elinizdeki
maur
boom
sandım
sanirim
tanesinde
sağlandı
sağlamayı
sağlığımızı
##leştiğini
durarak
durmuyor
haket
haklara
##sica
uzv
##çasına
topla
toplanma
üzerinize
parampar
parşömen
yoldu
yoldaki
yolladım
göstermez
gösterdikleri
akor
kuruyorlar
dönünce
kıra
kılık
derisi
deriyi
kalç
kalmalarını
zorlayacak
özüne
ilkeler
ilkeleri
##lemi
##lemeyle
önemliler
deve
uymayan
karşılıyor
karşılayacak
##melerde
koreli
kortikal
öğrenin
öğrenip
öğrenmem
öğrendiğiniz
öğrenince
öğrenmeniz
öğreneceğiz
öğreniriz
duymalıyız
tamamlandı
tamamlanmamış
azını
yetişk
bağla
bağlayıp
doğruca
gitse
yönlerde
ikimizin
ikea
edebilecekleri
inancın
alkışlama
bizimkinden
seviyordu
sevec
görünse
durumların
durumundan
hastam
gözleme
gözümüzde
gözleriniz
gözümün
mid
##aby
üçlü
konularında
kimsey
bölük
kapana
izliyorum
gelişmek
olurdum
ederdiniz
belaya
suika
hayatlarındaki
ihtilaf
türdeki
türümüz
getirebilmek
mou
mountain
yükünü
senegal
teknolojili
teknolojilerden
merm
merte
müvekk
yazdıkları
çekiyoruz
##durlar
tasarladığı
ülkesinin
nerelere
dışsal
bahan
gelebileceğini
değiştirin
değiştirilebilir
seçen
##minster
essex
terfi
terimini
üretmesi
edilmeye
adlandir
yaklaşır
hızlanıyor
bulunduğunuz
##hanede
halletmek
çözmeyi
atlar
atlamak
##vanya
kaçıyor
çalabilir
çağımızın
bitecek
bitmiyor
bitmedi
doktr
katından
katlanmış
oluyorsa
fikirlerinin
seslere
seslendir
düzeye
takılır
kazmaya
kızımı
eşleşme
tekrarlar
##cuların
deneyip
devamında
yaşamında
araştırmamı
değerde
değerinin
korkar
korkusunu
105
kabine
koymayı
koymanız
koydukları
koyduğunuzda
belirlenmiş
##ununun
bırakmayı
bırakmamız
bıraktığını
mang
toplumlarında
uçta
uçuyorlar
fotok
gezip
yüksekti
yüksekliğini
dönüşmüştü
umduğumuz
umuyordum
beklemeye
açılı
açılarını
bilgisayarlardan
bilgisayarlarda
yayıyor
arkadaşlarından
arkadaşlarınızın
bölgesini
duram
neredesin
ekonomileri
çalışmayla
çalışmasının
alabiliyorsunuz
oyununun
cevr
geçirebilir
geçirerek
geçirgen
##vian
içermektedir
şirketlerini
şirketlerde
öğrettiği
##lamıyordu
imgeler
imtiyaz
çizmeyi
kırıp
ünde
sosis
canımı
savaşını
savaşından
savaşlarda
sözkon
kazancı
kazanmayı
kazanıyorlar
hayvandan
şehirlerimizi
polise
sanatında
benzerini
gençliğ
yaptıklarından
yaptıklarımızı
dilem
dilimiz
hatırlayabil
paylaşmanın
uygulanması
uzaklığı
katılacak
etkilemeye
dereceli
bağlana
bağlantının
##gill
geliriz
gelirsiniz
daireler
oranlarının
oranlarında
pack
##dakini
kolumu
kesindir
kaynaklarından
desteğini
milyarder
oturuyorlar
##luğuyla
basım
cama
programında
beynim
yapmada
yapmalarına
hazırdı
hazırlanıyor
ölçtük
anlattığımız
anlatmalıyım
arabalara
ölümünden
karşılaştılar
hanna
değişikliğin
videodaki
##cilerden
demeli
düzenlenen
düzenbaz
kısmın
yaparsan
çevresi
bahsetme
devletten
tepeyi
hastalarda
hoo
beyinlerini
evreninde
kültürlere
modeldir
planın
planlıyor
odasının
altındaydı
desteklemeye
sınırında
siyasal
istemiyordu
istememiş
biçime
edindi
edindik
##lattı
ayaklar
gönderdiğimiz
görüşüne
görüşüme
görüştüm
görüştük
göreviniz
gezegenden
görebilmeniz
hücresini
birleşip
naif
nagh
navig
taşıdılar
abc
abra
tugay
karmaşıklığa
soktu
sokup
krip
lağım
lava
incelediğimiz
engellerin
hâkim
baktığını
deneyimlere
uğrayan
götürdüler
duyguya
##lamayacağını
saklıyor
gideyim
ışıktan
buzu
hepimizde
düşündüğünde
ürünle
bakarım
koşup
gizlenmiş
altıda
hoşunuza
karışmıştı
cidd
burma
ettiklerinde
döneminden
ilgilenir
ilgilendim
rover
kurallarının
balıklarının
azaltan
azaltabilir
liderin
liderlere
rağbet
##memişlerdi
hizmetlerinin
çocuklarımı
##mızda
bakışta
bakışımızı
yakalanıyor
renklerle
kullanacağımız
hedeflerini
yardımcısı
##ings
görülmeyen
mikrobik
sınıftaki
cinsiyeti
mesajın
mükelle
ormanlarını
düşüncelerimi
doğasına
sattım
miktarına
dönüştürebilir
dönüştürülebilir
verirsem
ödüyorlar
çevirdim
çevirirsek
kuzeyinde
yükselme
yükseldiğini
başardığımız
ilerlemesi
başarılılar
yoğunluğunun
kanserinden
donör
donald
yapılmakta
anlayabiliyorum
kaldıran
kaldırır
404
tanıştığımız
tanıştıra
temizlen
temizliyor
bulunanlar
##sko
başladıkları
kafaya
yerleştiril
anneden
uzmanlara
şansları
hücrelerinizi
mimariyi
uygulamaların
takımın
takımına
vurmaya
vurgul
##laştıran
anlamama
kalkar
dersinde
malzemeye
unutmayalım
teorileri
süreçle
bitirdi
molekul
geçerler
bulabilecek
bulabiliyor
ingilizc
ingilizler
süpernova
fakirliği
savuna
##emeyeceğiz
##emeyeceğimizi
kapılır
özelliklerin
yüzeyleri
soğur
yararsız
yararlanmak
yapabilmeleri
rolleri
kökler
gücüdür
hastanesinde
hastaneden
##ilirse
birleştiriyor
birleştirilmiş
katılma
katılmış
gerçekleştiriyor
cihazların
cihazlara
aletle
aletlerin
aletlerle
yetiştiriyor
yetiştirmeye
bizleriz
aşıyı
öğrenciyken
yenilikçiler
farkındalığı
politikanın
liseyi
tarzının
dağar
dağıl
duvardan
ateşkes
gerçeğiyle
kanıtlara
kanıtlanmış
krizler
meselesini
turun
görmediğiniz
çizgisinin
formüle
formülü
söylenecek
temsilciler
yaratmakla
##lesinden
kodları
okyanuslara
tekniklerini
düşüncesine
köydeki
köylerde
köyünde
##gowan
sayfalarını
semen
yarışa
cezbet
esaslı
baykuş
dolaştı
dolaşmaya
çaldım
piyasanın
##dekinden
##dekileri
##dekilerin
bulduklarını
baskıyla
##ılmasıdır
felcinin
laboratuvarlarda
endüstrisine
anima
önerdi
güvenlikli
sahneler
rakamı
titres
indirebilirsiniz
odaklanmaya
odaklandım
nesillere
##pace
kaldığında
edebilmesi
tecru
kayıtlı
kayıtlara
kayıtlarına
yağmurlu
eriştim
deyince
icatlar
olabilen
jeopolitik
kitabına
kuvvetler
##lanamayan
tedavileri
fiilen
tırna
köşelerinde
firmaları
askerlerin
detaylara
##layacaklar
söyleriz
moleküllerini
suyuna
araziye
belirtiyor
nöronlara
japonlar
gittiğimizi
yönlendirmek
kamuya
biçimine
biçimlerde
yaygınlaş
akşamı
akşamlar
savunması
karşılaştırmak
seyirciye
##meyecekler
tasarruflu
##mektedirler
dalında
kurtulup
1987
1988
delme
sektörüne
çatışmanın
saldırıların
taşınmış
objenin
objelerin
eksiklik
hipp
bulunuyoruz
denemiş
düşüren
fener
çıkarabilirsiniz
koyabilir
salonun
statik
öngörüyor
etkilendi
etkileniyor
etkilenmiştim
mesafeden
komşusu
trenin
ıslak
dokular
aşkına
başarabilir
kayaya
kayaların
uzanmış
kemikler
atılıyor
inançlarını
yaratıyorsunuz
kaybolmuş
denediğimiz
büyüyecek
kalbimi
aktarımı
cezaevi
stratejinin
##iğim
##amızdan
hukuku
karıncaları
kısıtlamalar
aciz
acemi
üyeler
adaletin
yürüdüğünü
öğrendikçe
uçurmak
ekonomideki
radyoaktif
dostlarım
bilmediğiniz
hatırladınız
artırır
sıkıya
kaydeden
kaydedil
istiyorlarsa
makalede
sembolleri
patlamaları
tükenmekte
metrede
altyapıya
kıyılarında
görünüşünü
ışıldayan
vahşet
mercanları
derecesine
dizaynı
atomun
atomik
atomları
makinaları
prag
kıtada
kıtayı
kampanyaları
tartışmasız
yumurtalık
broth
ısınıyor
memnuniyetle
alternatifler
kazasında
karışıklığı
davalar
izlediği
izlediğiniz
walmart
lifler
madeni
hissettirdiğini
başlayana
kıvır
isteklerini
gelişmelerin
dövmeler
kusurları
depresyonlu
olacağıdır
ailemde
araştırmacısı
sızan
faaliyetlerini
çağırıp
beta
duracağım
gazetesi
düşündüğünüzden
yeryüzüne
vakalarda
mcgowan
göremiyoruz
artışa
dünyamıza
yürütme
açtığınızda
hikâyelerin
pozisyonu
pozisyona
çiftçiye
gribe
birçoğumuzun
tezi
prince
denemeleri
alıcısı
evrimleşmiş
büyütül
lanka
örgütleri
pedal
kapanış
getirirseniz
istihbara
dönüyorum
şarabı
kütüphaneye
tasarlanmıştı
konservatif
diploma
dükkanına
yunanlılar
elektrotlar
tesisler
söylemeyeceğim
sığdıra
allahım
yaprakların
görülüyordu
büro
yenileme
çağrısı
örümcekler
duyduklarında
simetriye
hapishaneye
brah
yiyip
gözlerimin
fotoğrafçısı
animasyonu
şifrelenmiş
bulamadık
yarasaların
atardam
duyurdu
şeritler
istikam
büyükannemin
roketler
connec
esteti
fırtınaları
korteksin
watt
kapitalizmin
rafine
dağıtımı
sermayenin
taşırlar
işleyişi
süzülüyor
tavanı
kaybediyorlar
yont
exxon
alip
senaryolar
ehliyet
elemanları
bageye
düzenlediler
çubuklar
süvet
dort
doruk
çaresizlik
elbiseler
kâşif
magn
figürü
olgudur
satıcısı
metroda
hristiyanlık
hibrit
döndüklerinde
arkamdaki
desenleri
hacm
ikilemi
aleminde
fakülte
hyper
konusuyla
etkilediği
yaşlanmayla
duraksa
görünümünü
kimliğimi
veritabanı
ekmeğin
çağrış
yöneltti
##othy
nişasta
##boro
resmine
subj
biyolumines
biyolümines
portf
metropoli
çizelgesi
halüsinasyonlar
uzaklıktaki
mukemmel
narin
zahmetli
ölümsüzlük
tavsiyem
euro
farkedeceksiniz
usb
çetin
otopark
zambiya
ayrılırken
rengine
oksijeni
oksijenin
münaz
esrarengiz
anlayacaksınız
ozellikle
justin
justine
regl
soruşturma
kutbuna
komplikasyon
trampet
nathaniel
yoga
irtifa
tutulamayan
profili
biftek
gezerken
ağabey
ağabeyim
sürtünme
modifiye
modifikasyon
tabela
labaratuvar
yöresel
şuurlu
eksponans
coşkulu
dimitri
boyanmış
metrekarelik
[...]
